e r
s t
: %C4%A0
e %C4%A0
a n
c h
e n
i st
s s
e i
. </s>
. %C4%A0
an t
s er
A ss
%C4%8A Ass
ant :%C4%A0
ist ant:%C4%A0
U ser
User :%C4%A0
%C4%8AAss istant:%C4%A0
%C4%A0 d
%C4%A0 %C4%8AAssistant:%C4%A0
? %C4%A0%C4%8AAssistant:%C4%A0
i n
u %C4%A0
i e%C4%A0
s %C4%A0
User:%C4%A0 W
t %C4%A0
s ch
n %C4%A0
en %C4%A0
st %C4%A0d
User:%C4%A0W ie%C4%A0
u n
e l
st%C4%A0d u%C4%A0
i ch
t z
.%C4%A0 D
er %C4%A0
ei n
a r
%C3%83 %C2%A4
%C3%83 %C2%BC
?%C4%A0%C4%8AAssistant:%C4%A0 D
.%C4%A0 %C4%8AAssistant:%C4%A0
an n%C4%A0
r ei
st %C4%A0
s e
.%C4%A0D ann%C4%A0
t i
l i
t e
en .</s>
?%C4%A0%C4%8AAssistant:%C4%A0D u%C4%A0
a s%C4%A0
g e
o r
d %C4%A0
a u
in %C4%A0
ist %C4%A0
b er
un g
ich %C4%A0
tz e%C4%A0
o n
rei b
a l
, %C4%A0
sch reib
%C3%83 %C2%B6
u r
%C3%83 %C4%BE
m m
%C3%83%C4%BE ber
s i
ein e%C4%A0
sch e
a ss
se tze%C4%A0
e%C4%A0 ich%C4%A0
in s%C4%A0
%C3%83%C4%BEber setze%C4%A0
%C3%83%C4%BEbersetze%C4%A0 ins%C4%A0
sche :%C4%A0
User:%C4%A0 %C3%83%C4%BEbersetze%C4%A0ins%C4%A0
a ch
m %C4%A0
e h
User:%C4%A0Wie%C4%A0 schreib
i er
User:%C4%A0Wie%C4%A0schreib e%C4%A0ich%C4%A0
User:%C4%A0W as%C4%A0
l e
t .</s>
i el
un d%C4%A0
E r
s a
ei n%C4%A0
p r
ch %C4%A0
E n
E in%C4%A0
a t
i t
F r
z u
en .%C4%A0
l an
d e
o l
b e
i r
t e%C4%A0
d er
c k
a b
User:%C4%A0Was%C4%A0 ist%C4%A0
sa mm
e g
S ch
e .</s>
i l
an z
m i
v er
i g
I ch%C4%A0
t r
En g
samm en
i e
ass e%C4%A0
Eng li
t %C4%A0d
anz %C3%83%C2%B6
anz%C3%83%C2%B6 si
l ei
zu sammen
User:%C4%A0 F
Fr anz%C3%83%C2%B6si
E in
User:%C4%A0%C3%83%C4%BEbersetze%C4%A0ins%C4%A0 Franz%C3%83%C2%B6si
User:%C4%A0%C3%83%C4%BEbersetze%C4%A0ins%C4%A0 Engli
User:%C4%A0%C3%83%C4%BEbersetze%C4%A0ins%C4%A0Engli sche:%C4%A0
User:%C4%A0%C3%83%C4%BEbersetze%C4%A0ins%C4%A0Franz%C3%83%C2%B6si sche:%C4%A0
%C3%83%C2%BC f
t er
zusammen :%C4%A0
User:%C4%A0F asse%C4%A0
a g
n i
r e
a h
r o
s p
el l
%C4%A0 %C3%83
ei t
mi t%C4%A0
k l
p lan
u f
S t
%C3%83 %C5%81
pr %C3%83%C2%BCf
ge b
e u
ur z
o n%C4%A0
u m
s ?%C4%A0%C4%8AAssistant:%C4%A0
er n
au f
e t
en t
Ein e%C4%A0
in g
%C4%A0 +
%C4%A0d ie%C4%A0
%C4%A0+ %C4%A0
R e
User:%C4%A0Fasse%C4%A0 zusammen:%C4%A0
ung %C4%A0
v iel
User:%C4%A0Was%C4%A0ist%C4%A0 ein%C4%A0
s .</s>
b ei
plan st%C4%A0du%C4%A0
an d
,%C4%A0 w
ei l
geb ni
Er gebni
ti on
r %C4%A0
u tz
V er
u t
f %C3%83%C2%BC
r a
h l
o %C4%A0
e s%C4%A0
k t
%C3%83%C2%A4 n
en ?%C4%A0%C4%8AAssistant:%C4%A0
T e
User:%C4%A0Wie%C4%A0 planst%C4%A0du%C4%A0
en .%C4%A0Dann%C4%A0
r it
.%C4%A0 S
k urz
ge h
k o
en d
er .</s>
r u
h e
n e
ir %C4%A0
f f
p p
m ach
w er
st%C4%A0d u
- %C4%A0
ein en%C4%A0
i m%C4%A0
l %C4%A0
%C4%A0 -%C4%A0
en ?%C4%A0%C4%8AAssistant:%C4%A0Du%C4%A0
v or
st e
l ich
= %C4%A0
g i
en n
?%C4%A0%C4%8AAssistant:%C4%A0 Ein%C4%A0
ie%C4%A0 viel
w ei
lei ch
m a
%C3%83%C2%A4 hl
G e
P ro
u ch
%C4%B9 %C4%A0
%C3%83%C2%B6 r
ti er
%C4%A0%C3%83 %C4%B9%C4%A0
I n
h a
D at
l u
r i
B e
W ass
,%C4%A0 Ergebni
w ir
E s%C4%A0
%C4%A0d er%C4%A0
A b
u m%C4%A0
ier st%C4%A0du%C4%A0
g e%C4%A0
,%C4%A0w ie%C4%A0viel
,%C4%A0Ergebni s?%C4%A0%C4%8AAssistant:%C4%A0
%C4%A0 =%C4%A0
li e
ach %C4%A0
,%C4%A0wie%C4%A0viel ?%C4%A0%C4%8AAssistant:%C4%A0
e ?%C4%A0%C4%8AAssistant:%C4%A0
pr%C3%83%C2%BCf st%C4%A0du%C4%A0
m p
W ir%C4%A0
a s
.%C4%A0%C4%8AAssistant:%C4%A0 I
A n
se tz
bei %C4%A0
o d
a d
User:%C4%A0 1
o k
st eh
K on
e%C4%A0 d
i s%C4%A0
Sch rit
v on%C4%A0
Er %C4%A0
t eil
User:%C4%A0Wie%C4%A0schreibe%C4%A0ich%C4%A0 eine%C4%A0
n utz
l o
te .</s>
u l
s in
A uf
g ab
un k
%C4%A0 und%C4%A0
ich t%C4%A0
u s
f in
%C3%83%C2%BC b
%C2%B7 %C4%A0
Z iel
al l
.%C4%A0%C4%8AAssistant:%C4%A0 J
%C4%A0%C3%83 %C2%B7%C4%A0
ei g
S S
t%C4%A0d u%C4%A0
ie der
%C4%A0d e
t .%C4%A0
m al
User:%C4%A0%C3%83%C4%BEbersetze%C4%A0ins%C4%A0Franz%C3%83%C2%B6sische:%C4%A0 Ich%C4%A0
S p
User:%C4%A0%C3%83%C4%BEbersetze%C4%A0ins%C4%A0Englische:%C4%A0 Ich%C4%A0
A l
e .%C4%A0
%C3%83%C2%A4 r
ti g
K o
W I
a %C4%A0
geh st%C4%A0du%C4%A0
ar k
e s
w ar
Z eit
E N
SS EN
WI SSEN
WISSEN :%C4%A0
g leich
User:%C4%A0Wie%C4%A0 gehst%C4%A0du%C4%A0
sp iel
un d
kurz %C4%A0
b t%C4%A0
f%C3%83%C2%BC r%C4%A0
R eg
z en
er st%C4%A0du%C4%A0
w %C3%83%C2%A4hl
eh l
z i
ar e%C4%A0
d en%C4%A0
f or
2 0
ich t
an n
ar um%C4%A0
h ol
f ol
.%C4%A0%C4%8AAssistant:%C4%A0I %C4%A0
au s
st%C4%A0du%C4%A0 eine%C4%A0
K l
n ach%C4%A0
n e%C4%A0
er k
t sch
A r
sin d%C4%A0
User:%C4%A0Was%C4%A0 ist
?%C4%A0%C4%8AAssistant:%C4%A0 Eine%C4%A0
u s%C4%A0
b lei
P r
s uch
a i
ti v
w eg
e ss
ah r
d e%C4%A0
User:%C4%A0W arum%C4%A0
kurz%C4%A0 zusammen:%C4%A0
ier t%C4%A0
a m
User:%C4%A0Fasse%C4%A0 kurz%C4%A0zusammen:%C4%A0
f r
ieder hol
j e
o m
t en%C4%A0
e .%C4%A0Dann%C4%A0
1 0
l ern
te ste
eh r
u tze%C4%A0
ol l
%C4%A0 ist%C4%A0
%C3%83%C2%BCb er%C4%A0
t er%C4%A0
User:%C4%A0Was%C4%A0ist%C4%A0 eine%C4%A0
B er
a m%C4%A0
s ie%C4%A0
a li
ung .</s>
R ei
l %C3%83%C2%A4
%C3%83%C2%BC n
e ?%C4%A0%C4%8AAssistant:%C4%A0Du%C4%A0
sch en%C4%A0
a ck
sch n
h ab
f t%C4%A0
en .%C4%A0%C4%8AAssistant:%C4%A0
a k
i mm
an %C4%A0
User:%C4%A0Fasse%C4%A0kurz%C4%A0zusammen:%C4%A0 Ein%C4%A0
%C3%83%C2%A4 l
ier st%C4%A0
b r
User:%C4%A0Fasse%C4%A0zusammen:%C4%A0 D
ur %C4%A0
User:%C4%A0Wie%C4%A0 st
s ich
wir d%C4%A0
ung en%C4%A0
t h
.%C4%A0 N
st%C4%A0du %C4%A0d
G r
B il
B ei
User:%C4%A0Fasse%C4%A0zusammen:%C4%A0 Ich%C4%A0
a il
ei ch
e st
ko mm
w or
le m
.%C4%A0 Es%C4%A0
h r
te ?%C4%A0%C4%8AAssistant:%C4%A0
o b
ent steh
M en
auf %C4%A0
ar t
User:%C4%A0Wie%C4%A0 pr%C3%83%C2%BCfst%C4%A0du%C4%A0
i m
el n
Auf gab
ei t%C4%A0
el %C4%A0
o ff
Wass er%C4%A0
o h
ah l
L ern
e ch
J S
er st
u d
.%C4%A0D u%C4%A0
Q u
o t
s e%C4%A0
U n
Te x
or d
vor ?%C4%A0%C4%8AAssistant:%C4%A0Du%C4%A0
W er
User:%C4%A0 2
F ehl
ge .</s>
o p
i si
h el
q u
k %C4%A0
schn ell
zi eh
kl %C3%83%C2%A4r
or g
L o
T he
e st%C4%A0
ur ch%C4%A0
sp %C3%83%C2%A4
.%C4%A0 Z
b au
b en
ing %C4%A0
H and
P er
ver gleich
%C3%83%C2%A4n der
1 2
en%C4%A0 und%C4%A0
y %C4%A0
User:%C4%A0Wie%C4%A0gehst%C4%A0du%C4%A0 bei%C4%A0
Pr %C3%83%C2%BCf
t ?%C4%A0%C4%8AAssistant:%C4%A0
au s%C4%A0
a p
ar te
k on
a .%C4%A0
en z
p f
N utze%C4%A0
%C4%A0de fin
A us
L e
P lan
h er
an g
gi b
D as%C4%A0
teste st%C4%A0du%C4%A0
K urz
ru pp
%C4%A0d as%C4%A0
Re ch
St a
t en.</s>
el n%C4%A0
z eig
unk tion
.%C4%A0%C4%8AAssistant:%C4%A0 W
b ar
.%C4%A0S ie%C4%A0
.%C4%A0%C4%8AAssistant:%C4%A0J e%C4%A0
O r
S tr
k t%C4%A0
ha t%C4%A0
n o
Bei spiel
t .%C4%A0Dann%C4%A0
t%C4%A0d ie%C4%A0
a tion
Z u
s ich%C4%A0
ell e%C4%A0
l in
l e%C4%A0
od er%C4%A0
l au
wei %C4%A0
b en%C4%A0
an .</s>
ung ?%C4%A0%C4%8AAssistant:%C4%A0
L uf
be ss
.%C4%A0%C4%8AAssistant:%C4%A0 T
S zen
s el
nutz t%C4%A0
m e%C4%A0
en t%C4%A0
; </s>
M on
V iel
y .</s>
re ch
fol g
st%C4%A0d ie%C4%A0
g ut
w iederhol
S ie%C4%A0
z u%C4%A0
%C3%83%C2%BC r
User:%C4%A0Was%C4%A0ist %C4%A0die%C4%A0
pr%C3%83%C2%BCf st%C4%A0
1 5
te t%C4%A0
a ge
%C3%83%C2%BC ck
i s
?%C4%A0%C4%8AAssistant:%C4%A0D u
F ig
se h
ti on%C4%A0
h al
de .</s>
n ah
d er%C4%A0
Z ei
0 %C4%A0
i k
F or
.%C4%A0 Er%C4%A0
ein f
T eil
JS .%C4%A0%C4%8AAssistant:%C4%A0
kl are%C4%A0
ich tig
setz t%C4%A0du%C4%A0
le x
schreib st%C4%A0
k e%C4%A0
kt ur
.%C4%A0 M
pr o%C4%A0
m in
lu ss
kl ar
.%C4%A0D ie%C4%A0
%C3%83%C5%81 e%C4%A0
en st
A k
%C4%A0d en%C4%A0
ein er%C4%A0
M e
ti k
Per s
d ing
re d
r eg
mal %C4%A0
l a
%C3%83%C2%A4 g
lan g
erk enn
ein .</s>
D e
fr ag
L ist
te .%C4%A0Dann%C4%A0
g ro
hel f
ei d
Wass er
Rei h
ier e%C4%A0
Tex t%C4%A0
S pr
te ?%C4%A0%C4%8AAssistant:%C4%A0Du%C4%A0
e k
N o
s o
f a
st .</s>
u z
?%C4%A0%C4%8AAssistant:%C4%A0 J
f li
?%C4%A0%C4%8AAssistant:%C4%A0Du %C4%A0defin
ung en.</s>
%C3%83%C2%BC ber
p as
gi bt%C4%A0
%C3%83%C2%B6r ter
e%C4%A0 eine%C4%A0
t ,%C4%A0
b in
m u
%C3%83%C2%BC tz
y o
WISSEN:%C4%A0 Eine%C4%A0
wer den%C4%A0
le g
au ch
.%C4%A0%C4%8AAssistant:%C4%A0I%C4%A0 am%C4%A0
g r
de st%C4%A0du%C4%A0
in n
ru ktur
z %C3%83%C2%A4hl
N ach
in%C4%A0 JS.%C4%A0%C4%8AAssistant:%C4%A0
m .</s>
te st%C4%A0du%C4%A0
Sta at
ord ne
br auch
ge sch
Fig ur
lie %C3%83%C5%81
er n%C4%A0
n eu
um ?%C4%A0%C4%8AAssistant:%C4%A0Du%C4%A0
i sch
Dat en
mach st%C4%A0
o ur
o pp
User:%C4%A0Wie%C4%A0 mach
G rupp
D i
%C3%83%C2%A4 tz
e%C4%A0d ie%C4%A0
er t%C4%A0
%C4%A0 M
li ck
User:%C4%A0Wie%C4%A0 f
eh n
st ark
En tsch
setz t%C4%A0
ko ch
Reih en
t%C4%A0 m
l auf
b i
ar i
2 5
?%C4%A0%C4%8AAssistant:%C4%A0Du%C4%A0defin ierst%C4%A0
S on
g u
3 0
User:%C4%A0Wie%C4%A0st ruktur
te .%C4%A0%C4%8AAssistant:%C4%A0
WISSEN:%C4%A0 Ein%C4%A0
rei ch
el d
blei bt%C4%A0
User:%C4%A0Fasse%C4%A0zusammen:%C4%A0D er%C4%A0
z w
er ?%C4%A0%C4%8AAssistant:%C4%A0Du%C4%A0
n ach
?%C4%A0%C4%8AAssistant:%C4%A0 W
er i
b eit
T ag
nah m
Men schen%C4%A0
lu s%C4%A0
User:%C4%A0Wie%C4%A0 setzt%C4%A0du%C4%A0
p er
User:%C4%A0Fasse%C4%A0zusammen:%C4%A0 Wir%C4%A0
be schreib
P f
au p
ig .</s>
t .%C4%A0%C4%8AAssistant:%C4%A0
le s%C4%A0
l ist
st%C4%A0du%C4%A0 einen%C4%A0
ig k
%C4%A0de m%C4%A0
en %C4%A0d
ung s
ung .%C4%A0
le .</s>
t%C4%A0 ist%C4%A0
st eig
g a
w e
e%C4%A0 H
for m
st ell
o g
s u
User:%C4%A0 3
p lus%C4%A0
al s%C4%A0
Un ter
User:%C4%A0W er%C4%A0
o w
) ;</s>
f o
y ste
st e%C4%A0
el st%C4%A0
User:%C4%A0Wie%C4%A0f unktion
war %C4%A0
oh ne%C4%A0
en ig
S a
st%C4%A0du %C4%A0die%C4%A0
on .</s>
t%C4%A0 und%C4%A0
Reihen fol
p ass
li eg
s au
User:%C4%A0Wie%C4%A0struktur ierst%C4%A0du%C4%A0
en ,%C4%A0
te .%C4%A0
ung ?%C4%A0%C4%8AAssistant:%C4%A0Du%C4%A0
einf ach
z eich
h ei
Kon fli
st imm
%C4%A0+%C4%A0 1
d .</s>
p er%C4%A0
ein es%C4%A0
ter .</s>
f %C4%A0
st and
an k
.%C4%A0%C4%8AAssistant:%C4%A0 H
or t
i z
.%C4%A0 W
t a
zu .</s>
blei b
el t%C4%A0
h o
User:%C4%A0Wie%C4%A0gehst%C4%A0du%C4%A0 mit%C4%A0
nutz t%C4%A0du%C4%A0
G er
et ail
User:%C4%A0Wie%C4%A0schreibe%C4%A0ich%C4%A0 mit%C4%A0
eh r%C4%A0
I n%C4%A0
W o%C4%A0
lern e%C4%A0
S u
User:%C4%A0Wie%C4%A0 erkenn
si er
F ahr
f est
en de
tier st%C4%A0du%C4%A0
%C3%83%C2%B6 n
D ie%C4%A0
t o
um en
ga be
l %C3%83%C2%B6
si e.</s>
E x
?%C4%A0%C4%8AAssistant:%C4%A0J a.%C4%A0
d en.</s>
b ack
h in
m ark
ist%C4%A0 eine%C4%A0
%C3%83 %C4%A6
vor %C4%A0
Te st
t%C4%A0d er%C4%A0
H in
u e
st arte
E ur
h e%C4%A0
in d
S e
ar bei
Pro z
L icht%C4%A0
k re
il f
%C3%83%C2%A4n g
ti z
User:%C4%A0 5
.%C4%A0D rei
User:%C4%A0Wie%C4%A0planst%C4%A0du%C4%A0 eine%C4%A0
Be ding
it t
User:%C4%A0Wer%C4%A0 war%C4%A0
D etail
E lem
gib st%C4%A0du%C4%A0
ist %C4%A0die%C4%A0
Z ahl
t ag
h %C3%83%C2%B6r
User:%C4%A0Was%C4%A0ist %C4%A0der%C4%A0
Fr age
Sch reib
red uz
%C4%A0d a
User:%C4%A0Wie%C4%A0 ver
i b
Fr ag
lich e%C4%A0
M u
K eine%C4%A0
komm t%C4%A0
t%C4%A0 von%C4%A0
lan z
%C3%83%C2%A4 ch
de u
en e%C4%A0
te s%C4%A0
en%C4%A0 im%C4%A0
an der
vergleich st%C4%A0du%C4%A0
N eu
ich te?%C4%A0%C4%8AAssistant:%C4%A0
h %C3%83%C2%A4l
b it
m e.</s>
lich .</s>
3 ,%C4%A0Ergebnis?%C4%A0%C4%8AAssistant:%C4%A0
th e%C4%A0
ung en?%C4%A0%C4%8AAssistant:%C4%A0Du%C4%A0
u p
se .</s>
W iederhol
The ma
P unk
%C4%A0 f%C3%83%C2%BCr%C4%A0
st %C3%83%C2%A4n
%C4%A0%C4%8AAssistant:%C4%A0 1
un ter
%C3%83%C2%B6 %C3%83%C5%81
i schen%C4%A0
%C3%83%C2%BC h
h y
lie st%C4%A0
c o
%C4%A0 ai
User:%C4%A0Wie%C4%A0funktion iert%C4%A0
ru ck
hab en%C4%A0
User:%C4%A0 4
.%C4%A0Dann%C4%A0 pr%C3%83%C2%BCfst%C4%A0du%C4%A0
Fehl er
rei s
W et
mi s
v e%C4%A0
.%C4%A0%C4%8AAssistant:%C4%A0 O
A ut
b o
%C3%83 %C2%A9
%C3%83%C2%A4 t
s pr
a %C3%83%C5%81
at ur
n icht
A lex
kl eine%C4%A0
Pro b
Sa tz
%C4%A0 in%C4%A0
P ass
end e%C4%A0
samm elst%C4%A0
w ichtig
7 %C4%A0+%C4%A0
l a%C4%A0
H al
en%C4%A0 in%C4%A0
te x
s or
c i
er e%C4%A0
sch ie
seh r%C4%A0
b il
e%C4%A0 und%C4%A0
5 </s>
h eit
%C3%83%C2%A4 tze%C4%A0
t%C4%A0d urch%C4%A0
Luf t%C4%A0
.%C4%A0D as%C4%A0
st%C4%A0du%C4%A0d en%C4%A0
.%C4%A0Dann%C4%A0 testest%C4%A0du%C4%A0
er kl%C3%83%C2%A4r
Ber icht%C4%A0
f%C3%83%C2%BC hr
v oll
Viel e%C4%A0
en.%C4%A0 Sie%C4%A0
st%C4%A0d en%C4%A0
< /
le t%C4%A0
V or
sau ber
tr ag
w a
Te mp
sch au
g el
tr o
yo u%C4%A0
Zei t.</s>
starte st%C4%A0
( '
, %C4%A0d
User:%C4%A0Wie%C4%A0erkenn st%C4%A0du%C4%A0
l ag
B ro
ot he
P ar
e ,%C4%A0
s ?%C4%A0%C4%8AAssistant:%C4%A0Du%C4%A0
I de
S ti
an c
rit eri
W ie%C4%A0
ab .</s>
el .</s>
n .</s>
ah l%C4%A0
a .</s>
S ei
f ehl
A u
n enn
C he
k ann%C4%A0
isi erst%C4%A0du%C4%A0
,%C4%A0w as%C4%A0
l ass
e x
r ie
0 .
g en
en k
n der
b je
In fo
der .</s>
o d%C4%A0
s .%C4%A0Dann%C4%A0
%C3%83%C2%A4 d
t%C4%A0 sich%C4%A0
b in%C4%A0
l%C3%83%C2%A4 uf
en%C4%A0 vor?%C4%A0%C4%8AAssistant:%C4%A0Du%C4%A0
K %C3%83%C2%B6r
Ergebni ss
K art
h%C3%83%C2%A4l t
Er de%C4%A0
w ach
o od%C4%A0
k n
t%C4%A0 f%C3%83%C2%BCr%C4%A0
%C3%83%C2%A4 h
Pf lanz
3 %C4%A0
Ge sch
entsteh t%C4%A0
such st%C4%A0du%C4%A0
i ss
z eit
k ehr
ra mm
st%C4%A0 nach%C4%A0
5 %C4%A0
C o
R o
an ach%C4%A0
In ter
sp ar
.%C4%A0 A
%C3%83%C2%BC ch
User:%C4%A0Fasse%C4%A0kurz%C4%A0zusammen:%C4%A0Ein%C4%A0 Text%C4%A0
au s.</s>
m o
sch e%C4%A0
Er folg
T r
6 %C4%A0
er g
z wei%C4%A0
.%C4%A0 G
zu erst
Spr ach
lo ck
st%C4%A0du .</s>
en en%C4%A0
sch a
Prob lem
j our
z e
weg .</s>
e f
Al l
User:%C4%A0Fasse%C4%A0kurz%C4%A0zusammen:%C4%A0Ein%C4%A0 Bericht%C4%A0
User:%C4%A0Wie%C4%A0 nutzt%C4%A0du%C4%A0
M at
Qu ell
w %C3%83%C2%B6rter
sp eich
Ge d
%C4%A0 be
geh t%C4%A0
.%C4%A0 F
F e
le k
1 9
Ger %C3%83%C2%A4
Lo es
en s
be deu
der t%C4%A0
ur ch
S %C3%83%C2%A4tz
User:%C4%A0 6
s ach
.%C4%A0N eu
D er%C4%A0
ma ti
u i
H eu
be st
le s
no tier
G ood%C4%A0
U r
en .%C4%A0D
M ag
User:%C4%A0Fasse%C4%A0kurz%C4%A0zusammen:%C4%A0Ein%C4%A0Text%C4%A0 %C3%83%C2%BCber%C4%A0
b st
5 %C4%A0=%C4%A0
e%C4%A0 in%C4%A0
Gr enz
sch %C3%83%C2%BCtz
4 %C4%A0
Ko pf
H T
ist %C4%A0der%C4%A0
e s.</s>
komm e%C4%A0
ol k
Che ck
ar beit
ob ach
tr enn
L es
M org
g en%C4%A0
sa m
.%C4%A0 Ich%C4%A0
sa tz
No tiz
W e
ant wor
ok umen
.%C4%A0 Wir%C4%A0
Ar tik
f ass
tr in
L %C3%83%C2%A4n
le .%C4%A0Dann%C4%A0
N utz
o%C4%A0 lieg
1 8
e m%C4%A0
N e
User:%C4%A0Wie%C4%A0 lern
L %C3%83%C2%B6
ol li
G ra
tier e%C4%A0
rech ne
Artik el%C4%A0
z iel
Bil d
a pp
St ar
%C4%A0%C3%83%C4%B9%C4%A0 2
%C3%83%C4%BE b
f al
ver steh
ung%C4%A0 ist%C4%A0
w%C3%83%C2%A4hl st%C4%A0
pas st%C4%A0
t wor
%C4%A0%C3%83%C4%B9%C4%A0 4
User:%C4%A0%C3%83%C4%BEbersetze%C4%A0ins%C4%A0Franz%C3%83%C2%B6sische:%C4%A0 Das%C4%A0
f%C3%83%C2%BC r
B u
The m
z eu
Hin wei
User:%C4%A0W o%C4%A0lieg
An twor
Schrit te.</s>
Entsch eid
L%C3%83%C2%B6 s
t en.%C4%A0
Ver b
.%C4%A0%C4%8AAssistant:%C4%A0J '
d i
User:%C4%A0%C3%83%C4%BEbersetze%C4%A0ins%C4%A0Englische:%C4%A0 Das%C4%A0
a tion%C4%A0
User:%C4%A0 9
viel e%C4%A0
M et
ei dest%C4%A0du%C4%A0
si k
e d
Men sch
Viel %C4%A0
e kt
G eh
Sp ann
ung .%C4%A0Dann%C4%A0
zu m%C4%A0
HT M
3 %C4%A0=%C4%A0
st%C3%83%C2%A4n d
Aufgab en.</s>
User:%C4%A0Wie%C4%A0 d
te%C4%A0 ist%C4%A0
User:%C4%A0 Loes
eu tsch
st ud
o ch
User:%C4%A0%C3%83%C4%BEbersetze%C4%A0ins%C4%A0Franz%C3%83%C2%B6sische:%C4%A0 Wir%C4%A0
z ur%C4%A0
Al le%C4%A0
lo gi
T im
ri ff
ich t.</s>
2 %C4%A0
.%C4%A0%C4%8AAssistant:%C4%A0W e%C4%A0
.%C4%A0%C4%8AAssistant:%C4%A0 L
%C3%83%C2%BCn f
t %C3%83%C2%A4g
K al
M in
al e%C4%A0
M ach
ed back
K riteri
ad d
n et
ein%C4%A0 B
er ?%C4%A0%C4%8AAssistant:%C4%A0
ti ge%C4%A0
w and
.%C4%A0Z ehn
eln .</s>
%C4%A0+%C4%A0 4
User:%C4%A0 8
er%C4%A0 in%C4%A0
User:%C4%A0%C3%83%C4%BEbersetze%C4%A0ins%C4%A0Englische:%C4%A0 Wir%C4%A0
Auf gabe
a kt
ist%C4%A0 ein%C4%A0
P a
?%C4%A0%C4%8AAssistant:%C4%A0Du%C4%A0 nutzt%C4%A0
tr a
V ari
T i
E ig
er st%C4%A0
ut en%C4%A0
k al
L a
f u
H aup
Unter r
No us%C4%A0
K ann
R u
.%C4%A0%C4%8AAssistant:%C4%A0J %C4%A0ai
u %C3%83%C5%81
User:%C4%A0Fasse%C4%A0kurz%C4%A0zusammen:%C4%A0Ein%C4%A0 Artikel%C4%A0
Kl ar
%C4%A0 est%C4%A0
User:%C4%A0Wie%C4%A0 testest%C4%A0du%C4%A0
Reg eln%C4%A0
sch wer
.%C4%A0Z wei%C4%A0
vergleich st%C4%A0
li othe
1 1
?%C4%A0%C4%8AAssistant:%C4%A0D ie%C4%A0
2 </s>
f %C3%83%C2%A4l
User:%C4%A0Loes e%C4%A0
0 0
n utze%C4%A0
HTM L
e%C4%A0 is%C4%A0
Er kl%C3%83%C2%A4r
Ko mp
l at
zw ischen%C4%A0
e t%C4%A0
st%C4%A0d as%C4%A0
oh n
n icht%C4%A0
sp%C3%83%C2%A4 ter
U m
Nutze%C4%A0 <
be weg
s .%C4%A0
ri k
Sp a%C3%83%C5%81
Pr %C3%83%C2%A4
h and
%C3%83%C2%A4 tig
5 .</s>
F enst
au sch
E U
Fahr ra
S y
%C3%83%C4%A6 nder
%C4%A0 }
at t%C4%A0
t s
K a
.%C4%A0%C4%8AAssistant:%C4%A0T he%C4%A0
au erst
auerst off
Ak tion
Al les%C4%A0
Fe edback
.%C4%A0 Ein%C4%A0
t st
ul l%C4%A0
l%C3%83%C2%A4 d
kl ein
on s%C4%A0
S al
.%C4%A0S ehr%C4%A0
gro %C3%83%C5%81
fest .</s>
sch .</s>
St %C3%83%C2%A4d
S el
In hal
G uten%C4%A0
R isi
en.%C4%A0 K
an d%C4%A0
T o
i mal
il l%C4%A0
> .</s>
ordne st%C4%A0du%C4%A0
geb en.</s>
Ab lauf
w as%C4%A0
L and
f lie%C3%83%C5%81
l %C3%83%C2%BC
de t%C4%A0
%C4%A0-%C4%A0 6
yste m
H %C3%83%C2%B6
si on
En erg
Lo gi
st ab
Schrit t.</s>
lich k
ch e%C4%A0
V ok
%C4%A0d ir
En de.</s>
lie f
Proz ess
ib liothe
t%C4%A0 in%C4%A0
m en
h %C3%83%C2%A4ng
2 .</s>
lan d
be g
ni ss
%C4%A0 mit%C4%A0
F u%C3%83%C5%81
.%C4%A0D er%C4%A0
v o
.%C4%A0Zehn er%C4%A0
zeig t%C4%A0
en d%C4%A0
f er
.%C4%A0%C4%8AAssistant:%C4%A0 P
igk eit
User:%C4%A0%C3%83%C4%BEbersetze%C4%A0ins%C4%A0Franz%C3%83%C2%B6sische:%C4%A0Ich%C4%A0 hab
ie ?%C4%A0%C4%8AAssistant:%C4%A0
W ahl
ge w
nutze%C4%A0 ich%C4%A0
User:%C4%A0Wie%C4%A0mach st%C4%A0du%C4%A0eine%C4%A0
Bil d%C4%A0
{ %C4%A0
en?%C4%A0%C4%8AAssistant:%C4%A0 W
Hand l
User:%C4%A0Fasse%C4%A0kurz%C4%A0zusammen:%C4%A0Ein%C4%A0Artikel%C4%A0 %C3%83%C2%BCber%C4%A0
R oll
mp f
Wass er.</s>
W eg
?%C4%A0%C4%8AAssistant:%C4%A0Du%C4%A0 schreibst%C4%A0
User:%C4%A0Fasse%C4%A0zusammen:%C4%A0D ie%C4%A0
B on
B r
al y
ver teil
gib st%C4%A0
f ern
3 6
Vok ab
p o
Kon t
User:%C4%A0Fasse%C4%A0zusammen:%C4%A0D as%C4%A0
d ig
l l
gesch ichte?%C4%A0%C4%8AAssistant:%C4%A0
.%C4%A0S ech
en der
H er
B ibliothe
t ur
ier t.</s>
all e%C4%A0
%C4%A0%C3%83%C2%B7%C4%A0 2
%C4%A0+%C4%A0 2
tiv e%C4%A0
ri eg
Ur sach
All tag
en.%C4%A0 Es%C4%A0
such st%C4%A0
ni mm
En de
%C4%A0da zu.</s>
kon tr
am er
e%C4%A0d as%C4%A0
h%C3%83%C2%A4lt st%C4%A0du%C4%A0
m it
i or
gu te%C4%A0
User:%C4%A0Wie%C4%A0schreibe%C4%A0ich%C4%A0 einen%C4%A0
User:%C4%A01 8
trin ke%C4%A0
Wet ter%C4%A0
um ent
Zu g
for ma
.%C4%A0D anach%C4%A0
E is
stark e%C4%A0
?%C4%A0%C4%8AAssistant:%C4%A0Du%C4%A0 sammelst%C4%A0
User:%C4%A0%C3%83%C4%BEbersetze%C4%A0ins%C4%A0Englische:%C4%A0Ich%C4%A0 hab
bleib t.</s>
un der
i de
,%C4%A0w en
sch ein
gro %C3%83%C5%81e%C4%A0
?%C4%A0%C4%8AAssistant:%C4%A0 Er%C4%A0
%C4%A0d urch%C4%A0
Pers on%C4%A0
w enig
%C3%83 %C4%B8
O ft%C4%A0
W olk
bess er
a ?%C4%A0%C4%8AAssistant:%C4%A0
Be schreib
Lo g
ver tiere%C4%A0
B eg
Ar bei
D eutsch
User:%C4%A0Fasse%C4%A0kurz%C4%A0zusammen:%C4%A0Ein%C4%A0Bericht%C4%A0 %C3%83%C2%BCber%C4%A0
Son n
! %C4%A0
.%C4%A0 Viele%C4%A0
? </s>
u n%C4%A0
t%C4%A0 mit%C4%A0
User:%C4%A0%C3%83%C4%BEbersetze%C4%A0ins%C4%A0Englische:%C4%A0 Wo%C4%A0
und%C4%A0 W
t.%C4%A0 Ich%C4%A0
auf .</s>
.%C4%A0%C4%8AAssistant:%C4%A0 C
ul l
eln .%C4%A0
; %C4%A0}
l ich%C4%A0
f all
f t
W ir
ist%C4%A0 sehr%C4%A0
Grupp en
S %C3%83%C2%A4tze%C4%A0
leg st%C4%A0du%C4%A0
%C3%83%C2%BCn d
auf gab
sp ek
ge .%C4%A0Dann%C4%A0
ent fern
E %C4%A0M
sch %C3%83%C2%B6n
s en
m en%C4%A0
in%C4%A0JS.%C4%A0%C4%8AAssistant:%C4%A0 let%C4%A0
end s%C4%A0
ge teil
best %C3%83%C2%A4tig
2 4
.%C4%A0%C4%8AAssistant:%C4%A0 Nutze%C4%A0<
pas st%C4%A0du%C4%A0
il %C4%A0
schie d
m erk
en%C4%A0 sind%C4%A0
,%C4%A0d ann%C4%A0
ent sch
E%C4%A0M ail
pr ior
Kurz e%C4%A0
i er%C4%A0
ge m
h eit%C4%A0
per im
Mu st
r au
Elem en
Er d
ali ta
f re
p la
Pro zen
n eh
ver bin
.%C4%A0%C4%8AAssistant:%C4%A0W her
.%C4%A0%C4%8AAssistant:%C4%A0 M
te%C4%A0 d
zieh en.</s>
bit te.%C4%A0%C4%8AAssistant:%C4%A0
bei m%C4%A0
i h
Kl eine%C4%A0
wer den.</s>
F %C3%83%C2%BC
W el
on en%C4%A0
b is%C4%A0
w ill%C4%A0
re f
kurz e%C4%A0
%C4%A0-%C4%A0 4
ha ve%C4%A0
or it
User:%C4%A0Wie%C4%A0 nutze%C4%A0ich%C4%A0
Eur op
Kann st%C4%A0du%C4%A0
%C4%A0d u%C4%A0
User:%C4%A0%C3%83%C4%BEbersetze%C4%A0ins%C4%A0Franz%C3%83%C2%B6sische:%C4%A0 Wo%C4%A0
Gr und
ab ziehen.</s>
,%C4%A0 passt%C4%A0
st%C4%A0 in%C4%A0
be gr
okumen tierst%C4%A0du%C4%A0
al %C4%A0
t%C4%A0 nicht
?%C4%A0%C4%8AAssistant:%C4%A0D as%C4%A0
?%C4%A0%C4%8AAssistant:%C4%A0Du%C4%A0 teil
,%C4%A0wen n%C4%A0
%C4%A0-%C4%A0 3
mach st%C4%A0du%C4%A0
u mm
W as%C4%A0
M it
Be weg
ist .</s>
* %C4%A0
s k
Ex perim
bi en.</s>
.%C4%A0%C4%8AAssistant:%C4%A0Je%C4%A0 su
Dat en%C4%A0
tier t%C4%A0
k art
c om
lei f
S in
Kon vertiere%C4%A0
User:%C4%A0 Konvertiere%C4%A0
as e%C4%A0
erst ell
F ar
t%C4%A0d en%C4%A0
M o
User:%C4%A0Wie%C4%A0ver m
r aus
Ziel ,%C4%A0
y p
K %C3%83%C2%B6n
ier en.%C4%A0
ss ch
?%C4%A0%C4%8AAssistant:%C4%A0 P
p unk
g ang
ein%C4%A0B uch
G ro
Ar beit
Son ne%C4%A0
iz z
f rik
t ausch
plan st%C4%A0
br ing
de ut
User:%C4%A0Wo%C4%A0lieg t%C4%A0der%C4%A0
l%C3%83%C2%BC ss
o ft%C4%A0
2 %C4%A0-%C4%A0
Qu elle%C4%A0
%C3%83%C2%A4 um
F %C3%83%C2%A4l
bess er.</s>
il .</s>
User:%C4%A0Wie%C4%A0 entsteht%C4%A0
i t%C4%A0
z wei
K%C3%83%C2%B6r per%C4%A0
Geh ir
?%C4%A0%C4%8AAssistant:%C4%A0Du%C4%A0 machst%C4%A0
Heu te%C4%A0ist%C4%A0
Sei te%C4%A0
ru h
s en.</s>
ok u
je kt
ak tiv
e%C4%A0 Zeit
8 </s>
hei %C3%83%C5%81e%C4%A0
er .%C4%A0Dann%C4%A0
st%C4%A0 von%C4%A0
%C3%83 %C2%B9
! %C4%A0%C4%8AAssistant:%C4%A0
w ech
User:%C4%A0Wie%C4%A0 fin
Ber lin
L in
K li
Dat ei
Ziel e.%C4%A0Dann%C4%A0
?%C4%A0%C4%8AAssistant:%C4%A0 Nutze%C4%A0
ung en.%C4%A0Dann%C4%A0
qu est
ung%C4%A0 von%C4%A0
%C4%A0%C3%83%C2%B7%C4%A0 4
P o
m %C3%83%C2%BC
fr %C3%83%C2%BCh
K rieg
S auerstoff
Ko mm
pr ob
e ff
f ang
mach en%C4%A0
.%C4%A0 Eine%C4%A0
%C3%83%C2%BC hl
an isierst%C4%A0du%C4%A0
Wir k
Or d
?%C4%A0%C4%8AAssistant:%C4%A0 M
el ?%C4%A0%C4%8AAssistant:%C4%A0
a u%C4%A0
I %C4%A0
de fin
b e%C4%A0
Guten%C4%A0 Morg
le .
st%C4%A0du%C4%A0 auf%C4%A0
si erst%C4%A0du%C4%A0
sch er
H %C3%83%C2%B6r
9 ,%C4%A0wie%C4%A0viel?%C4%A0%C4%8AAssistant:%C4%A0
Ge w
gr %C3%83%C2%B6%C3%83%C5%81
Be obach
Konfli k
1 6
ot o
Bibliothe k
reduz ierst%C4%A0du%C4%A0
%C4%A0d e%C4%A0
Konfli kt
ung ,%C4%A0
wir kt%C4%A0
mu s?%C4%A0%C4%8AAssistant:%C4%A0
sp%C3%83%C2%A4ter .%C4%A0%C4%8AAssistant:%C4%A0
war te
p ack
Thema %C4%A0
Di al
E -
p utz
ti ef
' );</s>
v ol
Reihenfol ge%C4%A0
Gr %C3%83%C2%B6%C3%83%C5%81
setz en.</s>
ruck %C4%A0
W %C3%83%C2%B6rter
te ,%C4%A0
Kont in
G eld
Mon d
Sal z
um .%C4%A0Dann%C4%A0
t%C4%A0d as%C4%A0
i ff
Au ss
J ahr
Fr ie
Beispiel e%C4%A0
p l
Kriteri en.%C4%A0Dann%C4%A0
User:%C4%A0Wie%C4%A0 org
b all
Dat en?%C4%A0%C4%8AAssistant:%C4%A0Du%C4%A0
ra ti
eu ch
Schrit te%C4%A0
ber eit
F luss
r ichtig
m ok
User:%C4%A0 7
h ilf
ge s%C4%A0
al l%C4%A0
bar .</s>
ul dig
.%C4%A0%C4%8AAssistant:%C4%A0 Nous%C4%A0
) {%C4%A0
ze p
i %C4%A0
User:%C4%A0Wie%C4%A0st arte
lo g
Ziel .%C4%A0Dann%C4%A0
E l
7 ,%C4%A0wie%C4%A0viel?%C4%A0%C4%8AAssistant:%C4%A0
n ur%C4%A0
User:%C4%A0Wie%C4%A0lern st%C4%A0du%C4%A0
e%C4%A0 ein%C4%A0
De mok
yo u
mis st%C4%A0
N am
/ %C4%A0
User:%C4%A0Wie%C4%A0org anisierst%C4%A0du%C4%A0
10 %C4%A0
m eld
in %C4%A0der%C4%A0
S%C3%83%C2%A4tz e.</s>
M itt
lang sam
h eu
Str u
K ein%C4%A0
st att%C4%A0
Entsch uldig
k %C3%83%C2%BChl
L ehr
m ehr
2 7
sa m.</s>
M od
m ag
%C4%A0%C4%8AAssistant:%C4%A0 4
Pflanz en%C4%A0
Z imm
User:%C4%A0Wie%C4%A0d okumentierst%C4%A0du%C4%A0
sa g
) ;%C4%A0}
ier en%C4%A0
%C4%A0+%C4%A0 5
t%C4%A0 gut
Ord n
ing .</s>
ni s%C4%A0
c tion
flie%C3%83%C5%81 t%C4%A0
St ad
ali d
w%C3%83%C2%A4hl st%C4%A0du%C4%A0
ig er%C4%A0
beg inn
st%C4%A0 auf%C4%A0
a y.</s>
at or
isch e%C4%A0
%C4%A0%C3%83%C4%B9%C4%A0 3,%C4%A0Ergebnis?%C4%A0%C4%8AAssistant:%C4%A0
bar %C4%A0
.%C4%A0Sech ser
wer k
.%C4%A0%C4%8AAssistant:%C4%A0Wher e%C4%A0is%C4%A0
i f
pr ends%C4%A0
Vari ab
on so
ue tz
= '
je den%C4%A0
an k%C4%A0
quest i
a y
Proz ent
An nahm
st or
v r
* x
HTML .%C4%A0%C4%8AAssistant:%C4%A0Nutze%C4%A0<
Deutsch land
f un
kontr olli
%C4%A0+%C4%A0 6
s icht
ell en%C4%A0
ul tur
kommt%C4%A0 rau
8 .</s>
?%C4%A0%C4%8AAssistant:%C4%A0 N
el m
zi f
%C3%83%C2%A4h n
H und%C4%A0
Lern en%C4%A0
Plan %C4%A0
gleich .</s>
le. log
Mitt el
ilf e
0 .%C4%A0
%C3%83%C2%BC st
l ad
e%C4%A0 nicht
B is%C4%A0
p .</s>
Schrit te?%C4%A0%C4%8AAssistant:%C4%A0Du%C4%A0
n al
%C3%83%C2%A4r m
Zei ge%C4%A0
bin%C4%A0 m%C3%83%C2%BC
t%C4%A0 im%C4%A0
lie%C3%83%C5%81 e%C4%A0die%C4%A0
i p
it el
ar d
lek tr
en%C4%A0 w
f%C3%83%C2%A4l l
User:%C4%A0Was%C4%A0 war
zu samm
.%C4%A0%C4%8AAssistant:%C4%A0J' ai
User:%C4%A0 7%C4%A0+%C4%A0
Hal te%C4%A0
User:%C4%A0Wie%C4%A0 %C3%83%C2%BCb
sch w
1 %C4%A0
20 .</s>
es %C4%A0dir
B lu
Ged ank
ar ten%C4%A0
hei%C3%83%C5%81e%C4%A0 Alex
In forma
Sch w
R %C3%83%C2%BCck
te t.</s>
R el
Demok rati
onso le.log
e%C4%A0eine%C4%A0 Frage
R hy
m us
%C4%A0%C3%83%C2%B7%C4%A0 5
qu e.</s>
j e%C4%A0
tra in
entsteh t.</s>
zif ik
ar r
st ra
sch lag
Pr%C3%83%C2%BCf ungs
ent ?%C4%A0%C4%8AAssistant:%C4%A0
Prozen t%C4%A0von%C4%A0
Pers on
Ein f
e%C4%A0H ung
c onsole.log
Zu sammen
o e
- D
lass en.</s>
N or
rei %C4%A0
,%C4%A0was%C4%A0 kommt%C4%A0rau
g er
e%C4%A0eine%C4%A0 E%C4%A0Mail
nutz en.</s>
brauch e%C4%A0H
brauche%C4%A0H ilfe
am%C4%A0 Ende.</s>
e m
.%C4%A0N e
f ahr
bau st%C4%A0du%C4%A0
C an%C4%A0
Sch leif
gibt%C4%A0 es%C4%A0
au .</s>
geht%C4%A0 es%C4%A0dir
war t
T %C3%83%C2%BCr
to mati
on lin
h il
H imal
I m%C4%A0
User:%C4%A0Wie%C4%A0schreibe%C4%A0ich%C4%A0 Szen
Ge b
u ali
ben oe
bedeu tet%C4%A0
.%C4%A0F %C3%83%C2%BCnf
er warte
Plan et
lie%C3%83%C5%81e%C4%A0die%C4%A0 T%C3%83%C2%BCr
p a
mit%C4%A0 K
aus aufgab
en g
ah ar
st%C4%A0du%C4%A0d ich%C4%A0
Erfolg .%C4%A0%C4%8AAssistant:%C4%A0
Re ss
.%C4%A0%C4%8AAssistant:%C4%A0Where%C4%A0is%C4%A0 the%C4%A0
O bje
En t
Fehl er.</s>
Energ ie%C4%A0
be wer
r eh
our c
Ar ch
er%C4%A0 und%C4%A0
User:%C4%A01 0
de ?%C4%A0%C4%8AAssistant:%C4%A0
sor tier
versteh e%C4%A0nicht
anc e.</s>
nutz en.%C4%A0
Antwor t%C4%A0
si on%C4%A0
Kl are%C4%A0
wer t
stell st%C4%A0
spiel en%C4%A0
9 </s>
%C3%83%C2%A4 hr
.%C4%A0%C4%8AAssistant:%C4%A0Je%C4%A0su is%C4%A0
Viel%C4%A0 Erfolg.%C4%A0%C4%8AAssistant:%C4%A0
Sch ul
Check list
ow %C4%A0
K ultur
B ud
Ver ben%C4%A0
ha elt%C4%A0
Kannst%C4%A0du%C4%A0 helf
fu er%C4%A0
Ress ourc
b lock
G eg
koch st%C4%A0du%C4%A0
M ail
Frag e%C4%A0
Aufgab en.%C4%A0Dann%C4%A0
9 ,%C4%A0Ergebnis?%C4%A0%C4%8AAssistant:%C4%A0
Sch utz
sp ann
g ramm
teil st%C4%A0du%C4%A0
Fu%C3%83%C5%81 ball
bin%C4%A0m%C3%83%C2%BC de
b rei
ben enn
User:%C4%A0Wie%C4%A0 prior
benoe tig
Guten%C4%A0Morg en.%C4%A0%C4%8AAssistant:%C4%A0
,%C4%A0was%C4%A0kommt%C4%A0rau s?%C4%A0%C4%8AAssistant:%C4%A0
c ri
en%C4%A0 sich
Kannst%C4%A0du%C4%A0helf en.%C4%A0%C4%8AAssistant:%C4%A0
opp el
w ind
beschreib t%C4%A0
Sch lie%C3%83%C5%81e%C4%A0die%C4%A0T%C3%83%C2%BCr
lei t
sch %C3%83%C2%A4tz
er lau
.%C4%A0Dann%C4%A0 vergleichst%C4%A0du%C4%A0
min us%C4%A0
l l%C4%A0
t%C4%A0m an%C4%A0
entsteh t%C4%A0durch%C4%A0
D u%C4%A0
mit %C4%A0dem%C4%A0
hel p.</s>
Wetter%C4%A0 ist%C4%A0
User:%C4%A0 Du%C4%A0
Punk te.</s>
ar d.</s>
ei t.</s>
Neu e%C4%A0
Wie%C4%A0 geht%C4%A0es%C4%A0dir
ar ch
%C3%83%C2%BCr z
Gesch ich
.%C4%A0Ne un
f i
hal ten.</s>
hil ft%C4%A0
Beobach t
g %C3%83%C2%A4n
e ?%C4%A0%C4%8AAssistant:%C4%A0Ein%C4%A0
it a
ess en%C4%A0
wiederhol st%C4%A0du%C4%A0
e%C4%A0Hung er
Bud ge
un kt
Beg riff
Alex .</s>
wir d
A t
i o
B ack
A frik
er zeu
User:%C4%A0Wie%C4%A0 bau
User:%C4%A0Was%C4%A0 bedeutet%C4%A0
B us%C4%A0
Pro gramm
mach en.</s>
%C3%83%C2%B6 ff
User:%C4%A0Wie%C4%A0schreibe%C4%A0ich%C4%A0 %C3%83%C2%BCber%C4%A0
m or
m el
Re ak
si e
User:%C4%A0 (
Himal ay
au tomati
st%C4%A0du%C4%A0d as%C4%A0
t.%C4%A0 Wir%C4%A0
eh n%C4%A0
en b
.%C4%A0%C4%8AAssistant:%C4%A0I %C4%A0d
A ch
%C4%A0 s
wichtig .</s>
Me er
h %C3%83%C2%B6
u te%C4%A0
d d
s ist
.%C4%A0S o%C4%A0
3 .%C4%A0
H imm
St und
f as
Str om
Wetter%C4%A0ist%C4%A0 sch%C3%83%C2%B6n
S ahar
ha eng
h ui
e ck
lie st%C4%A0die%C4%A0
Rhy th
le t
arbei test%C4%A0du%C4%A0
ation .</s>
Te am
Schrit t%C4%A0f%C3%83%C2%BCr%C4%A0
Er st%C4%A0
schreib e%C4%A0eine%C4%A0E%C4%A0Mail
Wer t.</s>
f ai
t%C4%A0 be
Z eit%C4%A0
li t
Ergebni s
P aus
9 %C4%A0%C4%8AAssistant:%C4%A0
k u
list est%C4%A0
g rupp
F unktion
ein em%C4%A0
Pro jekt
For tsch
Ge f%C3%83%C2%BC
b are%C4%A0
,%C4%A0Ergebnis?%C4%A0%C4%8AAssistant:%C4%A0 20
.%C4%A0N icht%C4%A0
.%C4%A0 V
E lektr
.%C4%A0%C4%8AAssistant:%C4%A0I l%C4%A0
Kurz er%C4%A0
> <
Schritt%C4%A0f%C3%83%C2%BCr%C4%A0 Schritt.</s>
V ol
L it
questi on.</s>
sich erst%C4%A0du%C4%A0
Fortsch rit
en c
Kon tex
in form
min im
Ergebniss e.</s>
Rei se
B un
.%C4%A0 Oft%C4%A0
ck en.</s>
Sch l%C3%83%C2%BCss
spek tiv
ekt or
lan ge%C4%A0
er ci
ah n
Geg en
User:%C4%A0Wie%C4%A0schreibe%C4%A0ich%C4%A0 Figur
nenn st%C4%A0
el le
ig ra
ach ten.</s>
User:%C4%A0%C3%83%C4%BEbersetze%C4%A0ins%C4%A0Englische:%C4%A0Ich%C4%A0 komme%C4%A0
st ant
n t
ei se%C4%A0
kon kre
C on
p h
Ko er
kurz .</s>
b %C3%83%C2%BCnd
ig e%C4%A0
ich ti
bedeu te
%C3%83%C4%B8 ff
Sel bst
Schrit te.%C4%A0Dann%C4%A0
Kl ass
mi sch
s%C4%A0 und%C4%A0
rechne st%C4%A0du%C4%A0
Sch n
User:%C4%A0Wie%C4%A0funktioniert%C4%A0 ein%C4%A0
p or
tst ad
s%C4%A0 il%C4%A0
m org
kt ur%C4%A0
ref lek
s en%C4%A0
Sp ort
Auf wand
Z ahl%C4%A0
%C3%83%C2%B6 l
Rech te%C4%A0
t%C3%83%C2%A4g lich.</s>
M ess
atur .</s>
pr%C3%83%C2%BCf en.</s>
nach voll
mal %C4%A0d
e%C4%A0 pro%C4%A0
t%C4%A0 sich
7 %C4%A0
10 ,%C4%A0dann%C4%A0
l%C3%83%C2%A4 ch
en scha
elm %C3%83%C2%A4
Zeit d
zuerst .%C4%A0Dann%C4%A0
%C3%83%C2%B6ff ne
,%C4%A0 stimm
rie ch
ass %C4%A0
sch ri
te mp
an aly
Gehir n%C4%A0
Kart ei
ver d
Ab sch
T er
geh en%C4%A0
st opp
Pro t
you .</s>
K%C3%83%C2%B6r per
ar te%C4%A0
be steh
ber ei
User:%C4%A0Warum%C4%A0 brauch
sch le
F all
e%C4%A0ich%C4%A0 m
.%C4%A0Drei mal%C4%A0
t%C4%A0 ab
Rech ne%C4%A0
User:%C4%A0%C3%83%C4%BEbersetze%C4%A0ins%C4%A0Englische:%C4%A0Ich%C4%A0 lerne%C4%A0
Mon arch
Sch ne
te m%C4%A0
sch%C3%83%C2%BCtz en%C4%A0
Kartei kart
Can%C4%A0 you%C4%A0
ge ?%C4%A0%C4%8AAssistant:%C4%A0
me%C4%A0 la%C4%A0
ahr schein
tro tz
N ord
schn it
User:%C4%A0Wie%C4%A0 %C3%83%C2%BCber
S o
or i
User:%C4%A0%C3%83%C4%BEbersetze%C4%A0ins%C4%A0Franz%C3%83%C2%B6sische:%C4%A0Ich%C4%A0 lerne%C4%A0
An fang
en%C4%A0 f%C3%83%C2%BCr%C4%A0
m an%C4%A0
ent haelt%C4%A0
schau st%C4%A0du%C4%A0auf%C4%A0
Quell en%C4%A0
P uf
W or
reg eln%C4%A0
Absch luss
console.log ('
g en.</s>
st r
be ding
?%C4%A0%C4%8AAssistant:%C4%A0Du%C4%A0 setzt%C4%A0
n icht.</s>
e%C4%A0d en%C4%A0
Ein heit%C4%A0
in e%C4%A0
igk eit%C4%A0
lu g
ar n
o c
Bon ne%C4%A0
st .%C4%A0
en%C4%A0 ist%C4%A0
z ier
Detail s%C4%A0
spann end
B lick
User:%C4%A0Wie%C4%A0 ordnest%C4%A0du%C4%A0
.%C4%A0%C4%8AAssistant:%C4%A0 Fr
ha st%C4%A0
x %C4%A0
isi er
?%C4%A0%C4%8AAssistant:%C4%A0 In%C4%A0
User:%C4%A0Wie%C4%A0starte st%C4%A0du%C4%A0eine%C4%A0
User:%C4%A0Wie%C4%A0schreibe%C4%A0ich%C4%A0 ein%C4%A0
ex am
Mensch en.</s>
mu li
t u
?%C4%A0%C4%8AAssistant:%C4%A0 L
User:%C4%A0Was%C4%A0war %C4%A0die%C4%A0
amer a%C4%A0
V ul
Pr%C3%83%C2%BCf ung
ung en?%C4%A0%C4%8AAssistant:%C4%A0
.%C4%A0%C4%8AAssistant:%C4%A0H ow%C4%A0
Temp er
S ig
M igra
Gra ph
bau st%C4%A0
wei ch
en%C4%A0 haben%C4%A0
w el
User:%C4%A0Wie%C4%A0schreibe%C4%A0ich%C4%A0 H
2 1
de m%C4%A0
kn %C3%83%C2%BC
Ein gab
?%C4%A0%C4%8AAssistant:%C4%A0 Ver
User:%C4%A0Wie%C4%A0planst%C4%A0du%C4%A0 einen%C4%A0
Temp o%C4%A0
Beispiel e.</s>
User:%C4%A0Wie%C4%A0planst%C4%A0du%C4%A0 ein%C4%A0
' );%C4%A0}
?%C4%A0%C4%8AAssistant:%C4%A0Du%C4%A0 pr%C3%83%C2%BCf
se ch
enig e%C4%A0
b el
Detail s.</s>
den%C4%A0 und%C4%A0
User:%C4%A0%C3%83%C4%BEbersetze%C4%A0ins%C4%A0Franz%C3%83%C2%B6sische:%C4%A0Ich%C4%A0 komme%C4%A0
Bil der.</s>
12 .</s>
h at
yste m%C4%A0
Haup tstad
de s
Su bje
T %C3%83%C2%A4g
Ergebni s%C4%A0
S %C3%83%C2%BC
end er%C4%A0
Sin ne
St and
schau st%C4%A0auf%C4%A0
%C4%A0 im%C4%A0
Aktion .</s>
Ab s
P rei
en%C4%A0 sich%C4%A0
Bu ch%C4%A0
h e.</s>
Pass wor
Ver sion
viel %C4%A0
R om
User:%C4%A01 4
W %C3%83%C2%BCst
r y.</s>
de st%C4%A0
p lo
8 %C4%A0
Fahrra d%C4%A0
User:%C4%A0Wie%C4%A0prior isierst%C4%A0du%C4%A0
il ter
St off
wir k
9 .</s>
%C4%A0%C3%83%C4%B9%C4%A0 5
K et
.%C4%A0Es%C4%A0 gibt%C4%A0
d en
t.%C4%A0 Er%C4%A0
D ing
v alid
Vul k
User:%C4%A01 2
?%C4%A0%C4%8AAssistant:%C4%A0Ja.%C4%A0 1
end en%C4%A0
ahrschein lichk
T ra
%C4%A0%C3%83%C2%B7%C4%A0 3,%C4%A0Ergebnis?%C4%A0%C4%8AAssistant:%C4%A0
en%C4%A0d urch%C4%A0
Vulk an
Aufgab en?%C4%A0%C4%8AAssistant:%C4%A0Du%C4%A0
.%C4%A0A dd
' %C4%A0
L%C3%83%C2%A4n der%C4%A0
L icht
Sch u
Min ut
er er%C4%A0
Vokab eln%C4%A0
be w
f rei
H au
zeig en.%C4%A0
Kon kre
.%C4%A0Dann%C4%A0 best%C3%83%C2%A4tig
Be deut
St elle%C4%A0
K in
wei ter.</s>
.%C4%A0%C4%8AAssistant:%C4%A0I%C4%A0 have%C4%A0
1 4
zusamm en.</s>
helf en.</s>
St at
je tz
Zusammen fass
v i
Menschen%C4%A0 w%C3%83%C2%A4hl
Kein%C4%A0 Problem
U N
User:%C4%A0 Er
p li
2 %C4%A0+%C4%A0
User:%C4%A0Wie%C4%A0strukturierst%C4%A0du%C4%A0 ein%C4%A0
t%C4%A0 E
Aut or
ti me.</s>
f %C3%83%C2%A4hr
?%C4%A0%C4%8AAssistant:%C4%A0 F
e%C4%A0das%C4%A0 Fenst
n e%C4%A0das%C4%A0Fenst
> </
nachvoll zieh
For m
blei ben%C4%A0
Informa tik
in d%C4%A0
in %C4%A0den%C4%A0
%C3%83%C2%A4 mpf
et was%C4%A0
F el
li ke%C4%A0
um %C4%A0die%C4%A0
Ge setz
zeich ne
je k
ation ?%C4%A0%C4%8AAssistant:%C4%A0Du%C4%A0
T ei
klar .</s>
ung%C4%A0 und%C4%A0
k lick
Pers on.</s>
%C4%A0-%C4%A0 1
wech sel
P reis
koch en%C4%A0
Hand el
V ektor
mach t%C4%A0
t or
User:%C4%A01 1
an ke%C4%A0
G leich
sp%C3%83%C2%A4 ter.</s>
To ol
w%C3%83%C2%A4hl en.</s>
mark ierst%C4%A0du%C4%A0
W ort
User:%C4%A0 H
startest%C4%A0 mit%C4%A0
S te
User:%C4%A0Wie%C4%A0bau st%C4%A0du%C4%A0eine%C4%A0
Me di
elm%C3%83%C2%A4 %C3%83%C5%81
n am
se ?%C4%A0%C4%8AAssistant:%C4%A0
User:%C4%A0Wie%C4%A0 reduzierst%C4%A0du%C4%A0
B al
Kl asse%C4%A0
%C4%A0ist%C4%A0 eine%C4%A0
schnell .</s>
Risi k
ak ter
ag ramm
Zimm er%C4%A0
temp s.</s>
a te
B lock
h i
v ari
B ahn
en%C4%A0 von%C4%A0
Eur o
Aus nahm
a v
ieder kehr
w%C3%83%C2%A4hl en.%C4%A0
.%C4%A0N ull%C4%A0
Ti pp
spielen%C4%A0 Fu%C3%83%C5%81ball
oto s
Experim ent
1 .</s>
od e%C4%A0
eu er
E- Mail
b eh
Aus gab
V oll
%C3%83%C2%A4 uf
Lit er
en.%C4%A0 Er%C4%A0
ko ste
Ber g
Wiederhol ung%C4%A0
Ter min
%C3%83%C2%BCck .</s>
Mach t%C4%A0
k or
Ro ut
B au
JS %C4%A0
S uch
b uch
,%C4%A0stimm t%C4%A0
ma p
W och
for %C4%A0
%C3%83%C2%A4t ?%C4%A0%C4%8AAssistant:%C4%A0Du%C4%A0
anz %C4%A0
st%C4%A0du%C4%A0 ein%C4%A0
t op
te%C4%A0d as%C4%A0
Bil der
User:%C4%A0Wie%C4%A0%C3%83%C2%BCb st%C4%A0du%C4%A0
R und
t ard.</s>
en %C4%A0die%C4%A0
en?%C4%A0%C4%8AAssistant:%C4%A0Du%C4%A0 schreibst%C4%A0
ar f
%C4%A0+%C4%A0 7
%C4%A0 eines%C4%A0
re ad
en?%C4%A0%C4%8AAssistant:%C4%A0Du%C4%A0 machst%C4%A0
folg t%C4%A0
O ze
pr e
S eit
User:%C4%A0Fasse%C4%A0zusammen:%C4%A0Ich%C4%A0 lerne%C4%A0
al les%C4%A0
.%C4%A0W ie%C4%A0viel
n %C3%83%C2%B6
L %C3%83%C2%BCck
m an
%C3%83%C2%A9 .</s>
,%C4%A0wie%C4%A0viel?%C4%A0%C4%8AAssistant:%C4%A0 5
kurz .%C4%A0Dann%C4%A0
on y
ende s%C4%A0
e%C4%A0ich%C4%A0 eine%C4%A0
ne%C4%A0das%C4%A0Fenst er
,%C4%A0 schnell
e%C4%A0 est%C4%A0
ist %C4%A0das%C4%A0
de ck
e%C4%A0d er%C4%A0
Fahr k
User:%C4%A0Wie%C4%A0 train
?%C4%A0%C4%8AAssistant:%C4%A0Eine%C4%A0 Person%C4%A0
un e%C4%A0
lo ss
e%C4%A0 werden%C4%A0
Mo un
um ,%C4%A0
en.%C4%A0 Keine%C4%A0
i ck
Gef%C3%83%C2%BC h
Hin der
D ar
ge ?%C4%A0%C4%8AAssistant:%C4%A0Du%C4%A0
ch ste%C4%A0
al ten%C4%A0
ier t.%C4%A0
o ut
Temper atur.</s>
ch .</s>
){%C4%A0 console.log('
bil d
st en%C4%A0
4 .</s>
fin dest%C4%A0
ie ben
st ?%C4%A0%C4%8AAssistant:%C4%A0
Z ehn
d oc
hei t.</s>
doc ument
O ma
ul ti
x i
pla %C3%83
W ahrscheinlichk
ab er%C4%A0
/ 5
begr enz
er z%C3%83%C2%A4hl
%C4%A0M u
frag st%C4%A0
Wie%C4%A0 sp%C3%83%C2%A4
?%C4%A0%C4%8AAssistant:%C4%A0 1
b en.</s>
Mat he
a ge.</s>
Migra tion
User:%C4%A02 5
Re c
t%C4%A0 aus%C4%A0
trenn t%C4%A0
Me et
Co mm
ll%C4%A0 raus
st%C4%A0du%C4%A0 nach%C4%A0
User:%C4%A0%C3%83%C4%BEbersetze%C4%A0ins%C4%A0Englische:%C4%A0Das%C4%A0 ist%C4%A0
z on
ig in
tr %C3%83%C2%A4g
Hand y%C4%A0
in ter
hei %C3%83%C5%81
s%C4%A0il%C4%A0 te%C4%A0
Aut o%C4%A0
%C4%A0 ein%C4%A0
3 </s>
ein s%C4%A0
en.%C4%A0Dann%C4%A0 suchst%C4%A0du%C4%A0
zeu ge%C4%A0
erkl%C3%83%C2%A4r t%C4%A0
wenig %C4%A0
t%C4%A0 under
Di agramm
wir d.</s>
k %C3%83%C2%BCrz
Sinne s
A ender
Oze an
mal%C4%A0d rei
e%C4%A0 la%C4%A0
Ru he
G it
ir%C4%A0 lei
orit h
ull .</s>
Punk te%C4%A0
nenn en.</s>
wiederhol st%C4%A0
zen e?%C4%A0%C4%8AAssistant:%C4%A0
J ack
M a
M ehr
li g
Info s%C4%A0
%C3%83%C2%B6r ter%C4%A0
M ach%C4%A0
ck sa
User:%C4%A0Wie%C4%A0 defin
Nach r
Di kt
t en
ord n
v al
%C4%A0=%C4%A0 8.</s>
jour d%C4%A0
Moun t%C4%A0E
.%C4%A0%C4%8AAssistant:%C4%A0T hat%C4%A0
Reg en
ne e
trag %C4%A0
1 3
?%C4%A0%C4%8AAssistant:%C4%A0Du%C4%A0teil st%C4%A0in%C4%A0
be vor%C4%A0
neh men%C4%A0
b lau
einfach e%C4%A0
obach te
sch %C4%A0
,%C4%A0wie%C4%A0viel?%C4%A0%C4%8AAssistant:%C4%A0 10
f .</s>
Gesch ichte?%C4%A0%C4%8AAssistant:%C4%A0
kurz .%C4%A0
User:%C4%A01 3
t%C4%A0m ir%C4%A0lei
kn%C3%83%C2%BC pf
Re de%C4%A0
kl ing
> %C4%A0
M asse%C4%A0
le ase%C4%A0
Mod ell
spr ech
Tex t
stab il
s mus?%C4%A0%C4%8AAssistant:%C4%A0
alita et%C4%A0
end .</s>
si e.%C4%A0Dann%C4%A0
en%C4%A0 einen%C4%A0
w ohn
s zeit
Rech te.</s>
en%C4%A0 werden%C4%A0
o u
Heute%C4%A0ist%C4%A0 Mon
In f
t%C4%A0 sie.</s>
F ol
bin%C4%A0 bereit
ot ok
B und%C4%A0
.%C4%A0W as%C4%A0
Stru ktur%C4%A0
Sti mm
nee d%C4%A0
%C3%83%C2%A4nder n%C4%A0
Ak tiv
Fig ur%C4%A0
,%C4%A0wie%C4%A0viel?%C4%A0%C4%8AAssistant:%C4%A0 9
sp%C3%83%C2%A4 t
Re st%C4%A0
Kli ma
12 ,%C4%A0wie%C4%A0viel?%C4%A0%C4%8AAssistant:%C4%A0
.%C4%A0M org
Ko hl
t ud
ier en.</s>
St ich
kehr .%C4%A0
3 %C4%A0%C3%83%C4%B9%C4%A04
Er%C4%A0 liest%C4%A0
Te am%C4%A0
ck et
Er de
Sp e
K lick
Nach t.%C4%A0%C4%8AAssistant:%C4%A0
ver bess
Lern en?%C4%A0%C4%8AAssistant:%C4%A0Du%C4%A0
Sch all%C4%A0
O N
C ode%C4%A0
Ab satz
N ull.</s>
In sel
User:%C4%A03 %C4%A0%C3%83%C4%B9%C4%A0
Le ben
um%C4%A0 und%C4%A0
reduz iert%C4%A0
%C3%83%C2%A4nder t%C4%A0nicht
B it
mag %C4%A0Mu
tr ie
t d
f lex
an sp
Sy m
b end
Gruppen arbei
end en.</s>
ci le.</s>
Fr ist
Mag net
inn er
reg elm%C3%83%C2%A4%C3%83%C5%81
de s%C4%A0
Zug riff
Hinwei se%C4%A0
User:%C4%A0Wie%C4%A0schreibe%C4%A0ich%C4%A0eine%C4%A0 Szen
h aup
pr o
Menschen%C4%A0w%C3%83%C2%A4hl en%C4%A0
B el
ig it
schle ch
, %C4%A0die%C4%A0
Good%C4%A0 mor
Z wei
5 %C4%A0%C4%8AAssistant:%C4%A0
ip el
la tz
.%C4%A0%C4%8AAssistant:%C4%A0J%C4%A0ai %C4%A0
( x
%C3%83%C4%B8ff ne%C4%A0das%C4%A0Fenster
.%C4%A0%C4%8AAssistant:%C4%A0O %C3%83%C2%B9
t%C4%A0under stand
Al te%C4%A0
.%C4%A0 Keine%C4%A0
ei m
st re
Al ar
Ab l%C3%83%C2%A4uf
er -
N enn
r scher
en ?</s>
Ar ra
p er.</s>
mi t.</s>
sch utz
sor tierst%C4%A0du%C4%A0
o f
ab .%C4%A0Dann%C4%A0
ali smus?%C4%A0%C4%8AAssistant:%C4%A0
t.%C4%A0 Es%C4%A0
Bahn ho
,%C4%A0w ie%C4%A0
ist%C4%A0der%C4%A0 Bahnho
w %C3%83%C2%A4ch
antwor t
M ark
v a.</s>
Wet ter
Ver st%C3%83%C2%A4nd
.%C4%A0%C4%8AAssistant:%C4%A0J %C4%A0
en %C4%A0das%C4%A0
.%C4%A0%C4%8AAssistant:%C4%A0O%C3%83%C2%B9 %C4%A0est%C4%A0
%C2%AE t.</s>
4 0
pla%C3%83 %C2%AEt.</s>
w ur
heu te
spar sam.</s>
mis st%C4%A0du%C4%A0
sch uetz
G ute%C4%A0
Viel%C4%A0 Spa%C3%83%C5%81
An teil
User:%C4%A0Wie%C4%A0st eu
up .</s>
kl%C3%83%C2%A4r st%C4%A0
S ter
Bei %C4%A0
Su mm
JS ON
st%C4%A0du%C4%A0dich%C4%A0 sel
her r
Re fer
User:%C4%A0Wie%C4%A0verm eid
W ar
%C3%83%C2%BC ge%C4%A0
helf en%C4%A0
?%C4%A0%C4%8AAssistant:%C4%A0 B
User:%C4%A0Wie%C4%A0verm eidest%C4%A0du%C4%A0
.%C4%A0 Wasser%C4%A0
gu t.</s>
Aut o
te g
aus %C4%A0der%C4%A0
or .</s>
k auf
Pr%C3%83%C2%BCf ung%C4%A0ist%C4%A0
User:%C4%A0Wie%C4%A0schreibe%C4%A0ich%C4%A0 T
%C4%A0ist%C4%A0 30
9 %C4%A0-%C4%A0
Wer te.%C4%A0Dann%C4%A0
Staat en.%C4%A0
ek te%C4%A0
B l
Lern ziel
ur %C3%83%C2%BCck.</s>
stud iere%C4%A0
Frag en.</s>
lern en%C4%A0
%C4%A0%C3%83%C2%B7%C4%A0 6
and el
User:%C4%A0Wie%C4%A0 lie
r %C3%83%C2%A4um
ma li
User:%C4%A0Wie%C4%A0schreib st%C4%A0du%C4%A0eine%C4%A0
b st.</s>
Re v
Prot ok
%C4%A0du%C4%A0 temps.</s>
Mag ma
.%C4%A0A us%C4%A0
gro%C3%83%C5%81 er%C4%A0
Al g
document .
otos y
D anke%C4%A0
.%C4%A0Dann%C4%A0 suchst%C4%A0du%C4%A0
Ex c
mal%C4%A0drei .</s>
otosy nt
Vol um
%C4%A0%C4%8AAssistant:%C4%A0 9</s>
0.%C4%A0 Alles%C4%A0
sa b
benenn st%C4%A0du%C4%A0
%C3%83 %C2%AA
isch er%C4%A0
i der
der e%C4%A0
t%C4%A0d as
Pass end%C4%A0
haben%C4%A0 Zeit
User:%C4%A0Wie%C4%A0st opp
Ende .%C4%A0Dann%C4%A0
W iss
?%C4%A0%C4%8AAssistant:%C4%A0D at
ie tsch
User:%C4%A0Wie%C4%A0planst%C4%A0du%C4%A0 Daten
ern .</s>
eine%C4%A0 Zeit
b u
%C3%83 %C2%A8
ver m
f%C3%83%C2%BC ll
ungen%C4%A0 um?%C4%A0%C4%8AAssistant:%C4%A0Du%C4%A0
Dial og
ar %C4%A0
e ma
vol l%C4%A0
lich es%C4%A0
P h
tud ie%C4%A0
.%C4%A0S p
st a
User:%C4%A0Wie%C4%A0 plan
Kal te%C4%A0
en%C4%A0 mit%C4%A0
%C3%83%C2%A4nder st%C4%A0
t%C4%A0mir%C4%A0lei d
ang sa
%C4%A0be so
%C4%A0+%C4%A0 5%C4%A0=%C4%A0
%C4%A0%C3%83 %C4%A6
ab h%C3%83%C2%A4ng
zieh t%C4%A0
Exc us
notier st%C4%A0
Schl%C3%83%C2%BCss el
wenig er.</s>
mu si
Reihenfol ge
Dat um.%C4%A0Dann%C4%A0
Mittel wer
ach e%C4%A0
b t.</s>
bit te%C4%A0das%C4%A0
ai ser
Re p
sch lie%C3%83%C5%81
Ziel e.%C4%A0
ant .</s>
Ver gleich
Ko m
25 %C4%A0
.%C4%A0Morg en%C4%A0ist%C4%A0
en%C4%A0 oder%C4%A0
K ern
ra f
Eine%C4%A0 Fahrk
l '
Ka tze%C4%A0
er .%C4%A0
t anz
Tipp %C4%A0f%C3%83%C2%BCr%C4%A0
D a
e a
unk tion%C4%A0
User:%C4%A0Wie%C4%A0schreibe%C4%A0ich%C4%A0 ohne%C4%A0
ck er%C4%A0
Good%C4%A0mor n
Pro d
en tier
Wasser%C4%A0 und%C4%A0
.%C4%A0%C4%8AAssistant:%C4%A0That%C4%A0 is%C4%A0
User:%C4%A0Wie%C4%A0steu erst%C4%A0du%C4%A0
User:%C4%A0Was%C4%A0ist%C4%A0ein%C4%A0 Kontin
en?%C4%A0%C4%8AAssistant:%C4%A0Du%C4%A0 setzt%C4%A0
Beding ungen%C4%A0
Logi k
Schu le
Ver d
H o
User:%C4%A0%C3%83%C4%BEbersetze%C4%A0ins%C4%A0Franz%C3%83%C2%B6sische:%C4%A0Das%C4%A0 ist%C4%A0
Konflik te%C4%A0
c lass
su ch%C4%A0
Mount%C4%A0E ver
,%C4%A0Ergebnis?%C4%A0%C4%8AAssistant:%C4%A0 15
arte%C4%A0 bitte.%C4%A0%C4%8AAssistant:%C4%A0
e%C4%A0 fest.</s>
ib %C4%A0
koste t%C4%A0das
F a
Er z%C3%83%C2%A4hl
Prozess ?%C4%A0%C4%8AAssistant:%C4%A0Du%C4%A0
User:%C4%A0Wie%C4%A0vermeid e%C4%A0ich%C4%A0
Zimmer%C4%A0 ist%C4%A0
hat%C4%A0 eine%C4%A0
User:%C4%A01 5
User:%C4%A0%C3%83%C4%BEbersetze%C4%A0ins%C4%A0Franz%C3%83%C2%B6sische:%C4%A0Wo%C4%A0 ist%C4%A0die%C4%A0
Eine%C4%A0Fahrk arte%C4%A0bitte.%C4%A0%C4%8AAssistant:%C4%A0
%C4%A0die%C4%A0 Pr%C3%83%C2%BCfung
Frie den%C4%A0und%C4%A0
li k
or t.</s>
Reak tion
trinke%C4%A0 Te
Sie%C4%A0 f%C3%83%C2%A4hr
h ank%C4%A0
An aly
ber haup
zeig en.</s>
Nachr icht
er%C4%A0 auf
b ell
User:%C4%A0Wie%C4%A0 be
est e%C4%A0
f%C3%83%C2%BCr %C4%A0die%C4%A0Pr%C3%83%C2%BCfung
Hauptstad t%C4%A0von%C4%A0
ist%C4%A0der%C4%A0Bahnho f
b lick
L ap
zu .%C4%A0%C4%8AAssistant:%C4%A0
Gr %C3%83%C2%BCn
.%C4%A0 Ein
st off
,%C4%A0Ergebnis?%C4%A0%C4%8AAssistant:%C4%A0 8
st elle%C4%A0
en.%C4%A0 Ein%C4%A0
F unktion%C4%A0
Ru cksa
Hal b
List e.%C4%A0Dann%C4%A0
ung .%C4%A0%C4%8AAssistant:%C4%A0
einf luss
Te ch
3 .</s>
arbeit en%C4%A0
A d
D in
User:%C4%A0Was%C4%A0ist %C4%A0das%C4%A0
igk eit.</s>
f lug
Einheit%C4%A0 fuer%C4%A0
Spann ung%C4%A0
%C4%A0-%C4%A0 7
Tech ni
Entschuldig ung.%C4%A0%C4%8AAssistant:%C4%A0
%C4%A0%C3%83%C4%B9%C4%A0 (
Ab l
fre und
be such
Info s.</s>
si eh
ulti pli
Alg orith
lief ert%C4%A0
Dar stell
tu t%C4%A0mir%C4%A0leid
%C4%A0%C3%83%C2%B7%C4%A0 3
en%C4%A0w ir%C4%A0
UN O
entsch eidest%C4%A0du%C4%A0
ti ck
b rech
trinke%C4%A0 Wasser
z ehn%C4%A0
le bend
Su pp
kl einen%C4%A0
Wer te%C4%A0
Lap top
Bis%C4%A0 sp%C3%83%C2%A4ter.%C4%A0%C4%8AAssistant:%C4%A0
fas st%C4%A0
?%C4%A0%C4%8AAssistant:%C4%A0Die%C4%A0 Erde%C4%A0
otosynt he
e uf
mark ierst%C4%A0
N il
m us%C4%A0
Wie%C4%A0sp%C3%83%C2%A4 t%C4%A0ist%C4%A0
Sch all
User:%C4%A0Wie%C4%A0 sicherst%C4%A0du%C4%A0
L %C3%83%C2%A4nder
Heute%C4%A0ist%C4%A0Mon tag
User:%C4%A0 20
P izz
on s
at ?%C4%A0%C4%8AAssistant:%C4%A0
wur de%C4%A0
P ri
%C3%83%C4%BEber schri
N om
%C4%A0beso in
User:%C4%A0Wie%C4%A0schreibe%C4%A0ich%C4%A0Szen en
a s?%C4%A0%C4%8AAssistant:%C4%A0
niss e%C4%A0
.%C4%A0 Klare%C4%A0
berei test%C4%A0du%C4%A0
Logi k%C4%A0
Back up
B us
k ri
wind ow
Himalay a
be obachte
Aus flug
un ter%C4%A0
n %C3%83%C2%A4ch
t%C4%A0 zu%C4%A0
teste st%C4%A0
20 </s>
Hinwei se
Ergebni s.</s>
ie w
User:%C4%A0Wie%C4%A0defin ierst%C4%A0du%C4%A0
en%C4%A0 auf
Kal ender
An f%C3%83%C2%BChr
at h
a.%C4%A0 Er%C4%A0
z ahl
Bil der%C4%A0
?%C4%A0%C4%8AAssistant:%C4%A0 R
%C4%A0%C3%83%C2%B7%C4%A0 3%C4%A0=%C4%A0
Ein heit
Seite%C4%A0 l%C3%83%C2%A4d
Er wart
S ystem%C4%A0
tr eff
z ur%C3%83%C2%BCck.</s>
ver schied
Se e%C4%A0
Kopf h%C3%83%C2%B6r
Rucksa ck
11 .</s>
er v
such e%C4%A0
Ab schnit
Koer per.</s>
t en.%C4%A0Dann%C4%A0
Es%C4%A0 tut%C4%A0mir%C4%A0leid
ser %C4%A0
pr otok
bei%C4%A0 n
%C3%83%C2%BC ll%C4%A0raus
l%C3%83%C2%B6 ck
F il
K ap
%C3%83%C4%B8ffne%C4%A0das%C4%A0Fenster .%C4%A0%C4%8AAssistant:%C4%A0O
Zeit en%C4%A0
gen au
sich er
en%C4%A0 vor
?%C4%A0%C4%8AAssistant:%C4%A0Du%C4%A0 vergleichst%C4%A0
Excus e%C4%A0
.%C4%A0D ein%C4%A0
Pa zifik
g o
gel %C3%83%C2%B6
b ark
Unterr icht%C4%A0
Them en.</s>
stre u
ali t
C h
%C4%A0%C3%83 %C2%A9
a se.</s>
lich ?%C4%A0%C4%8AAssistant:%C4%A0
sich%C4%A0 in%C4%A0
User:%C4%A0Wie%C4%A0schreibe%C4%A0ich%C4%A0 P
zieh en%C4%A0
m ein
.%C4%A0%C4%8AAssistant:%C4%A0I%C4%A0 need%C4%A0
Eig enscha
jourd%C4%A0 hui
t,%C4%A0 bevor%C4%A0
studiere%C4%A0 Informatik
Ergebnis :%C4%A0
Tei le.%C4%A0Dann%C4%A0
ier st%C4%A0die%C4%A0
30 .%C4%A0Zehner%C4%A0
Gute%C4%A0 Nacht.%C4%A0%C4%8AAssistant:%C4%A0
ens ystem
.%C4%A0Neu e%C4%A0
en%C4%A0 zu%C4%A0
Rev iew
mag%C4%A0Mu sik
en%C4%A0 Sch
Risi ko
speich erst%C4%A0du%C4%A0
L A
?%C4%A0%C4%8AAssistant:%C4%A0Du%C4%A0 listest%C4%A0
ei de%C4%A0
Elem ent%C4%A0
um .</s>
w al
Wie%C4%A0sp%C3%83%C2%A4t%C4%A0ist%C4%A0 es
7 .</s>
.%C4%A0%C4%8AAssistant:%C4%A0C %C4%A0est%C4%A0
Europ a.</s>
Inter net
to i%C4%A0
%C3%83%C2%BCn st
i v
a si
steig t%C4%A0
benoetig t%C4%A0
EU R
User:%C4%A0W el
ier ung.</s>
e?%C4%A0%C4%8AAssistant:%C4%A0Du%C4%A0 pr%C3%83%C2%BCfst%C4%A0
Reihenfol ge.</s>
Mach%C4%A0 bitte%C4%A0das%C4%A0
User:%C4%A0Wie%C4%A0schreibe%C4%A0ich%C4%A0 S
reflek tiert%C4%A0
%C4%A0%C4%8AAssistant:%C4%A0 6
User:%C4%A0 Ein%C4%A0
akter i
F akt
L%C3%83%C2%A4n ge%C4%A0
Z wei%C4%A0
Ti cket
.%C4%A0%C4%8AAssistant:%C4%A0 N
tr et
Schw ier
?%C4%A0%C4%8AAssistant:%C4%A0 Im%C4%A0
User:%C4%A09 %C4%A0%C3%83%C4%B9%C4%A0
wohn st%C4%A0du
User:%C4%A0%C3%83%C4%BEbersetze%C4%A0ins%C4%A0Englische:%C4%A0 Guten%C4%A0Morgen.%C4%A0%C4%8AAssistant:%C4%A0
N ieder
.%C4%A0%C4%8AAssistant:%C4%A0How%C4%A0 are%C4%A0
bar%C4%A0 machen.</s>
sech s.</s>
Ger%C3%83%C2%A4 te%C4%A0
B lei
Star t%C4%A0und%C4%A0
ge setz
ab ei
ci enc
on n
For scher
Reg el.</s>
cri p
HTML %C4%A0
schnell e%C4%A0
fun ction
m ierst%C4%A0du%C4%A0
Can%C4%A0you%C4%A0 help.</s>
we ge
%C4%A0ist%C4%A030 .</s>
B i
ach e?%C4%A0%C4%8AAssistant:%C4%A0
igin al
.%C4%A0%C4%8AAssistant:%C4%A0Nous%C4%A0 av
Konkre te%C4%A0
F ab
D ok
9 %C4%A0+%C4%A01
bring t%C4%A0
User:%C4%A0Was%C4%A0 t
i eh
Guten%C4%A0Morgen.%C4%A0%C4%8AAssistant:%C4%A0 Bon
ass e.%C4%A0
rei he.</s>
mit%C4%A0 Karteikart
tig k
N atur
erstell st%C4%A0
enig %C4%A0
R %C3%83%C2%A4t
ung en.%C4%A0
en t.</s>
e%C4%A0Hunger .%C4%A0%C4%8AAssistant:%C4%A0I%C4%A0am%C4%A0
t%C4%A0 W
p ar
en%C4%A0d ar
User:%C4%A0%C3%83%C4%BEbersetze%C4%A0ins%C4%A0Franz%C3%83%C2%B6sische:%C4%A0 Wie%C4%A0geht%C4%A0es%C4%A0dir
ok .</s>
c ui
h t.</s>
y%C4%A0 is%C4%A0
angsa me%C4%A0
rechne st%C4%A0du
er ch
wird%C4%A0 mit%C4%A0
%C4%A0defin iert%C4%A0
F%C3%83%C2%A4l le.%C4%A0Dann%C4%A0
User:%C4%A0Fasse%C4%A0kurz%C4%A0zusammen:%C4%A0Ein%C4%A0Bericht%C4%A0 %C3%83%C2%BCber
i .</s>
ung%C4%A0 aus%C4%A0
eins%C4%A0 bleibt%C4%A0
.%C4%A0%C4%8AAssistant:%C4%A0M y%C4%A0
en.%C4%A0 W
.%C4%A0 El
schw er.</s>
unter sch
Erde .%C4%A0
K%C3%83%C2%B6n ig
Pr %C3%83%C2%A4d
ist%C4%A0 es%C4%A0
.%C4%A0%C4%8AAssistant:%C4%A0 Sp
stud y%C4%A0
Beschreib ungen%C4%A0
s ent
?%C4%A0%C4%8AAssistant:%C4%A0 St
Auto%C4%A0 ist%C4%A0
Wetter%C4%A0ist%C4%A0sch%C3%83%C2%B6n .%C4%A0%C4%8AAssistant:%C4%A0Il%C4%A0
%C3%83%C4%BEberschri f
User:%C4%A0Du%C4%A0 hast%C4%A0
fai t%C4%A0be
Them en.%C4%A0Dann%C4%A0
il li
en%C4%A0 an
ch ance.</s>
.%C4%A0Wie%C4%A0viel e%C4%A0
setze%C4%A0 ich%C4%A0
g st%C4%A0du%C4%A0
.%C4%A0%C4%8AAssistant:%C4%A0 Le
mach e%C4%A0H
User:%C4%A0Was%C4%A0ist%C4%A0ein%C4%A0 Par
%C3%83%C2%A4 t?%C4%A0%C4%8AAssistant:%C4%A0
User:%C4%A0%C3%83%C4%BEbersetze%C4%A0ins%C4%A0Englische:%C4%A0 Schlie%C3%83%C5%81e%C4%A0die%C4%A0T%C3%83%C2%BCr
User:%C4%A0Wie%C4%A0lern e%C4%A0ich%C4%A0
Re stor
verteil t%C4%A0
mp t
st and%C4%A0
.%C4%A0Dann%C4%A0 wiederholst%C4%A0du%C4%A0
zeich en%C4%A0
User:%C4%A0Was%C4%A0ist%C4%A0die%C4%A0 UNO
Must er%C4%A0
L%C3%83%C2%B6s ung%C4%A0
lich er%C4%A0
en%C4%A0 bei%C4%A0
r %C3%83%C2%B6
pa s.</s>
gen au%C4%A0
bau en.</s>
langsam .%C4%A0
te .%C4%A0M
fin i
User:%C4%A0Wie%C4%A0%C3%83%C2%BCber pr%C3%83%C2%BCfst%C4%A0du%C4%A0
User:%C4%A0Was%C4%A0 sind%C4%A0
.%C4%A0%C4%8AAssistant:%C4%A0We%C4%A0 are%C4%A0
Ver antwort
?%C4%A0%C4%8AAssistant:%C4%A0 V
User:%C4%A0%C3%83%C4%BEbersetze%C4%A0ins%C4%A0Franz%C3%83%C2%B6sische:%C4%A0 Kannst%C4%A0du%C4%A0helfen.%C4%A0%C4%8AAssistant:%C4%A0
mel de
hei%C3%83%C5%81e%C4%A0Alex .%C4%A0%C4%8AAssistant:%C4%A0Je%C4%A0
sie%C4%A0 auf
ich %C4%A0d
Energ ie
sab stimm
.%C4%A0%C4%8AAssistant:%C4%A0J' %C3%83%C2%A9
m asse.%C4%A0
es%C4%A0 Ver
S I%C4%A0
3 0%C4%A0
Zeit .%C4%A0Dann%C4%A0
Mount%C4%A0Ever est
Must er.</s>
stimm en%C4%A0
ordne t%C4%A0
Viel%C4%A0Erfolg.%C4%A0%C4%8AAssistant:%C4%A0 Bonne%C4%A0
Sig nal
m od
R en
teste st%C4%A0du%C4%A0dich%C4%A0sel
.%C4%A0V ier%C4%A0
kon stant
W ieder
po ur%C4%A0
Nutz er
neu en%C4%A0
de t.</s>
.%C4%A0%C4%8AAssistant:%C4%A0I%C4%A0d o%C4%A0
%C3%83%C2%BCn kt
Ding e%C4%A0
User:%C4%A0Wie%C4%A0schreibe%C4%A0ich%C4%A0 starke%C4%A0
app elle%C4%A0
Bild ha
Or t,%C4%A0
zon as?%C4%A0%C4%8AAssistant:%C4%A0
ie f
e%C4%A0 mit%C4%A0
Schn ell
%C3%A2 %C4%A2
Wasser ?%C4%A0%C4%8AAssistant:%C4%A0
ich te
ach t
Ne tz
geteil t%C4%A0durch%C4%A0
und .%C4%A0
U p
lich en%C4%A0
st%C4%A0du%C4%A0 sie%C4%A0
tiv it
kn%C3%83%C2%BCpf st%C4%A0
werden%C4%A0 ge
opp elt%C4%A0
um%C4%A0 Beispiel
t%C4%A0understand .</s>
8 ,%C4%A0passt%C4%A0
M al
ein s
ie%C4%A0viel %C4%A0
e%C4%A0 ist%C4%A0
zeich en.</s>
ea se
Reg el
Ren ai
ko p
minim ierst%C4%A0du%C4%A0
User:%C4%A01 00
M us
Daten qu
Er inner
A pp
re szeit
ull .%C4%A0Dann%C4%A0
User:%C4%A0Was%C4%A0 be
?%C4%A0%C4%8AAssistant:%C4%A0Du%C4%A0 testest%C4%A0
User:%C4%A0%C3%83%C4%BEbersetze%C4%A0ins%C4%A0Englische:%C4%A0Ich%C4%A0hab e%C4%A0eine%C4%A0Frage
Kalte%C4%A0 Krieg
Wer t
t%C4%A0d u
?%C4%A0%C4%8AAssistant:%C4%A0Du%C4%A0 planst%C4%A0
User:%C4%A0Was%C4%A0ist%C4%A0eine%C4%A0 Met
,%C4%A0wie%C4%A0viel?%C4%A0%C4%8AAssistant:%C4%A0 15
Kurz %C4%A0und%C4%A0
verstehe%C4%A0nicht .%C4%A0%C4%8AAssistant:%C4%A0I%C4%A0do%C4%A0
User:%C4%A0%C3%83%C4%BEbersetze%C4%A0ins%C4%A0Englische:%C4%A0Das%C4%A0 Wetter%C4%A0ist%C4%A0sch%C3%83%C2%B6n
qu ator
Viel%C4%A0Erfolg.%C4%A0%C4%8AAssistant:%C4%A0 Good%C4%A0
f ilter
Pr%C3%83%C2%BCf e%C4%A0
Hand el.</s>
Bus .%C4%A0%C4%8AAssistant:%C4%A0
Re de
hl or
User:%C4%A0%C3%83%C4%BEbersetze%C4%A0ins%C4%A0Englische:%C4%A0 Kannst%C4%A0du%C4%A0helfen.%C4%A0%C4%8AAssistant:%C4%A0
,%C4%A0wenn%C4%A0 sie%C4%A0
User:%C4%A0%C3%83%C4%BEbersetze%C4%A0ins%C4%A0Englische:%C4%A0Ich%C4%A0 bin%C4%A0m%C3%83%C2%BCde
Staat so
F rei
Abs %C3%83%C2%A4tze%C4%A0
D ur
F oku
abh%C3%83%C2%A4ng ig.</s>
w%C3%83%C2%A4hl te%C4%A0
im%C4%A0 Kopf
Der%C4%A0 Text%C4%A0
L%C3%83%C2%B6s ung.</s>
User:%C4%A0%C3%83%C4%BEbersetze%C4%A0ins%C4%A0Franz%C3%83%C2%B6sische:%C4%A0Ich%C4%A0 bin%C4%A0m%C3%83%C2%BCde
fa tig
%C3%83%C2%A4ndert%C4%A0nicht s.</s>
lu ess
e .%C4%A0Die%C4%A0
bei spiel
st%C4%A0du ,%C4%A0
ei en%C4%A0
end en?%C4%A0%C4%8AAssistant:%C4%A0
er che%C4%A0
?%C4%A0%C4%8AAssistant:%C4%A0 Zeige%C4%A0
vo m%C4%A0
Ber ge
um or
Br %C3%83%C2%BCch
ut er%C4%A0
hin dert%C4%A0
.%C4%A0 Er
h %C4%A0
u vr
h %C3%83%C2%A4uf
k %C3%83%C2%A4mpf
ung ry.</s>
Frieden%C4%A0und%C4%A0 Handel.</s>
ung ?%C4%A0%C4%8AAssistant:%C4%A0Du%C4%A0definierst%C4%A0
al t.</s>
User:%C4%A0%C3%83%C4%BEbersetze%C4%A0ins%C4%A0Franz%C3%83%C2%B6sische:%C4%A0Ich%C4%A0bin%C4%A0m%C3%83%C2%BCde .%C4%A0%C4%8AAssistant:%C4%A0Je%C4%A0suis%C4%A0
!%C4%A0 Wie%C4%A0
window .</s>
enst ein
Geh eim
,%C4%A0was%C4%A0 pass
s ol
Ph otosynthe
?%C4%A0%C4%8AAssistant:%C4%A0 Es%C4%A0
ist isch
R%C3%83%C2%A4t sel
.%C4%A0%C4%8AAssistant:%C4%A0T od
R %C3%83%C2%A4um
h%C3%83%C2%A4ltst%C4%A0du%C4%A0 sie%C4%A0
%C4%A0+%C4%A0 b
sche s%C4%A0
uter%C4%A0 s
.%C4%A0%C4%8AAssistant:%C4%A0I%C4%A0 study%C4%A0
mm er
yp othe
el t
Stru ktur
bil det%C4%A0
wird%C4%A0 in%C4%A0
ypothe se
en%C4%A0und%C4%A0 Ausgab
%C4%A0%C4%8AAssistant:%C4%A0 8</s>
sich er?%C4%A0%C4%8AAssistant:%C4%A0
Met all
sch l%C3%83%C2%A4
i al
k%C3%83%C2%BChl t%C4%A0ab
a ?%C4%A0%C4%8AAssistant:%C4%A0Eine%C4%A0
M ass
T ab
er es%C4%A0
en ge.</s>
Far ben%C4%A0
at er.</s>
.%C4%A0%C4%8AAssistant:%C4%A0 Der%C4%A0
schreib en.</s>
W enn
ich tige%C4%A0
Frie den.</s>
r %C3%83%C2%A4
e%C4%A0ich%C4%A0 ein%C4%A0
ein%C4%A0 und%C4%A0
Spr ich%C4%A0
Aufgabe ?%C4%A0%C4%8AAssistant:%C4%A0Du%C4%A0
l ung%C4%A0
for dert%C4%A0
leg en.%C4%A0
mp f%C4%A0
List e.</s>
er t
o%C4%A0 you%C4%A0
kl ein.</s>
Wolk en%C4%A0
Z ita
er?%C4%A0%C4%8AAssistant:%C4%A0Du%C4%A0 nutzt%C4%A0
tro ck
Sy n
od ay.</s>
lat er.</s>
User:%C4%A0Wie%C4%A0planst%C4%A0du%C4%A0 Pr%C3%83%C2%BCfungs
verbin det%C4%A0
.%C4%A0 L
g lich
neu er%C4%A0
nahm en%C4%A0und%C4%A0Ausgab
um kre
en%C4%A0 wir
.%C4%A0%C4%8AAssistant:%C4%A0My%C4%A0 nam
Funktion en.</s>
regelm%C3%83%C2%A4%C3%83%C5%81 ig.</s>
%C4%A0 plus%C4%A0
ation%C4%A0 wird%C4%A0
.%C4%A0%C4%8AAssistant:%C4%A0Tod a
/ 2</s>
10 .</s>
i tz
De fini
.%C4%A0 O
d arf
?%C4%A0%C4%8AAssistant:%C4%A0Du%C4%A0 schreib
.%C4%A0Dann%C4%A0 arbeitest%C4%A0du%C4%A0
f luss
gesch icht
uvr e%C4%A0la%C4%A0
Schwier igkeit.</s>
urch %C4%A0die%C4%A0
m at
Satz %C4%A0
re m
Sta ate
e .%C4%A0Sie%C4%A0
n .%C4%A0
.%C4%A0%C4%8AAssistant:%C4%A0I%C4%A0 like%C4%A0
Aufgabe .</s>
S c
.%C4%A0Dann%C4%A0 h%C3%83%C2%A4ltst%C4%A0du%C4%A0
User:%C4%A0Was%C4%A0ist%C4%A0ein%C4%A0 Refer
c tor
t?%C4%A0%C4%8AAssistant:%C4%A0 H%C3%83%C2%B6
%C4%A0+%C4%A0 12,%C4%A0wie%C4%A0viel?%C4%A0%C4%8AAssistant:%C4%A0
Kin o
jour nal
.%C4%A0%C4%8AAssistant:%C4%A0Je%C4%A0 ne%C4%A0
a%C4%A0 question.</s>
per%C4%A0 JS%C4%A0
kommt%C4%A0 nach%C4%A0
w ater.</s>
User:%C4%A0Wie%C4%A0schreibe%C4%A0ich%C4%A0 klare%C4%A0
-D ann
User:%C4%A04 %C4%A0%C3%83%C4%B9%C4%A0
.%C4%A0Dann%C4%A0 w%C3%83%C2%A4hlst%C4%A0du%C4%A0
?%C4%A0%C4%8AAssistant:%C4%A0 %C3%83%C4%BEber
W LA
en%C4%A0 lassen.</s>
y ?%C4%A0%C4%8AAssistant:%C4%A0
e?%C4%A0%C4%8AAssistant:%C4%A0 Sie%C4%A0
P hy
User:%C4%A0Wie%C4%A0setzt%C4%A0du%C4%A0 eine%C4%A0
e%C4%A0und%C4%A0 Wirk
st%C4%A0das%C4%A0 Ziel.%C4%A0Dann%C4%A0
ist%C4%A0 spannend
.%C4%A0Add iere%C4%A0
Hund%C4%A0 bell
T ro
Afrik a
User:%C4%A0Fasse%C4%A0zusammen:%C4%A0 Es%C4%A0
fa cile.</s>
Gruppen arbeit
Le bew
Dat en.</s>
Tro pf
aktiv ');</s>
list e?%C4%A0%C4%8AAssistant:%C4%A0
ti me%C4%A0
User:%C4%A0Wie%C4%A0schreibe%C4%A0ich%C4%A0 M
st en.%C4%A0
um%C4%A0Beispiel %C4%A0
alita et
gesch loss
ar e.</s>
Eig ene%C4%A0
User:%C4%A0Warum%C4%A0 gibt%C4%A0es%C4%A0
cri s%C4%A0
en.%C4%A0 H
User:%C4%A0Fasse%C4%A0zusammen:%C4%A0Die%C4%A0 Sonne%C4%A0
Himm el%C4%A0
User:%C4%A0Was%C4%A0ist%C4%A0ein%C4%A0 Arch
gro%C3%83%C5%81e%C4%A0 Land
.%C4%A0%C4%8AAssistant:%C4%A0Toda y%C4%A0is%C4%A0
koch t%C4%A0
Protok oll
for der
fr iert%C4%A0
k reis
berhaup t?%C4%A0%C4%8AAssistant:%C4%A0H%C3%83%C2%B6
Fehl er%C4%A0
e%C4%A0 ver
Gr%C3%83%C2%B6%C3%83%C5%81 ter%C4%A0
ek t.</s>
.%C4%A0D ann
User:%C4%A0Wie%C4%A0schreibe%C4%A0ich%C4%A0 Ne
.%C4%A0%C4%8AAssistant:%C4%A0I%C4%A0have%C4%A0 a%C4%A0question.</s>
.%C4%A0%C4%8AAssistant:%C4%A0I%C4%A0am%C4%A0 ti
Sonn en
ti mierst%C4%A0du%C4%A0
Rec y
jeden%C4%A0 Tag
Demokrati e
e as
viel en%C4%A0
lo se%C4%A0
w as
lau si
ste%C4%A0 Schritte.</s>
Syn ony
User:%C4%A0Was%C4%A0ist%C4%A0ein%C4%A0Refer end
Star t%C4%A0
Heu te%C4%A0
Person%C4%A0 im%C4%A0
ue ber
voll .</s>
G as
Son ne
li br
is %C4%A0de%C4%A0
%C4%A0%C3%83%C4%B9%C4%A0 6
erlau bt%C4%A0
gu t%C4%A0
zeichne st%C4%A0
L eg
.%C4%A0%C4%8AAssistant:%C4%A0We%C4%A0 have%C4%A0
le ase.</s>
icht s%C4%A0
Tim e
the%C4%A0 window.</s>
Kli sche
A g
st%C4%A0d ich%C4%A0
.%C4%A0D oppelt%C4%A0
User:%C4%A0%C3%83%C4%BEbersetze%C4%A0ins%C4%A0Franz%C3%83%C2%B6sische:%C4%A0Ich%C4%A0 brauche%C4%A0Hilfe
c e.</s>
Wel t
en%C4%A0 ein
%C4%A0%C4%8AAssistant:%C4%A0 7
ruh ig
Plan %C4%A0f%C3%83%C2%BCr%C4%A0
brei tet%C4%A0
User:%C4%A0 Tipp%C4%A0f%C3%83%C2%BCr%C4%A0
ge teste
ru eck
M eil
Re vol
in e?%C4%A0%C4%8AAssistant:%C4%A0Du%C4%A0
une%C4%A0 question.</s>
ann .</s>
?%C4%A0%C4%8AAssistant:%C4%A0D er%C4%A0
%C3%83%C2%BCck e.%C4%A0
N erv
ichti ges%C4%A0
I t
w ie%C4%A0
N ull%C4%A0
P ap
Z y
reich .</s>
er gi
Reg en%C4%A0
verstehe%C4%A0nicht .%C4%A0%C4%8AAssistant:%C4%A0Je%C4%A0ne%C4%A0
an pass
por te.</s>
t reib
b ol
Po li
K an
User:%C4%A0 G
mehr ere%C4%A0
We ge.</s>
scha ft%C4%A0
stand .%C4%A0Dann%C4%A0
bei %C4%A0%C3%83%C4%A6
User:%C4%A0Wie%C4%A0mach t%C4%A0man%C4%A0
User:%C4%A0 Schreib
ation%C4%A0 ver
kor re
an ach
,%C4%A0wie%C4%A0viel?%C4%A0%C4%8AAssistant:%C4%A0 2
Figur en.</s>
User:%C4%A0%C3%83%C4%BEbersetze%C4%A0ins%C4%A0Englische:%C4%A0 Viel%C4%A0Erfolg.%C4%A0%C4%8AAssistant:%C4%A0Good%C4%A0
User:%C4%A0%C3%83%C4%BEbersetze%C4%A0ins%C4%A0Franz%C3%83%C2%B6sische:%C4%A0 Viel%C4%A0Erfolg.%C4%A0%C4%8AAssistant:%C4%A0Bonne%C4%A0
User:%C4%A0Wie%C4%A0 merk
geh st%C4%A0
P latz
ah reszeit
Fr %C3%83%C2%BCh
.%C4%A0%C4%8AAssistant:%C4%A0P lease%C4%A0
function (
luss .%C4%A0Dann%C4%A0
W andel
e%C4%A0ich%C4%A0 Figur
Alles%C4%A0 gut
S%C3%83%C2%BC d
User:%C4%A0%C3%83%C4%BEbersetze%C4%A0ins%C4%A0Englische:%C4%A0Ich%C4%A0 brauche%C4%A0Hilfe
%C3%83%C4%BEb ung%C4%A0ist%C4%A0
ben %C4%A0d
en.%C4%A0 Wir%C4%A0
Rel ease
el .
User:%C4%A0%C3%83%C4%BEbersetze%C4%A0ins%C4%A0Franz%C3%83%C2%B6sische:%C4%A0 Guten%C4%A0Morgen.%C4%A0%C4%8AAssistant:%C4%A0Bon
User:%C4%A0%C3%83%C4%BEbersetze%C4%A0ins%C4%A0Englische:%C4%A0Schlie%C3%83%C5%81e%C4%A0die%C4%A0T%C3%83%C2%BCr .%C4%A0%C4%8AAssistant:%C4%A0C
te st
User:%C4%A0%C3%83%C4%BEbersetze%C4%A0ins%C4%A0Englische:%C4%A0Das%C4%A0Wetter%C4%A0ist%C4%A0sch%C3%83%C2%B6n .%C4%A0%C4%8AAssistant:%C4%A0The%C4%A0
an .%C4%A0%C4%8AAssistant:%C4%A0
SI%C4%A0 Einheit%C4%A0fuer%C4%A0
kn app
u tion
eine%C4%A0 Auss
Eigenscha f
re ss
Wahrscheinlichk eit%C4%A0
en .%C4%A0Du%C4%A0
al%C4%A0 eins%C4%A0bleibt%C4%A0
.%C4%A0 Halb
User:%C4%A0F %C3%83%C2%BCge%C4%A0
User:%C4%A0%C3%83%C4%BEbersetze%C4%A0ins%C4%A0Englische:%C4%A0Ich%C4%A0bin%C4%A0m%C3%83%C2%BCde .%C4%A0%C4%8AAssistant:%C4%A0I%C4%A0am%C4%A0ti
Ver fass
?%C4%A0%C4%8AAssistant:%C4%A0Du%C4%A0pr%C3%83%C2%BCf st%C4%A0die%C4%A0
zwei .</s>
Bro w
akt uali
User:%C4%A0Wie%C4%A0 kochst%C4%A0du%C4%A0
nimm st%C4%A0
fai m.</s>
m%C4%A0 in%C4%A0
hal ten%C4%A0
N %C3%83%C2%BCtz
Prei s%C4%A0
en te%C4%A0
li ert%C4%A0
th e%C4%A0d
D au
Her rscher
T ief
ahr .</s>
mali sier
.%C4%A0%C4%8AAssistant:%C4%A0My%C4%A0nam e%C4%A0is%C4%A0
st%C4%A0du%C4%A0die%C4%A0 Ursach
men ge%C4%A0
c l
Sprach e%C4%A0
ck .</s>
Lebew es
.%C4%A0%C4%8AAssistant:%C4%A0J'ai %C4%A0
M erk
en%C4%A0 the%C4%A0window.</s>
entsteh en%C4%A0
Es%C4%A0 gibt%C4%A0
Spa%C3%83%C5%81 .</s>
spektiv e?%C4%A0%C4%8AAssistant:%C4%A0
Kontex t.%C4%A0Dann%C4%A0
Ablauf ?%C4%A0%C4%8AAssistant:%C4%A0Du%C4%A0
A ud
lu ck.</s>
Ein leit
Unterr icht
at en%C4%A0
User:%C4%A0Was%C4%A0t un%C4%A0
.%C4%A0 E
Vokab eln
.%C4%A0%C4%8AAssistant:%C4%A0I%C4%A0need%C4%A0 help.</s>
aus%C4%A0 Deutschland
Or t.</s>
bei%C4%A0%C3%83%C4%A6 nder
Entschuldig ung%C4%A0
Ge w%C3%83%C2%A4hlte%C4%A0
Nieder schlag
for t.</s>
en er%C4%A0
%C4%A0%C3%83%C4%B9%C4%A0 0
Ide en%C4%A0
helf en?</s>
ver st%C3%83%C2%A4nd
nimm st%C4%A0du%C4%A0
schnell %C4%A0
?%C4%A0%C4%8AAssistant:%C4%A0Du%C4%A0 w%C3%83%C2%A4hlst%C4%A0
Elektr onen%C4%A0
ier e%C4%A0die%C4%A0
User:%C4%A0%C3%83%C4%BEbersetze%C4%A0ins%C4%A0Englische:%C4%A0Ich%C4%A0bin%C4%A0m%C3%83%C2%BCde.%C4%A0%C4%8AAssistant:%C4%A0I%C4%A0am%C4%A0ti red
User:%C4%A0Wie%C4%A0 beschreib
Aus wert
entfern st%C4%A0du%C4%A0
ha t.</s>
Zeiten%C4%A0 ein.</s>
all gem
sich er?%C4%A0%C4%8AAssistant:%C4%A0Du%C4%A0
P lu
wiederhol e%C4%A0
besteh t%C4%A0aus%C4%A0
Elem ent
en?%C4%A0%C4%8AAssistant:%C4%A0Du%C4%A0 frag
D uf
hlor op
we cken.</s>
b un
e ter
0. 7
10,%C4%A0dann%C4%A0 +
2 .%C4%A0Dann%C4%A0
Stich wor
.%C4%A0%C4%8AAssistant:%C4%A0My%C4%A0name%C4%A0is%C4%A0 Alex.</s>
Qu elle
Meer es
einfach ?%C4%A0%C4%8AAssistant:%C4%A0
tiv %C4%A0
Subje kt%C4%A0
User:%C4%A0Loese%C4%A0 x
ungen?%C4%A0%C4%8AAssistant:%C4%A0Du%C4%A0 nutzt%C4%A0
ni ce.</s>
be komm
Zugriff .</s>
h%C3%83%C2%A4ltst%C4%A0du%C4%A0sie%C4%A0 ein.</s>
K%C3%83%C2%B6n ig.</s>
se hr
ter n
Mu sik
.%C4%A0Dann%C4%A0 gibst%C4%A0du%C4%A0
E rei
appelle%C4%A0 Alex.</s>
uvre%C4%A0la%C4%A0 f
d ent%C4%A0
l%C3%83%C2%A4 tz
User:%C4%A0Warum%C4%A0 ist%C4%A0
class List
User:%C4%A0Was%C4%A0ist%C4%A0 F
?%C4%A0%C4%8AAssistant:%C4%A0L eise%C4%A0
Komm un
User:%C4%A0Was%C4%A0ist%C4%A0eine%C4%A0 Monarch
Pri orit
o ge%C4%A0
verstehe%C4%A0nicht.%C4%A0%C4%8AAssistant:%C4%A0I%C4%A0do%C4%A0 no
.%C4%A0%C4%8AAssistant:%C4%A0 Au
ern ,%C4%A0
User:%C4%A0Wie%C4%A0be ende
s%C4%A0 sind%C4%A0
ra ft%C4%A0
P ark
Ka teg
sich .</s>
K amera%C4%A0
g ern%C4%A0
berhaupt?%C4%A0%C4%8AAssistant:%C4%A0H%C3%83%C2%B6 chste%C4%A0
.%C4%A0Dann%C4%A0 %C3%83%C2%BCber
neu tr
M ehr%C4%A0
sortier st%C4%A0nach%C4%A0
Jack e%C4%A0
on ne%C4%A0
J ahreszeit
Kateg ori
Ma sch
20 0
ge wa
Einf ach%C4%A0
) %C4%A0%C4%8AAssistant:%C4%A0
ander es%C4%A0
.%C4%A0D arum%C4%A0
ko mp
ge stell
%C4%A0d ank
F%C3%83%C2%BC r%C4%A0
User:%C4%A0%C3%83%C4%BEbersetze%C4%A0ins%C4%A0Englische:%C4%A0Wo%C4%A0 ist%C4%A0die%C4%A0
Zu stand
ih n.</s>
beschreib t%C4%A0die%C4%A0
5 6
le ?%C4%A0%C4%8AAssistant:%C4%A0Du%C4%A0
1 </s>
,%C4%A0w ir%C4%A0
%C3%83%C4%A6 quator
pass end
Grenz en.</s>
M om
Ergebniss e.%C4%A0Dann%C4%A0
lei te
li ter
En d
Spr %C3%83%C2%BCn
User:%C4%A0%C3%83%C4%BEbersetze%C4%A0ins%C4%A0Franz%C3%83%C2%B6sische:%C4%A0Viel%C4%A0Erfolg.%C4%A0%C4%8AAssistant:%C4%A0Bonne%C4%A0 chance.</s>
User:%C4%A0%C3%83%C4%BEbersetze%C4%A0ins%C4%A0Englische:%C4%A0Kannst%C4%A0du%C4%A0helfen.%C4%A0%C4%8AAssistant:%C4%A0 Can%C4%A0you%C4%A0help.</s>
Geb ie
St%C3%83%C2%A4d te
F ant
mal .</s>
En ergi
Obje kt
kon sist
?%C4%A0%C4%8AAssistant:%C4%A0 Sie%C4%A0
Aus blick
at ur%C4%A0
ap prends%C4%A0
%C4%A0=%C4%A0 9.</s>
Afrika .%C4%A0Sehr%C4%A0
end s.</s>
Foku s.</s>
br ich
logi sch
F%C3%83%C2%BC ll
Beding ung.</s>
r und
Fel der
sie ben.</s>
ss er%C4%A0
Meil enstein
te s.</s>
pl ai
pf lanz
.%C4%A0%C4%8AAssistant:%C4%A0 Al
a de?%C4%A0%C4%8AAssistant:%C4%A0
.%C4%A0M al%C4%A0eins%C4%A0bleibt%C4%A0
z e%C4%A0
Z w
Weg e%C4%A0
User:%C4%A0Wie%C4%A0 sortierst%C4%A0du%C4%A0
in%C4%A0 einem%C4%A0
e%C4%A0 ich
er le
zw anz
?%C4%A0%C4%8AAssistant:%C4%A0 K
kontrolli erst%C4%A0du%C4%A0
User:%C4%A0Wie%C4%A0 minimierst%C4%A0du%C4%A0
in k
B et
K rei
K aiser
k ur
Begriff e%C4%A0
sch er%C4%A0
Energi e.</s>
Bun des
H under
N%C3%83%C2%BCtz liche%C4%A0
F er
amer ik
User:%C4%A0 0.
t ,%C4%A0d
%C4%A0besoin %C4%A0d
startest%C4%A0 bei%C4%A0n
re .%C4%A0
.%C4%A0%C4%8AAssistant:%C4%A0Je%C4%A0 vi
com prends%C4%A0
User:%C4%A0%C3%83%C4%BEbersetze%C4%A0ins%C4%A0Franz%C3%83%C2%B6sische:%C4%A0Das%C4%A0 Wetter%C4%A0ist%C4%A0sch%C3%83%C2%B6n.%C4%A0%C4%8AAssistant:%C4%A0Il%C4%A0
User:%C4%A0%C3%83%C4%BEbersetze%C4%A0ins%C4%A0Englische:%C4%A0Ich%C4%A0habe%C4%A0eine%C4%A0Frage .%C4%A0%C4%8AAssistant:%C4%A0I%C4%A0have%C4%A0a%C4%A0question.</s>
Ab haeng
e und
zu stand
tr ><
fatig u
C O
Me tr
zeit en?%C4%A0%C4%8AAssistant:%C4%A0Du%C4%A0
am%C4%A0 Ab
w %C3%83%C2%BCr
Luf t.</s>
J u
lang sam.</s>
defin iert%C4%A0
wird %C4%A0durch%C4%A0
in%C4%A0 Berlin
lich%C4%A0 bleib
Mus k
ar y.</s>
weg en%C4%A0
lei ten%C4%A0
Merk mal
See%C4%A0 you%C4%A0
pr%C3%83%C2%BCf en.%C4%A0
Bus%C4%A0 kommt%C4%A0
User:%C4%A01 6
form en.%C4%A0
Ursach e%C4%A0und%C4%A0Wirk
sa gen%C4%A0
H ol
s%C4%A0il%C4%A0te%C4%A0 plai
er%C4%A0 aus%C4%A0
t%C4%A0 aus
so fort.</s>
eine%C4%A0 klare%C4%A0
User:%C4%A0Wo%C4%A0lieg t%C4%A0die%C4%A0
Fer me%C4%A0la%C4%A0
se ?%C4%A0%C4%8AAssistant:%C4%A0Du%C4%A0
S%C3%83%C2%BCd amerik
%C4%A0 c
.%C4%A0V ier
User:%C4%A0%C3%83%C4%BEbersetze%C4%A0ins%C4%A0Englische:%C4%A0Guten%C4%A0Morgen.%C4%A0%C4%8AAssistant:%C4%A0 Good%C4%A0morn
%C4%A0%C4%8AAssistant:%C4%A0 5</s>
ra sch
hlorop hy
Pa ar
WLA N
sch%C3%83%C2%A4tz t%C4%A0du%C4%A0
User:%C4%A0%C3%83%C4%BEbersetze%C4%A0ins%C4%A0Englische:%C4%A0Ich%C4%A0hab e%C4%A0Hunger.%C4%A0%C4%8AAssistant:%C4%A0I%C4%A0am%C4%A0
t%C4%A0 werden.</s>
i hr
fehl er?%C4%A0%C4%8AAssistant:%C4%A0Du%C4%A0
libr ary.</s>
c c
t oday.</s>
User:%C4%A0 Ver
t hat.</s>
hei%C3%83%C5%81e%C4%A0Alex .%C4%A0%C4%8AAssistant:%C4%A0My%C4%A0name%C4%A0is%C4%A0Alex.</s>
O ut
P lausi
eich er
f euch
0 %C4%A0%C3%83%C2%B7%C4%A0
riech t%C4%A0
Ziel e.</s>
the%C4%A0d o
%C3%83 %C2%A7
User:%C4%A0%C3%83%C4%BEbersetze%C4%A0ins%C4%A0Franz%C3%83%C2%B6sische:%C4%A0Ich%C4%A0 verstehe%C4%A0nicht.%C4%A0%C4%8AAssistant:%C4%A0Je%C4%A0ne%C4%A0
at e%C4%A0
e%C4%A0 Bro
ath er%C4%A0
Leben s
Paus en%C4%A0
ss anc
erzeu g
%C4%A0-%C4%A0 5%C4%A0=%C4%A0
Sch wei
User:%C4%A0Wer%C4%A0war%C4%A0 K
.%C4%A0%C4%8AAssistant:%C4%A0J %C4%A0%C3%83%C2%A9
ul ar
M iss
we ather%C4%A0
Grupp en.</s>
erwarte te%C4%A0
Zy kl
den ti
lit %C3%83%C2%A4t?%C4%A0%C4%8AAssistant:%C4%A0Du%C4%A0
ss en%C4%A0
10 %C4%A0=%C4%A0
Pr%C3%83%C2%A4 sent
a%C4%A0 ist%C4%A0
Hol z
s '
lief ern%C4%A0
w%C3%83%C2%B6rter .%C4%A0Dann%C4%A0
. 5</s>
e?%C4%A0%C4%8AAssistant:%C4%A0Du%C4%A0 schreibst%C4%A0
Recy cl
N umm
ssanc e?%C4%A0%C4%8AAssistant:%C4%A0
Euro .%C4%A0
ein ander
%C4%A0-%C4%A0 5
Sch werk
el. classList
b ie
w %C3%83%C2%A4rm
%C4%A0d ich%C4%A0
en.%C4%A0 G
User:%C4%A0%C3%83%C4%BEbersetze%C4%A0ins%C4%A0Franz%C3%83%C2%B6sische:%C4%A0Ich%C4%A0verstehe%C4%A0nicht.%C4%A0%C4%8AAssistant:%C4%A0Je%C4%A0ne%C4%A0 comprends%C4%A0
Bu g
Ger%C3%83%C2%A4 u
It ali
in %C4%A0die%C4%A0
te%C4%A0d ie%C4%A0
ber ech
speich erst%C4%A0
gleich e%C4%A0
In st
%C4%A0da s?%C4%A0%C4%8AAssistant:%C4%A0
,%C4%A0wie%C4%A0 rechnest%C4%A0du
fait%C4%A0be au.</s>
User:%C4%A0Wie%C4%A0mach st%C4%A0du%C4%A0
startest%C4%A0bei%C4%A0n ull.%C4%A0Dann%C4%A0
?%C4%A0%C4%8AAssistant:%C4%A0Du%C4%A0 sag
viel .</s>
si ert%C4%A0
User:%C4%A0Wie%C4%A0ver bess
lichk eit
?%C4%A0%C4%8AAssistant:%C4%A0Du%C4%A0 leg
sauber .</s>
en ?%C4%A0%C4%8AAssistant:%C4%A0Du%C4%A0definierst%C4%A0
d r
Ger%C3%83%C2%A4 t%C4%A0
%C3%83%C2%A4n k
Te e.</s>
steig t.</s>
.%C4%A0El f%C4%A0
User:%C4%A0Was%C4%A0ist%C4%A0eine%C4%A0Monarch ie
schuetz t%C4%A0
User:%C4%A0Was%C4%A0ist%C4%A0die%C4%A0 EU
%C4%A0d es%C4%A0
se ud
W%C3%83%C2%B6rter .%C4%A0
User:%C4%A0%C3%83%C4%BEbersetze%C4%A0ins%C4%A0Franz%C3%83%C2%B6sische:%C4%A0 Schlie%C3%83%C5%81e%C4%A0die%C4%A0T%C3%83%C2%BCr
%C3%83%C2%BCn f%C4%A0
l%C3%83%C2%B6 st%C4%A0
ing s%C4%A0
User:%C4%A0%C3%83%C4%BEbersetze%C4%A0ins%C4%A0Englische:%C4%A0Ich%C4%A0brauche%C4%A0Hilfe .%C4%A0%C4%8AAssistant:%C4%A0I%C4%A0need%C4%A0help.</s>
Ab stra
.%C4%A0%C4%8AAssistant:%C4%A0I%C4%A0d r
il t%C4%A0
berhaupt?%C4%A0%C4%8AAssistant:%C4%A0H%C3%83%C2%B6chste%C4%A0 Person%C4%A0im%C4%A0
trin k
- Schleif
15 %C4%A0
for%C4%A0 the%C4%A0
.%C4%A0%C4%8AAssistant:%C4%A0 Ferme%C4%A0la%C4%A0
ich t.%C4%A0
Reg eln.%C4%A0
abei .</s>
.%C4%A0Neun er%C4%A0in%C4%A0
Re flex
en.%C4%A0 Teil
Renai ssance?%C4%A0%C4%8AAssistant:%C4%A0
User:%C4%A0Wie%C4%A0 rechnest%C4%A0du%C4%A0
st%C4%A0 zuerst.%C4%A0Dann%C4%A0
olk sabstimm
Stat us
ein deu
Or te%C4%A0
in%C4%A0 HTML.%C4%A0%C4%8AAssistant:%C4%A0Nutze%C4%A0<
,%C4%A0Ergebnis?%C4%A0%C4%8AAssistant:%C4%A0 36
(' aktiv');</s>
ne t%C4%A0
ok ing%C4%A0
p lease.</s>
.%C4%A0Sechser %C4%A0in%C4%A0
ant e%C4%A0
ier t%C4%A0die%C4%A0
%C4%A0%C3%83%C2%B7%C4%A02 %C4%A0=%C4%A0
v ent
00 </s>
Sahar a?%C4%A0%C4%8AAssistant:%C4%A0
%C3%83%C2%A4hn liche%C4%A0
Pr%C3%83%C2%A4 sen
.%C4%A0%C4%8AAssistant:%C4%A0M erci
0 .%C4%A0Null%C4%A0
al le
User:%C4%A0Wie%C4%A0verbess erst%C4%A0du%C4%A0
Tra in
User:%C4%A0Wie%C4%A0 erstell
?%C4%A0%C4%8AAssistant:%C4%A0J a
Re d
Sti f
%C4%A0%C4%8AAssistant:%C4%A01 /2</s>
.%C4%A0S ieben
sin d
ma zonas?%C4%A0%C4%8AAssistant:%C4%A0
User:%C4%A0Fasse%C4%A0kurz%C4%A0zusammen:%C4%A0 Der%C4%A0Text%C4%A0
I ch
re al
Fr eund
%C3%83%C4%BEber g%C3%83%C2%A4n
h%C3%83%C2%B6r st%C4%A0
e au.</s>
en?%C4%A0%C4%8AAssistant:%C4%A0W enige%C4%A0
Medi an%C4%A0
Szen ari
b er%C4%A0
mp uter%C4%A0s
T O
.%C4%A0%C4%8AAssistant:%C4%A0Je%C4%A0 bo
12 %C4%A0
F o
al le.</s>
Bedeut ung%C4%A0
gut er%C4%A0
Staat enb
Wer t%C4%A0
Rhyth mus
6%C4%A0 *%C4%A0
Entscheid ung.</s>
off enen%C4%A0
.%C4%A0Du%C4%A0 add
tex te?%C4%A0%C4%8AAssistant:%C4%A0
neu e%C4%A0
ist %C4%A0das?%C4%A0%C4%8AAssistant:%C4%A0
en.%C4%A0Sie%C4%A0 zeigt%C4%A0
Wer te?%C4%A0%C4%8AAssistant:%C4%A0Du%C4%A0
ungen%C4%A0 im%C4%A0
Str a%C3%83%C5%81
f ra
Comm ent%C4%A0
Erei g
Ge mein
Mon d%C4%A0
!%C4%A0Wie%C4%A0 kann%C4%A0
Ich -
ah r%C4%A0
User:%C4%A0Wie%C4%A0schreib st%C4%A0du%C4%A0
N A
m eide%C4%A0
reich en.</s>
Stand ard
L ad
Ro ad
In%C4%A0 S%C3%83%C2%BCdamerik
%C4%A0-%C4%A0 2
the%C4%A0do or.</s>
S ystem
.%C4%A0%C4%8AAssistant:%C4%A0 G
Haup t
Star te%C4%A0
f%C3%83%C2%BC hl
Gruppenarbei t%C4%A0
und %C4%A0d
Engli sch
an legen.%C4%A0
30 ?%C4%A0%C4%8AAssistant:%C4%A0Ja.%C4%A0
li vr
User:%C4%A0%C3%83%C4%BEbersetze%C4%A0ins%C4%A0Englische:%C4%A0Ich%C4%A0 verstehe%C4%A0nicht.%C4%A0%C4%8AAssistant:%C4%A0I%C4%A0do%C4%A0no
fall en.</s>
Ak k
en%C4%A0sich .%C4%A0
W arte
mit%C4%A0 einer%C4%A0
User:%C4%A0Wie%C4%A0schreibe%C4%A0ich%C4%A0 Beschreibungen%C4%A0
Synony m
Her z
i on
Start%C4%A0und%C4%A0 Ende.%C4%A0Dann%C4%A0
Zu st%C3%83%C2%A4n
Kap itel
m itt
.%C4%A0%C4%8AAssistant:%C4%A0T hank%C4%A0
.%C4%A0%C4%8AAssistant:%C4%A0I%C4%A0dr in
Z ell
mo der
User:%C4%A0%C3%83%C4%BEbersetze%C4%A0ins%C4%A0Englische:%C4%A0Ich%C4%A0bin%C4%A0m%C3%83%C2%BCde.%C4%A0%C4%8AAssistant:%C4%A0I%C4%A0am%C4%A0tired .</s>
m%C4%A0 mit%C4%A0
User:%C4%A0%C3%83%C4%BEbersetze%C4%A0ins%C4%A0Franz%C3%83%C2%B6sische:%C4%A0Schlie%C3%83%C5%81e%C4%A0die%C4%A0T%C3%83%C2%BCr .%C4%A0%C4%8AAssistant:%C4%A0Ferme%C4%A0la%C4%A0
User:%C4%A0%C3%83%C4%BEbersetze%C4%A0ins%C4%A0Englische:%C4%A0Ich%C4%A0 hei%C3%83%C5%81e%C4%A0Alex.%C4%A0%C4%8AAssistant:%C4%A0My%C4%A0name%C4%A0is%C4%A0Alex.</s>
logi sch.</s>
,%C4%A0Ergebnis?%C4%A0%C4%8AAssistant:%C4%A0 6
op timierst%C4%A0du%C4%A0
User:%C4%A0%C3%83%C4%BEbersetze%C4%A0ins%C4%A0Franz%C3%83%C2%B6sische:%C4%A0Ich%C4%A0hab e%C4%A0eine%C4%A0Frage
et er%C4%A0
al .</s>
ter min
?%C4%A0%C4%8AAssistant:%C4%A0Du%C4%A0 nennst%C4%A0
t en?%C4%A0%C4%8AAssistant:%C4%A0
Erfolg .</s>
Aufgab en%C4%A0
User:%C4%A0Fasse%C4%A0zusammen:%C4%A0Wir%C4%A0 machen%C4%A0
le arn
si g
Reg eln.</s>
er fordert%C4%A0
H ypothese
neh m
Pr%C3%83%C2%A4d ik
Unter schied
w ahr%C4%A0
lose%C4%A0 the%C4%A0door.</s>
Luf t%C4%A0ist%C4%A0
.%C4%A0%C4%8AAssistant:%C4%A0I%C4%A0drin k%C4%A0
S kal
o t.</s>
k .</s>
User:%C4%A0Was%C4%A0ist%C4%A0ein%C4%A0 Staatso
Reg eln
Erkl%C3%83%C2%A4r e%C4%A0
Fortschrit t%C4%A0
,%C4%A0wie%C4%A0viel?%C4%A0%C4%8AAssistant:%C4%A0 20
User:%C4%A0%C3%83%C4%BEbersetze%C4%A0ins%C4%A0Franz%C3%83%C2%B6sische:%C4%A0Ich%C4%A0bin%C4%A0m%C3%83%C2%BCde.%C4%A0%C4%8AAssistant:%C4%A0Je%C4%A0suis%C4%A0 fatigu
User:%C4%A0Wie%C4%A0 valid
Puf f
a%C4%A0 va.</s>
A si
v e.</s>
,%C4%A0schnell ?%C4%A0%C4%8AAssistant:%C4%A0
?%C4%A0%C4%8AAssistant:%C4%A0Du%C4%A0leg st%C4%A0
Klar %C4%A0
lau t.%C4%A0Dann%C4%A0
User:%C4%A0%C3%83%C4%BEbersetze%C4%A0ins%C4%A0Franz%C3%83%C2%B6sische:%C4%A0Guten%C4%A0Morgen.%C4%A0%C4%8AAssistant:%C4%A0Bon jour
unter weg
bedeute t,%C4%A0d
User:%C4%A0%C3%83%C4%BEbersetze%C4%A0ins%C4%A0Englische:%C4%A0Viel%C4%A0Erfolg.%C4%A0%C4%8AAssistant:%C4%A0Good%C4%A0 luck.</s>
h ungry.</s>
.%C4%A0%C4%8AAssistant:%C4%A0 Comment%C4%A0
r uf
weather%C4%A0 is%C4%A0
vor n.</s>
User:%C4%A0Wie%C4%A0fin dest%C4%A0du%C4%A0
K er
Le ist
.%C4%A0Nicht%C4%A0 zu%C4%A0
User:%C4%A0 Eine%C4%A0
lan zen
P seud
ier e.</s>
A mazonas?%C4%A0%C4%8AAssistant:%C4%A0
learn ing%C4%A0
zu%C4%A0 Hau
berhaupt?%C4%A0%C4%8AAssistant:%C4%A0H%C3%83%C2%B6chste%C4%A0Person%C4%A0im%C4%A0 Staat
User:%C4%A0Was%C4%A0ist%C4%A0ein%C4%A0Staatso berhaupt?%C4%A0%C4%8AAssistant:%C4%A0H%C3%83%C2%B6chste%C4%A0Person%C4%A0im%C4%A0Staat
.%C4%A0Drei %C4%A0
s ,%C4%A0
morg en.%C4%A0%C4%8AAssistant:%C4%A0
t,%C4%A0bevor%C4%A0 sie%C4%A0
.%C4%A0Dann%C4%A0 nimmst%C4%A0du%C4%A0
p ut
User:%C4%A0%C3%83%C4%BEbersetze%C4%A0ins%C4%A0Englische:%C4%A0Schlie%C3%83%C5%81e%C4%A0die%C4%A0T%C3%83%C2%BCr.%C4%A0%C4%8AAssistant:%C4%A0C lose%C4%A0the%C4%A0door.</s>
.%C4%A0 Un
User:%C4%A0%C3%83%C4%BEbersetze%C4%A0ins%C4%A0Franz%C3%83%C2%B6sische:%C4%A0Guten%C4%A0Morgen.%C4%A0%C4%8AAssistant:%C4%A0Bonjour .</s>
O p
I D
Lehr er%C4%A0
User:%C4%A0%C3%83%C4%BEbersetze%C4%A0ins%C4%A0Englische:%C4%A0Ich%C4%A0habe%C4%A0Hunger.%C4%A0%C4%8AAssistant:%C4%A0I%C4%A0am%C4%A0 hungry.</s>
protok olli
%C4%A0 *%C4%A0
.%C4%A0Du%C4%A0 pr%C3%83%C2%BCfst%C4%A0
pr od
.%C4%A0 In%C4%A0
Wenn -Dann
.%C4%A0Dann%C4%A0 setzt%C4%A0du%C4%A0
en.%C4%A0 Wiederhol
User:%C4%A0Fasse%C4%A0zusammen:%C4%A0Der%C4%A0 Lehrer%C4%A0
ver kn%C3%83%C2%BCpfst%C4%A0
Geb ir
putz t%C4%A0du%C4%A0
a zier
Pf lanzen
Staate s
Reg el%C4%A0
Team .</s>
Konfli kt%C4%A0
User:%C4%A0Fasse%C4%A0zusammen:%C4%A0Wir%C4%A0 besuch
Phy sik
nach%C4%A0 Nord
punk te.%C4%A0Dann%C4%A0
Wel t.</s>
User:%C4%A0Wer%C4%A0war%C4%A0 G
W ider
Revol ution
.%C4%A0Du%C4%A0 gibst%C4%A0
User:%C4%A0%C3%83%C4%BEbersetze%C4%A0ins%C4%A0Franz%C3%83%C2%B6sische:%C4%A0Ich%C4%A0verstehe%C4%A0nicht.%C4%A0%C4%8AAssistant:%C4%A0Je%C4%A0ne%C4%A0comprends%C4%A0 pas.</s>
analy sierst%C4%A0du%C4%A0
of t.</s>
D ich
Beweg ung%C4%A0
User:%C4%A0%C3%83%C4%BEbersetze%C4%A0ins%C4%A0Englische:%C4%A0 Wie%C4%A0geht%C4%A0es%C4%A0dir
Se tze%C4%A0
20 %C4%A0
a er
.%C4%A0Mal%C4%A0eins%C4%A0bleibt%C4%A0 gleich.</s>
s%C4%A0il%C4%A0te%C4%A0plai t.</s>
/ /
l %C3%83%C2%A4ng
ko m
User:%C4%A0%C3%83%C4%BEbersetze%C4%A0ins%C4%A0Franz%C3%83%C2%B6sische:%C4%A0Ich%C4%A0 hei%C3%83%C5%81e%C4%A0Alex.%C4%A0%C4%8AAssistant:%C4%A0Je%C4%A0
m ess
Sp iel
?%C4%A0%C4%8AAssistant:%C4%A0Ein%C4%A0 Teil
eas y.</s>
weather%C4%A0is%C4%A0 nice.</s>
fa ir
F l%C3%83%C2%A4ch
el st%C4%A0du%C4%A0
Szenari en.</s>
V ir
R ad
User:%C4%A0Wie%C4%A0pr%C3%83%C2%BCfst%C4%A0du%C4%A0 Verst%C3%83%C2%A4nd
Recycl ing
Lin ie%C4%A0
C hlorophy
el.classList .
verm eidest%C4%A0du%C4%A0
e.%C4%A0Dann%C4%A0 pr%C3%83%C2%BCfst%C4%A0du%C4%A0
Meet ing%C4%A0
Wasser%C4%A0 ge
Staatenb und.%C4%A0
ach t%C4%A0
User:%C4%A02 7
uvre%C4%A0la%C4%A0f en
F ak
User:%C4%A0%C3%83%C4%BEbersetze%C4%A0ins%C4%A0Englische:%C4%A0Ich%C4%A0verstehe%C4%A0nicht.%C4%A0%C4%8AAssistant:%C4%A0I%C4%A0do%C4%A0no t%C4%A0understand.</s>
User:%C4%A0Was%C4%A0ist%C4%A0die%C4%A0 Hauptstadt%C4%A0von%C4%A0
r ig
en%C4%A0f%C3%83%C2%BCr%C4%A0 ein%C4%A0
Gesetz e.</s>
Beding ung%C4%A0
trotz dem%C4%A0
Co de
erkenn t%C4%A0
User:%C4%A0%C3%83%C4%BEbersetze%C4%A0ins%C4%A0Englische:%C4%A0Das%C4%A0Wetter%C4%A0ist%C4%A0sch%C3%83%C2%B6n.%C4%A0%C4%8AAssistant:%C4%A0The%C4%A0 weather%C4%A0is%C4%A0nice.</s>
User:%C4%A0%C3%83%C4%BEbersetze%C4%A0ins%C4%A0Englische:%C4%A0Guten%C4%A0Morgen.%C4%A0%C4%8AAssistant:%C4%A0Good%C4%A0morn ing.</s>
l am
e%C4%A0 von%C4%A0
.%C4%A0%C4%8AAssistant:%C4%A0How%C4%A0are%C4%A0 you.</s>
er%C4%A0 pro%C4%A0
.%C4%A0Dann%C4%A0 such
User:%C4%A0Was%C4%A0ist%C4%A0ein%C4%A0Referend um
en.%C4%A0Dann%C4%A0 gibst%C4%A0du%C4%A0
ch er%C4%A0
User:%C4%A0Wie%C4%A0 teil
.%C4%A0Er%C4%A0 wurde%C4%A0
User:%C4%A0%C3%83%C4%BEbersetze%C4%A0ins%C4%A0Englische:%C4%A0Wie%C4%A0geht%C4%A0es%C4%A0dir .%C4%A0%C4%8AAssistant:%C4%A0How%C4%A0are%C4%A0you.</s>
Z eil
ol og
Ver meide%C4%A0
inform ierst%C4%A0du%C4%A0
z%C3%83%C2%A4hl st%C4%A0
Sp eicher
%C4%A0der%C4%A0 Mit
mache%C4%A0H ausaufgab
User:%C4%A0%C3%83%C4%BEbersetze%C4%A0ins%C4%A0Franz%C3%83%C2%B6sische:%C4%A0Das%C4%A0Wetter%C4%A0ist%C4%A0sch%C3%83%C2%B6n.%C4%A0%C4%8AAssistant:%C4%A0Il%C4%A0 fait%C4%A0beau.</s>
Fehler meld
.%C4%A0Dann%C4%A0 speicherst%C4%A0du%C4%A0
igit ale%C4%A0
User:%C4%A0Was%C4%A0ist%C4%A0 Recycling
Ziel .</s>
User:%C4%A0%C3%83%C4%BEbersetze%C4%A0ins%C4%A0Franz%C3%83%C2%B6sische:%C4%A0Ich%C4%A0hab e%C4%A0Hunger
P unkt
User:%C4%A0Wie%C4%A0valid ierst%C4%A0du%C4%A0
List e%C4%A0
e de%C4%A0
l%C3%83%C2%A4 s
User:%C4%A0%C3%83%C4%BEbersetze%C4%A0ins%C4%A0Franz%C3%83%C2%B6sische:%C4%A0Schlie%C3%83%C5%81e%C4%A0die%C4%A0T%C3%83%C2%BCr.%C4%A0%C4%8AAssistant:%C4%A0Ferme%C4%A0la%C4%A0 porte.</s>
oh e%C4%A0
Termin e.</s>
ein heit
t .%C4%A0Das%C4%A0
User:%C4%A0%C3%83%C4%BEbersetze%C4%A0ins%C4%A0Franz%C3%83%C2%B6sische:%C4%A0Wie%C4%A0geht%C4%A0es%C4%A0dir .%C4%A0%C4%8AAssistant:%C4%A0Comment%C4%A0
pr %C3%83%C2%A4
or t%C4%A0
m e
tick et%C4%A0
User:%C4%A0Was%C4%A0ist%C4%A0eine%C4%A0 Quelle%C4%A0
JSON %C4%A0
%C4%A0%C3%83%C2%B7%C4%A0 9,%C4%A0wie%C4%A0viel?%C4%A0%C4%8AAssistant:%C4%A0
liches%C4%A0 Git
fal tet.</s>
k eit
P l
Er de.</s>
.%C4%A0%C4%8AAssistant:%C4%A0 Mat
frei e%C4%A0
Gra v
ie%C4%A0viel%C4%A0 kostet%C4%A0das
?%C4%A0%C4%8AAssistant:%C4%A0Ein%C4%A0 Bild%C4%A0
.%C4%A0Drei er%C4%A0in%C4%A0
ser v
T on
.%C4%A0%C4%8AAssistant:%C4%A0Fr ische%C4%A0
f%C4%A0 gut
nach%C4%A0Nord en.</s>
la%C4%A0 g
at enz
ali sier
hi ?%C4%A0%C4%8AAssistant:%C4%A0Ein%C4%A0
einen%C4%A0 Tim
sind%C4%A0 h
Fa zi
y%C4%A0 so
bar er%C4%A0
.%C4%A0Danach%C4%A0 fal
haben%C4%A0Zeit .%C4%A0%C4%8AAssistant:%C4%A0We%C4%A0have%C4%A0
Ticket s%C4%A0sind%C4%A0
User:%C4%A0Wo%C4%A0liegt%C4%A0der%C4%A0 Nil
User:%C4%A0Wie%C4%A0train ierst%C4%A0du%C4%A0
User:%C4%A0Warum%C4%A0 w
fi x
%C2%BB te%C4%A0
%C3%83%C2%A7 a%C4%A0va.</s>
ft .%C4%A0Der%C4%A0
bleibt%C4%A0 an
arr .
Viel%C4%A0Spa%C3%83%C5%81 .%C4%A0%C4%8AAssistant:%C4%A0H
Form ular
JSON .
S he%C4%A0
de t
User:%C4%A0Wie%C4%A0schreibe%C4%A0ich%C4%A0eine%C4%A0Szen e%C4%A0
User:%C4%A0%C3%83%C4%BEbersetze%C4%A0ins%C4%A0Englische:%C4%A0 Wie%C4%A0sp%C3%83%C2%A4t%C4%A0ist%C4%A0es
.%C4%A0%C4%8AAssistant:%C4%A0Today%C4%A0is%C4%A0 Mond
Pers onen%C4%A0
Beispiel .</s>
%C3%83%C2%A8 me.</s>
li ta
elle%C4%A0 Bilder
K no
Meeres h%C3%83%C2%B6
User:%C4%A02 /
wa ert
?%C4%A0%C4%8AAssistant:%C4%A0In%C4%A0 Afrik
6 .</s>
Les en
l%C4%A0 eau.</s>
automati sch.</s>
an%C4%A0 Alltag
nach%C4%A0 ob
Ad jek
Ger %C3%83%C2%BCch
st%C4%A0 im%C4%A0
in for
Abl enk
User:%C4%A0Was%C4%A0ist%C4%A0eine%C4%A0 Dikt
sch%C3%83%C2%BCtzen%C4%A0 Rechte.</s>
si muli
este%C4%A0 Salz
?%C4%A0%C4%8AAssistant:%C4%A0M asse%C4%A0
.%C4%A0%C4%8AAssistant:%C4%A0H e%C4%A0
User:%C4%A0Wie%C4%A0lie st%C4%A0du%C4%A0
%C3%83%C4%A6quator ?%C4%A0%C4%8AAssistant:%C4%A0
User:%C4%A0Warum%C4%A0 sind%C4%A0
Kurz e,%C4%A0
mel dest%C4%A0du%C4%A0
schreib e%C4%A0
%C3%83%C2%A4 sche
in%C4%A0 B
m on
ti mm
.%C4%A0S umm
m er
ungen%C4%A0 vor?%C4%A0%C4%8AAssistant:%C4%A0Du%C4%A0
Reak tion%C4%A0
ar en%C4%A0f%C3%83%C2%BCr%C4%A0ein%C4%A0
en%C4%A0 ko
tur n%C4%A0
ho eh
Fo li
Rech n
p %C3%83%C2%BCnkt
%C4%A0ist%C4%A0 al
User:%C4%A0Wie%C4%A0schreibe%C4%A0ich%C4%A0 Sch
User:%C4%A0 Kannst%C4%A0du%C4%A0
per%C4%A0 JS.%C4%A0%C4%8AAssistant:%C4%A0
.%C4%A0%C4%8AAssistant:%C4%A0P as
,%C4%A0wie%C4%A0viel?%C4%A0%C4%8AAssistant:%C4%A0 8
yste m.</s>
Wasser .%C4%A0Dann%C4%A0
Ergebnis%C4%A0 ist%C4%A0
.%C4%A0%C4%8AAssistant:%C4%A0 Rucksack
Ein gabe
asi s%C4%A0
t%C4%A0d urch
Zeit en.</s>
po si
ungen?%C4%A0%C4%8AAssistant:%C4%A0Du%C4%A0 notierst%C4%A0
ung%C4%A0von%C4%A0 Zahl
w rit
.%C4%A0 Erst%C4%A0
en?%C4%A0%C4%8AAssistant:%C4%A0 P
.%C4%A0Elf%C4%A0 abziehen.</s>
Er%C4%A0liest%C4%A0 ein%C4%A0Buch
/ 4
ab le
gro b
be einfluss
2 3.%C4%A0
livr e.</s>
Tropf en%C4%A0
gro%C3%83%C5%81e%C4%A0Land masse.%C4%A0
Ju li
?%C4%A0%C4%8AAssistant:%C4%A0P rei
?%C4%A0%C4%8AAssistant:%C4%A0Eine%C4%A0Person%C4%A0 reg
u%C4%A0 hab
%C4%A0dich%C4%A0 bitte.%C4%A0%C4%8AAssistant:%C4%A0
k au
en rech
e tr
.%C4%A0 Orte%C4%A0
en%C4%A0 jetz
ter .%C4%A0
!%C4%A0%C4%8AAssistant:%C4%A0 H
sches%C4%A0 Bro
) %C4%A0%C3%83%C4%B9%C4%A02
ons%C4%A0 au
mal e%C4%A0ein%C4%A0
h ohe%C4%A0
machst%C4%A0du%C4%A0 bei%C4%A0
User:%C4%A0Loese%C4%A0 3
ha euf
.%C4%A0%C4%8AAssistant:%C4%A0O%C3%83%C2%B9%C4%A0est%C4%A0 la%C4%A0g
k ann.</s>
ap o
e%C4%A0ich%C4%A0 einen%C4%A0
zwei er%C4%A0
e%C4%A0 Aufgaben%C4%A0
frag st%C4%A0nach%C4%A0
kon se
E mp
is uali
.%C4%A0Er%C4%A0 ist%C4%A0sehr%C4%A0
en.%C4%A0Ein%C4%A0 Satz%C4%A0
Geschich te%C4%A0
ig ur
?%C4%A0%C4%8AAssistant:%C4%A0Du%C4%A0 gibst%C4%A0
.%C4%A0Dann%C4%A0h%C3%83%C2%A4ltst%C4%A0du%C4%A0 Zeiten%C4%A0ein.</s>
Begriff e.%C4%A0Dann%C4%A0
time%C4%A0 is%C4%A0
gut ?%C4%A0%C4%8AAssistant:%C4%A0
samm elst%C4%A0du%C4%A0
User:%C4%A0Was%C4%A0ist%C4%A0ein%C4%A0Referendum ?%C4%A0%C4%8AAssistant:%C4%A0V
Con t
e.%C4%A0 Er%C4%A0
al en%C4%A0
lebend ig
S h
ek tiere%C4%A0
samm eln.</s>
auerstoff %C4%A0
Ste h%C4%A0
steh en%C4%A0im%C4%A0
Bel eg
st en.</s>
C ase%C4%A0
Ab weich
lo est%C4%A0
st%C4%A0die%C4%A0 Zeit.%C4%A0Dann%C4%A0
d ('
User:%C4%A0Wie%C4%A0schreibe%C4%A0ich%C4%A0 F
haeuf ig
Metr ik
p%C3%83%C2%BCnkt lich
bleibt%C4%A0an .%C4%A0%C4%8AAssistant:%C4%A0O
Time out
F %C3%83%C2%A4h
co %C3%83
User:%C4%A0Wie%C4%A0schreibe%C4%A0ich%C4%A0P it
?%C4%A0%C4%8AAssistant:%C4%A0Ein%C4%A0 Re
W erk
User:%C4%A0%C3%83%C4%BEbersetze%C4%A0ins%C4%A0Franz%C3%83%C2%B6sische:%C4%A0Das%C4%A0ist%C4%A0 einfach
einen%C4%A0 Ablauf?%C4%A0%C4%8AAssistant:%C4%A0Du%C4%A0
w o
%C3%83%C2%A4nder st%C4%A0du%C4%A0
si b
User:%C4%A0Wie%C4%A0 sind%C4%A0
,%C4%A0Ergebnis?%C4%A0%C4%8AAssistant:%C4%A0 24
Zusammenfass ung?%C4%A0%C4%8AAssistant:%C4%A0
zi mmer
ch en
G en
.%C4%A0%C4%8AAssistant:%C4%A0I%C4%A0study%C4%A0 co
Zeit en.%C4%A0Dann%C4%A0
ultipli zier
.%C4%A0Neun er
b ru
L icht.</s>
In str
A %C4%A0
t%C4%A0 nicht.</s>
7%C4%A0+%C4%A0 2
User:%C4%A0Wie%C4%A0gehst%C4%A0du%C4%A0bei%C4%A0 Mehr
kurz.%C4%A0Dann%C4%A0 ver
en?%C4%A0%C4%8AAssistant:%C4%A0 Un
iss verst%C3%83%C2%A4nd
K ol
User:%C4%A0Fasse%C4%A0kurz%C4%A0zusammen:%C4%A0Ein%C4%A0Bericht%C4%A0%C3%83%C2%BCber %C4%A0den%C4%A0
Komp ass
Berg %C4%A0mit%C4%A0
?%C4%A0%C4%8AAssistant:%C4%A0J ede%C4%A0
or malisier
ier te%C4%A0
6 %C4%A0ist%C4%A0
G et
alismus?%C4%A0%C4%8AAssistant:%C4%A0 Macht%C4%A0
Y o
e fin
4 4
tes%C4%A0 o
pr%C3%83%C2%BCf st%C4%A0du%C4%A0die%C4%A0
en si
timm t.</s>
p s
.%C4%A0%C4%8AAssistant:%C4%A0J'%C3%83%C2%A9 tudie%C4%A0
e .%C4%A0Du%C4%A0
bedeute t%C4%A0d
Jahr .</s>
nah t,%C4%A0
%C3%83%C2%A4rm ender%C4%A0
und%C4%A0 nachvollzieh
leit ung?%C4%A0%C4%8AAssistant:%C4%A0Du%C4%A0
sind %C4%A0die%C4%A0
User:%C4%A04 0
*x %C4%A0=%C4%A0
Inf l
User:%C4%A0Was%C4%A0ist%C4%A0eine%C4%A0 Verfass
Schrit ten.</s>
L eit
j ou
Die%C4%A0 %C3%83%C4%BEbung%C4%A0ist%C4%A0
K enn
nach .</s>
%C4%A0-%C4%A0 3%C4%A0=%C4%A0
ge s.</s>
?%C4%A0%C4%8AAssistant:%C4%A0 U
pro%C4%A0 Tag
%C3%83%C4%A6quator?%C4%A0%C4%8AAssistant:%C4%A0 In
Plan%C4%A0 B
back e%C4%A0Bro
Aufwand .</s>
er%C4%A0aus%C4%A0 In
gewa schen%C4%A0
ich%C4%A0 helfen?</s>
o tiz
les en.</s>
Akk u%C4%A0
t s?%C4%A0%C4%8AAssistant:%C4%A0
ern%C4%A0 um?%C4%A0%C4%8AAssistant:%C4%A0Du%C4%A0
t%C4%A0 ein%C4%A0
wel com
w ahr.</s>
?%C4%A0%C4%8AAssistant:%C4%A0 Zwei%C4%A0
a .%C4%A0Dann%C4%A0
Bit te.%C4%A0%C4%8AAssistant:%C4%A0
amera%C4%A0 an.</s>
User:%C4%A0Wie%C4%A0funktion ieren%C4%A0
T age
.%C4%A0%C4%8AAssistant:%C4%A0J%C4%A0 apprends%C4%A0
a t%C4%A0in%C4%A0
User:%C4%A0 Bau
urch .%C4%A0Dann%C4%A0
einf lu
Lern mat
e%C4%A0 F
Kleine%C4%A0 Schrit
genau e%C4%A0
Fr ist%C4%A0
G ang
aus%C4%A0Deutschland .%C4%A0%C4%8AAssistant:%C4%A0I%C4%A0am%C4%A0
Arra y
gesch %C3%83%C2%BCtz
%C3%83%C2%A4r ke%C4%A0
ie ?%C4%A0%C4%8AAssistant:%C4%A0Eine%C4%A0
w ie
0. 5%C4%A0%C4%8AAssistant:%C4%A0
User:%C4%A0Fasse%C4%A0zusammen:%C4%A0Ich%C4%A0 schreibe%C4%A0eine%C4%A0E%C4%A0Mail
trinke%C4%A0Te e.%C4%A0Er%C4%A0
%C3%83%C2%B6r t%C4%A0
T u%C4%A0
en?%C4%A0%C4%8AAssistant:%C4%A0 F
en%C4%A0 st
ich t%C4%A0d
Stund e%C4%A0
klein .%C4%A0%C4%8AAssistant:%C4%A0
Da mpf
Aus gabe
aktuali sierst%C4%A0du%C4%A0
tive%C4%A0 La
e?%C4%A0%C4%8AAssistant:%C4%A0Du%C4%A0 sammelst%C4%A0
haben%C4%A0 Unterricht
te st%C4%A0du%C4%A0eine%C4%A0
off ene%C4%A0
Wieder h
Anfang s
nam e
ander e%C4%A0
%C3%83%C2%B6 pf
User:%C4%A0Wie%C4%A0lernst%C4%A0du%C4%A0 aus%C4%A0
k%C4%A0 w%C3%83%C2%A4hl
w%C3%83%C2%A4hl st%C4%A0du%C4%A0die%C4%A0
e ur
.%C4%A0 An
Rechte%C4%A0 f%C3%83%C2%BCr%C4%A0
rieg ?%C4%A0%C4%8AAssistant:%C4%A0
User:%C4%A0%C3%83%C4%BEbersetze%C4%A0ins%C4%A0Franz%C3%83%C2%B6sische:%C4%A0Ich%C4%A0habe%C4%A0eine%C4%A0Frage .%C4%A0%C4%8AAssistant:%C4%A0J%C4%A0ai%C4%A0
e er-
Supp e.</s>
User:%C4%A0Wie%C4%A0planst%C4%A0du%C4%A0 Wiederholung%C4%A0
t%C4%A0gut .%C4%A0%C4%8AAssistant:%C4%A0
?%C4%A0%C4%8AAssistant:%C4%A0Ein%C4%A0 T
Zeitd ruck%C4%A0
) %C4%A0%C3%83%C2%B7%C4%A02
ation ?%C4%A0%C4%8AAssistant:%C4%A0Du%C4%A0definierst%C4%A0
La v
erkl%C3%83%C2%A4rt%C4%A0 langsam.%C4%A0
ih r%C4%A0
9,%C4%A0wie%C4%A0viel?%C4%A0%C4%8AAssistant:%C4%A0 20
kri p
L an
ema %C4%A0
L%C3%83%C2%A4nge%C4%A0 und%C4%A0
or tier
fr%C3%83%C2%BCh .</s>
stark es%C4%A0
%C4%A0-%C4%A06 )
Figur en
?%C4%A0%C4%8AAssistant:%C4%A0 Menschen%C4%A0
Element%C4%A0 bei%C4%A0
korre kt%C4%A0
h ref
K n
l %C3%83%C2%A8me.</s>
Nom en?%C4%A0%C4%8AAssistant:%C4%A0
,%C4%A0passt%C4%A0 2
t%C4%A0nicht .%C4%A0%C4%8AAssistant:%C4%A0
auf %C4%A0die%C4%A0
Kin der%C4%A0
l achten.</s>
en.%C4%A0D ann
For ma
ichtig keit
User:%C4%A0Was%C4%A0ist%C4%A0ein%C4%A0 Experiment
en%C4%A0 Z
Algorith mus?%C4%A0%C4%8AAssistant:%C4%A0
.%C4%A0Der%C4%A0 Bal
.%C4%A0%C4%8AAssistant:%C4%A0O bst
User:%C4%A0Was%C4%A0ist%C4%A0die%C4%A0 Renaissance?%C4%A0%C4%8AAssistant:%C4%A0
E%C4%A0Mail %C4%A0
kri ti
User:%C4%A0Was%C4%A0ist%C4%A0eine%C4%A0 The
T iere.</s>
S and%C4%A0
.%C4%A0%C4%8AAssistant:%C4%A0J%C4%A0%C3%83%C2%A9 tudie%C4%A0
K arten%C4%A0
st%C4%A0du%C4%A0einen%C4%A0 Test
%C4%A0%C4%8AAssistant:%C4%A0 30
?%C4%A0%C4%8AAssistant:%C4%A0Eine%C4%A0 ge
Energie%C4%A0 kann%C4%A0
eindeu tig
Erd e%C4%A0d
en%C4%A0Sch lachten.</s>
,%C4%A0 ist%C4%A0das%C4%A0
Luft%C4%A0 beweg
se%C4%A0 sind%C4%A0
Details%C4%A0 weg.</s>
?%C4%A0%C4%8AAssistant:%C4%A0 Kurzer%C4%A0
entsch ei
T%C3%83%C2%A4g lich%C4%A0
F ach
ehn t%C4%A0sich%C4%A0
User:%C4%A0%C3%83%C4%BEbersetze%C4%A0ins%C4%A0Franz%C3%83%C2%B6sische:%C4%A0 Entschuldigung.%C4%A0%C4%8AAssistant:%C4%A0
ess ant
%C4%A0%C3%83%C4%B9%C4%A04 %C4%A0=%C4%A0
?%C4%A0%C4%8AAssistant:%C4%A0Eine%C4%A0 Regel%C4%A0
%C4%A0-%C4%A0 9,%C4%A0wie%C4%A0viel?%C4%A0%C4%8AAssistant:%C4%A0
K%C3%83%C2%B6rper .%C4%A0So%C4%A0
d .%C4%A0%C4%8AAssistant:%C4%A0
Le ben%C4%A0
putz t,%C4%A0
Mittelwer t%C4%A0von%C4%A0
Road map
Instr umen
u ter
wird%C4%A0 ge
aktiv %C4%A0
B akteri
Roll e%C4%A0
User:%C4%A0Wie%C4%A0sortierst%C4%A0du%C4%A0 Zahl
stark .%C4%A0Wir%C4%A0
st%C4%A0d a
klar en%C4%A0
%C3%83%C2%B6 der
au ch%C4%A0
t ?%C4%A0%C4%8AAssistant:%C4%A0Ein%C4%A0
brauch e%C4%A0
Ide mp
notier en.</s>
Ger%C3%83%C2%A4u sch
EU .%C4%A0
trinke%C4%A0Wasser .%C4%A0%C4%8AAssistant:%C4%A0Je%C4%A0bo
and .</s>
al lem
folg st%C4%A0du%C4%A0
hal t
User:%C4%A0Was%C4%A0ist%C4%A0ein%C4%A0 Vulkan
Prod uz
Lern kart
w%C3%83%C2%A4ch st.</s>
Sch ema%C4%A0
Seit en.%C4%A0
p en%C4%A0the%C4%A0window.</s>
und%C4%A0 L%C3%83%C2%A4nder%C4%A0
Prod u
ctor ing%C4%A0
%C3%83%C2%A4mpf te%C4%A0
2%C4%A0+%C4%A0 3
Mensch en.%C4%A0Sie%C4%A0
Licht%C4%A0 wird%C4%A0in%C4%A0
i on%C4%A0
Die%C4%A0%C3%83%C4%BEbung%C4%A0ist%C4%A0 leich
Sym bol
read y.</s>
ok us%C4%A0
Sym bo
end io
Reflex ion%C4%A0
m%C4%A0mit%C4%A0 Kopfh%C3%83%C2%B6r
Eigenschaf ten%C4%A0
,%C4%A0was%C4%A0 ist%C4%A0das?%C4%A0%C4%8AAssistant:%C4%A0
User:%C4%A0Wie%C4%A0planst%C4%A0du%C4%A0 Abschluss
en ?%C4%A0%C4%8AAssistant:%C4%A0Die%C4%A0Erde%C4%A0
kon fli
o ge?%C4%A0%C4%8AAssistant:%C4%A0
s org
User:%C4%A0%C3%83%C4%BEbersetze%C4%A0ins%C4%A0Franz%C3%83%C2%B6sische:%C4%A0 Kein%C4%A0Problem
pl ant
User:%C4%A0Wie%C4%A0startest%C4%A0du%C4%A0eine%C4%A0 Rech
?%C4%A0%C4%8AAssistant:%C4%A0F l%C3%83%C2%BC
sch on
u%C4%A0hab i
olksabstimm ung.%C4%A0
Pr%C3%83%C2%A4 si
spr ing
User:%C4%A014 %C4%A0+%C4%A0
,%C4%A0wie%C4%A0viel?%C4%A0%C4%8AAssistant:%C4%A0 Erst%C4%A0
u%C4%A0habi tes%C4%A0o
t%C4%A0 Blu
.%C4%A0Dein%C4%A0 K%C3%83%C2%B6rper%C4%A0
us%C4%A0 pla%C3%83%C2%AEt.</s>
User:%C4%A0Wie%C4%A0beschreib st%C4%A0du%C4%A0einen%C4%A0
Budge t.</s>
fal l%C4%A0
/ >.</s>
.%C4%A0Dann%C4%A0%C3%83%C2%BCber spring
auf ?%C4%A0%C4%8AAssistant:%C4%A0Du%C4%A0
lo oking%C4%A0
wach sen.</s>
t.%C4%A0Dann%C4%A0 baust%C4%A0du%C4%A0
essen%C4%A0 konstant
User:%C4%A0%C3%83%C4%BEbersetze%C4%A0ins%C4%A0Franz%C3%83%C2%B6sische:%C4%A0 %C3%83%C4%B8ffne%C4%A0das%C4%A0Fenster.%C4%A0%C4%8AAssistant:%C4%A0O
in%C4%A0 Wolk
z iere%C4%A0
s ystem
l in%C4%A0
ob en.</s>
en.%C4%A0Dann%C4%A0 vergleichst%C4%A0du%C4%A0
ein ung%C4%A0
,%C4%A0was%C4%A0kommt%C4%A0raus?%C4%A0%C4%8AAssistant:%C4%A0 0.%C4%A0Null%C4%A0
Beding ung.%C4%A0Dann%C4%A0
tr%C3%83%C2%A4g st%C4%A0du%C4%A0
%C4%A0 es%C4%A0
Abhaeng igkeit
El le%C4%A0
st%C4%A0du%C4%A0einen%C4%A0 Ablauf
machst%C4%A0du%C4%A0 sie%C4%A0
t.%C4%A0Dann%C4%A0 planst%C4%A0du%C4%A0
liert%C4%A0 Wert.</s>
Tr an
.%C4%A0Morgen%C4%A0ist%C4%A0 Ausflug
ser .</s>
lau t.%C4%A0Ich%C4%A0
gesch rie
al ten.</s>
ail s%C4%A0
User:%C4%A02 4
spiel %C4%A0mit%C4%A0
%C4%A0 kann%C4%A0
sist enz
K rie
%C3%83%C2%BCn det.</s>
schnell .%C4%A0%C4%8AAssistant:%C4%A0Al
er en%C4%A0
c e%C4%A0
Physik .%C4%A0Morgen%C4%A0ist%C4%A0
f %C3%83%C2%B6r
e .%C4%A0%C4%8AAssistant:%C4%A0
Dat um%C4%A0und%C4%A0
on au
Anf%C3%83%C2%BChr er%C4%A0aus%C4%A0In
m om
are%C4%A0 welcom
%C4%A0-%C4%A01 /
.%C4%A0Z eit%C4%A0
jourd%C4%A0hui %C4%A0c
%C3%83%C2%B6 t
reg net%C4%A0
%C3%83%C4%BEb ungs
ir %C4%A0das%C4%A0
x%C4%A0 t
hol st%C4%A0du%C4%A0
ft war
K ur
guter%C4%A0 Erfolg.</s>
eine%C4%A0 Sei
User:%C4%A0Fasse%C4%A0zusammen:%C4%A0Die%C4%A0Sonne%C4%A0 schein
T iere%C4%A0
ex erci
Re sp
Sch ach
%C4%A0defin ierst%C4%A0du%C4%A0
Nam en?%C4%A0%C4%8AAssistant:%C4%A0
um geben.</s>
ein%C4%A0 Ziel
Energie%C4%A0kann%C4%A0 in%C4%A0
ema il.</s>
.%C4%A0Dann%C4%A0testest%C4%A0du%C4%A0 mit%C4%A0
%C4%A0 jetz
ma il.</s>
Kohl endio
En de%C4%A0
User:%C4%A0Was%C4%A0ist%C4%A0eine%C4%A0 Revolution
Aud io
User:%C4%A0Was%C4%A0ist%C4%A0ein%C4%A0Par lam
und%C4%A0W ind%C4%A0
User:%C4%A0Wie%C4%A0 kling
t%C4%A0 eine%C4%A0
ro m%C4%A0
P l%C3%83%C2%A4tz
am%C4%A0Ab end
bewer b
%C4%A0-%C4%A03 ,%C4%A0wie%C4%A0viel?%C4%A0%C4%8AAssistant:%C4%A0
kom bin
User:%C4%A0%C3%83%C4%BEbersetze%C4%A0ins%C4%A0Englische:%C4%A0Wo%C4%A0ist%C4%A0die%C4%A0 Bibliothek
n at
User:%C4%A0Was%C4%A0ist%C4%A0ein%C4%A0 At
fli eg
,%C4%A0 Pr%C3%83%C2%A4dik
hilft%C4%A0 beim%C4%A0
W %C3%83%C2%B6rter%C4%A0
ge t
c a
hel ern
Mond sch
e%C4%A0ein%C4%A0 Arra
d%C4%A0 ver
Ger man
User:%C4%A0Was%C4%A0ist%C4%A0ein%C4%A0 Budge
A ha
Reaktion%C4%A0 mit%C4%A0
%C3%83%C4%A6 ste%C4%A0
e?%C4%A0%C4%8AAssistant:%C4%A0 N
Zwei -
Gute%C4%A0Nacht.%C4%A0%C4%8AAssistant:%C4%A0 Good%C4%A0
ok %C4%A0
%C3%83%C4%BEber gab
.%C4%A0Danach%C4%A0 ist%C4%A0es%C4%A0
is%C4%A0de%C4%A0 l%C4%A0eau.</s>
Sch iff
co%C3%83 %C2%BBte%C4%A0
Plan .%C4%A0Dann%C4%A0
I d('
a zu
St or
e.%C4%A0Dann%C4%A0 ver
User:%C4%A0%C3%83%C4%BEbersetze%C4%A0ins%C4%A0Englische:%C4%A0Ich%C4%A0 studiere%C4%A0Informatik
tr ischen%C4%A0
kurz er%C4%A0
w ichtige%C4%A0
.%C4%A0%C4%8AAssistant:%C4%A0 %C3%83
Sch la
20 ?%C4%A0%C4%8AAssistant:%C4%A0Ja.%C4%A01
Akku%C4%A0 ist%C4%A0
ich%C4%A0 geh
lichkeit en.</s>
el ek
%C4%A0de termin
.%C4%A0Dann%C4%A0 %C3%83%C2%A4nderst%C4%A0du%C4%A0
ein ig
f te.</s>
et ,%C4%A0
ai s.</s>
Tu%C4%A0 p
Heute%C4%A0ist%C4%A0Montag .%C4%A0%C4%8AAssistant:%C4%A0Au
er .%C4%A0%C4%8AAssistant:%C4%A0
R %C3%83%C2%B6
ver a
Katze%C4%A0 schl%C3%83%C2%A4
Pflanz en.</s>
ui t.</s>
Bl umen
wird%C4%A0 gel
Roll en.</s>
Z %C3%83%C2%A4h
in%C4%A0 JS%C4%A0
Sig n
Preis%C4%A0 ist%C4%A0
Woch e?%C4%A0%C4%8AAssistant:%C4%A0Du%C4%A0
langsam er.%C4%A0%C4%8AAssistant:%C4%A0
no tiz
en?%C4%A0%C4%8AAssistant:%C4%A0 Liste%C4%A0
kl eines%C4%A0
Z uf
L au
speich ern%C4%A0
User:%C4%A0%C3%83%C4%BEbersetze%C4%A0ins%C4%A0Englische:%C4%A0Wir%C4%A0 spielen%C4%A0Fu%C3%83%C5%81ball
N apo
und%C4%A0 N
ste%C4%A0 und%C4%A0
I mpf
ein%C4%A0 Kon
la te.</s>
fo ot.</s>
Salz %C4%A0
Gute%C4%A0Nacht.%C4%A0%C4%8AAssistant:%C4%A0 Bonne%C4%A0
er zeichen.</s>
Reihenfol ge.%C4%A0Dann%C4%A0
User:%C4%A0Was%C4%A0ist%C4%A0 Schall
Ab frag
setze%C4%A0 Kopfh%C3%83%C2%B6r
en%C4%A0im%C4%A0 Tex
nah .</s>
lau t.</s>
.%C4%A0Neu er%C4%A0
er b
Stif te.%C4%A0
%C4%A0 ver
t%C4%A0 les
li >
bie test%C4%A0du%C4%A0
te%C4%A0 Luft%C4%A0
ass %C4%A0die%C4%A0
en%C4%A0 Menschen.</s>
l t
User:%C4%A0Was%C4%A0ist%C4%A0eine%C4%A0Met ap
up lik
,%C4%A0wie%C4%A0rechnest%C4%A0du ?%C4%A0%C4%8AAssistant:%C4%A01
.%C4%A0Es%C4%A0 be
hei%C3%83%C5%81 t%C4%A0die%C4%A0
Risik o%C4%A0
Fahrrad%C4%A0 qu
Kl ein
t%C4%A0 oder%C4%A0
Buch%C4%A0 ist%C4%A0spannend
y%C4%A0so cc
App -
Alle%C4%A0 versteh
Ge og
wird%C4%A0 bun
zeichnest%C4%A0 K
aren%C4%A0f%C3%83%C2%BCr%C4%A0ein%C4%A0 Fahrra
Napo le
ar re.%C4%A0
ing s?%C4%A0%C4%8AAssistant:%C4%A0Du%C4%A0
spr %C3%83%C2%BCch
Klima wand
Sahara?%C4%A0%C4%8AAssistant:%C4%A0 In%C4%A0
User:%C4%A0%C3%83%C4%BEbersetze%C4%A0ins%C4%A0Englische:%C4%A0Wo%C4%A0 ist%C4%A0der%C4%A0Bahnhof
pr ess
%C4%A0M in
ess er.</s>
such%C4%A0 mit%C4%A0
5 00
eise%C4%A0 Mu
komp lex
konfli k
en heit
entsch eid
Stad tst
Inhal t%C4%A0
st%C4%A0du%C4%A0 Daten?%C4%A0%C4%8AAssistant:%C4%A0Du%C4%A0
%C3%83%C2%B6r t
.%C4%A0Der%C4%A0Bal k
Test .%C4%A0%C4%8AAssistant:%C4%A0P
w ahl%C4%A0
ale%C4%A0 Element%C4%A0bei%C4%A0
t w
k%C4%A0 beim%C4%A0
User:%C4%A0Fasse%C4%A0zusammen:%C4%A0Die%C4%A0 Katze%C4%A0schl%C3%83%C2%A4
Zimmer%C4%A0ist%C4%A0 sauber
,%C4%A0wie%C4%A0viel?%C4%A0%C4%8AAssistant:%C4%A0 6
.%C4%A0 Teil
Kaiser .</s>
logi k%C4%A0
User:%C4%A0%C3%83%C4%BEbersetze%C4%A0ins%C4%A0Franz%C3%83%C2%B6sische:%C4%A0 Bis%C4%A0sp%C3%83%C2%A4ter.%C4%A0%C4%8AAssistant:%C4%A0
An g
.%C4%A0%C4%8AAssistant:%C4%A0N o%C4%A0
Mat ri
%C3%83%C2%BCll%C4%A0raus ,%C4%A0
Mach%C4%A0bitte%C4%A0das%C4%A0 Fenst
her mom
3 %C4%A0%C3%83%C4%B9%C4%A03,%C4%A0Ergebnis?%C4%A0%C4%8AAssistant:%C4%A0
0 </s>
i lit
u%C4%A0 are%C4%A0welcom
St ak
war um.%C4%A0Dann%C4%A0
.%C4%A0%C4%8AAssistant:%C4%A0 A
Din ge.%C4%A0Dann%C4%A0
W ichtigkeit
w%C3%83%C2%A4hlen.%C4%A0 Un
ordne st%C4%A0
.%C4%A0%C4%8AAssistant:%C4%A0Je%C4%A0suis%C4%A0 pr
seh e%C4%A0den%C4%A0
verschied ene%C4%A0
Reih e.</s>
10%C4%A0 10%C4%A0
ben ,%C4%A0
en ?%C4%A0%C4%8AAssistant:%C4%A0D
f te%C4%A0
E m
Eine%C4%A0 klare%C4%A0
Gr%C3%83%C2%B6%C3%83%C5%81 te%C4%A0
%C3%83%C5%81 en.%C4%A0
%C3%83%C4%BEber gang
T%C3%83%C2%A4g liches%C4%A0Git
sa t
wer te.%C4%A0Dann%C4%A0
zehn%C4%A0 weg.</s>
prod uz
Tr ansp
Le ser%C4%A0
St art
lin e%C4%A0
musi c
For m%C4%A0
Ket te.%C4%A0%C4%8AAssistant:%C4%A0
l %C4%A0der%C4%A0
on%C4%A0 wird%C4%A0bun
8 %C4%A0+%C4%A02
.%C4%A0F%C3%83%C2%BCnf er%C4%A0in%C4%A0
wird %C4%A0d
Wasser%C4%A0 ist%C4%A0
en.%C4%A0Dann%C4%A0 machst%C4%A0du%C4%A0
User:%C4%A0Was%C4%A0ist%C4%A0der%C4%A0 Himalaya
dent%C4%A0 oder%C4%A0
qu ent.</s>
d '
D ank
ei ch%C4%A0
Stak eh
zusammen haeng
le uch
Er neu
%C3%83%C4%A6quator?%C4%A0%C4%8AAssistant:%C4%A0In %C4%A0der%C4%A0Mit
Fr age.</s>
6%C4%A0 plus%C4%A0
he ur
F l%C3%83%C2%BCss
all en%C4%A0
are%C4%A0 Geld
lat te%C4%A0
les en%C4%A0d
wer k%C4%A0
se%C4%A0 steig
- Ket
pro%C4%A0 Person
%C3%83%C2%B6pf ch
%C4%A0be au
R ol
User:%C4%A0Fasse%C4%A0zusammen:%C4%A0Wir%C4%A0 plan
B ru
User:%C4%A05 %C4%A0+%C4%A0
alles%C4%A0 sauber.</s>
User:%C4%A0Wie%C4%A0nutzt%C4%A0du%C4%A0 eine%C4%A0
/%C4%A0 (
User:%C4%A0%C3%83%C4%BEbersetze%C4%A0ins%C4%A0Franz%C3%83%C2%B6sische:%C4%A0Ich%C4%A0 schreibe%C4%A0eine%C4%A0E%C4%A0Mail
%C4%A0d eine%C4%A0Zeit
en%C4%A0 Blumen
.%C4%A0Morgen%C4%A0ist%C4%A0Ausflug .%C4%A0%C4%8AAssistant:%C4%A0Rucksack
10 %C4%A0%C4%8AAssistant:%C4%A0
um?%C4%A0%C4%8AAssistant:%C4%A0Du%C4%A0 planst%C4%A0
me%C4%A0la%C4%A0 musi
Laptop %C4%A0ist%C4%A0al
ten%C4%A0 Bedingungen%C4%A0
ere%C4%A0 Zahl%C4%A0
ende ?%C4%A0%C4%8AAssistant:%C4%A0
Konflik te.</s>
User:%C4%A0%C3%83%C4%BEbersetze%C4%A0ins%C4%A0Franz%C3%83%C2%B6sische:%C4%A0Wo%C4%A0 wohnst%C4%A0du
Insel grupp
.%C4%A0S %C3%83%C2%A4tze%C4%A0
User:%C4%A0Wie%C4%A0schreibe%C4%A0ich%C4%A0 H%C3%83%C2%B6r
ist%C4%A0der%C4%A0Bahnhof .%C4%A0%C4%8AAssistant:%C4%A0O%C3%83%C2%B9%C4%A0est%C4%A0la%C4%A0g
Geheim nis%C4%A0
ohne%C4%A0 in%C4%A0Berlin
satz ?%C4%A0%C4%8AAssistant:%C4%A0
Infl ation
age gen.</s>
?%C4%A0%C4%8AAssistant:%C4%A0Eine%C4%A0 Sonne%C4%A0
otiz en?%C4%A0%C4%8AAssistant:%C4%A0
.%C4%A0S zen
e.%C4%A0 W
15 .</s>
Viel%C4%A0Spa%C3%83%C5%81 .%C4%A0%C4%8AAssistant:%C4%A0A
?%C4%A0%C4%8AAssistant:%C4%A0 Staatenbund.%C4%A0
er %C4%A0dazu.</s>
.%C4%A0Es%C4%A0 ist%C4%A0
%C4%A0=%C4%A0 8
.%C4%A0Oft%C4%A0 Pr%C3%83%C2%A4si
male%C4%A0ein%C4%A0 Bild
kommt%C4%A0nach%C4%A0 vorn.</s>
einer%C4%A0 Zahl
ung%C4%A0ist%C4%A0 wichtig.</s>
spielen%C4%A0Fu%C3%83%C5%81ball .%C4%A0%C4%8AAssistant:%C4%A0Nous%C4%A0
User:%C4%A0Wie%C4%A0funktioniert%C4%A0 eine%C4%A0
,%C4%A0Pr%C3%83%C2%A4dik at
User:%C4%A0Fasse%C4%A0zusammen:%C4%A0Ich%C4%A0schreibe%C4%A0eine%C4%A0E%C4%A0Mail .%C4%A0Die%C4%A0
Erwart ungen%C4%A0
H ausaufgab
Wasser%C4%A0ge friert%C4%A0
T on.</s>
t%C4%A0die%C4%A0 Reg
b %C4%A0
en%C4%A0 entsteh
User:%C4%A0%C3%83%C4%BEbersetze%C4%A0ins%C4%A0Franz%C3%83%C2%B6sische:%C4%A0%C3%83%C4%B8ffne%C4%A0das%C4%A0Fenster.%C4%A0%C4%8AAssistant:%C4%A0O uvre%C4%A0la%C4%A0fen
f rom%C4%A0
ent?%C4%A0%C4%8AAssistant:%C4%A0 Gew%C3%83%C2%A4hlte%C4%A0
) %C4%A0=%C4%A0
zuerst .</s>
Pr%C3%83%C2%BCfung%C4%A0ist%C4%A0 schwer
kal t.</s>
kurz en%C4%A0
us%C4%A0 C
st%C4%A0da mit.</s>
t%C4%A0im%C4%A0 Team
User:%C4%A01 2%C4%A0-%C4%A0
h un
ordne st%C4%A0nach%C4%A0
um?%C4%A0%C4%8AAssistant:%C4%A0Du%C4%A0 merk
Geog raf
Gleich gew
Schl%C3%83%C2%BCssel w%C3%83%C2%B6rter
mag %C4%A0
t%C3%83%C2%A4g lich
ohne%C4%A0 Klische
Sel ektiere%C4%A0
ungen.%C4%A0Dann%C4%A0 pr%C3%83%C2%BCfst%C4%A0du%C4%A0
%C4%A0d ehnt%C4%A0sich%C4%A0
Laptop ,%C4%A0
zu%C4%A0 Fu%C3%83%C5%81
Yo u%C4%A0are%C4%A0welcom
.%C4%A0%C4%8AAssistant:%C4%A0 Ber
Thema%C4%A0 w%C3%83%C2%A4hlen.%C4%A0
eit er%C4%A0
ob j
0%C4%A0 EUR
Les en.</s>
Sign ale%C4%A0
f igur
e y
m%C4%A0 appelle%C4%A0Alex.</s>
Bund%C4%A0 von%C4%A0
?%C4%A0%C4%8AAssistant:%C4%A0Du %C4%A0de
ial oge%C4%A0
.%C4%A0%C4%8AAssistant:%C4%A0I%C4%A0 will%C4%A0
ist%C4%A0 Null.</s>
bewer test%C4%A0du%C4%A0
User:%C4%A0Warum%C4%A0 ist%C4%A0der%C4%A0
U se%C4%A0
Luf td
a mm
Ber %C3%83%C2%BCh
Ho eh
%C4%A0+%C4%A07 ,%C4%A0Ergebnis?%C4%A0%C4%8AAssistant:%C4%A0
a eu
Geograf ie
.%C4%A0Dann%C4%A0%C3%83%C2%BCberspring st%C4%A0du%C4%A0
.%C4%A0Es%C4%A0 ist%C4%A0sehr%C4%A0
Ak ku
Reihenfolge%C4%A0 an.</s>
buch st%C4%A0du%C4%A0
Version en.</s>
P il
schie bt%C4%A0
ung?%C4%A0%C4%8AAssistant:%C4%A0 Grund
, %C4%A0der%C4%A0
Neu tr
W ind
I mm
and hi?%C4%A0%C4%8AAssistant:%C4%A0Ein%C4%A0
.%C4%A0%C4%8AAssistant:%C4%A0%C3%83 %C4%A9
User:%C4%A0Was%C4%A0ist%C4%A0 Arch
fun .</s>
x ');</s>
trinke%C4%A0Tee.%C4%A0Er%C4%A0 w%C3%83%C2%A4rm
User:%C4%A0Wie%C4%A0fin d
sp%C3%83%C2%A4ter.%C4%A0%C4%8AAssistant:%C4%A0 E%C4%A0Mail%C4%A0
Elektr on
C ro
t%C4%A0ist%C4%A0 klein.%C4%A0%C4%8AAssistant:%C4%A0
User:%C4%A02 2%C4%A0+%C4%A0
bit te%C4%A0
0%C4%A0%C3%83%C2%B7%C4%A0 10
?%C4%A0%C4%8AAssistant:%C4%A0Ein%C4%A0 r%C3%83%C2%B6
%C4%A0%C3%83%C4%B9%C4%A0 3%C4%A0=%C4%A0
User:%C4%A0Wie%C4%A0 berech
a ve%C4%A0
r%C4%A0 gut%C4%A0
iz iert%C4%A0
la%C4%A0 bi
t%C4%A0 L
Poli tik
un abh%C3%83%C2%A4ngig.</s>
Ziel .%C4%A0
H%C3%83%C2%B6 he
Or ts
s%C4%A0 im%C4%A0
ier .</s>
User:%C4%A0%C3%83%C4%BEbersetze%C4%A0ins%C4%A0Franz%C3%83%C2%B6sische:%C4%A0Ich%C4%A0habe%C4%A0eine%C4%A0Frage.%C4%A0%C4%8AAssistant:%C4%A0J%C4%A0ai%C4%A0 une%C4%A0question.</s>
off .</s>
$ {
ge .%C4%A0Sie%C4%A0
Satz zeichen%C4%A0
bau en.%C4%A0
.%C4%A0%C4%8AAssistant:%C4%A0 Voll
oder%C4%A0 fal
Kommun ik
tief .</s>
no tierst%C4%A0du%C4%A0
U hr
kochen%C4%A0 heute
en?%C4%A0%C4%8AAssistant:%C4%A0 Schreib
w%C3%83%C2%B6rter.%C4%A0Dann%C4%A0 markierst%C4%A0du%C4%A0
gab en?%C4%A0%C4%8AAssistant:%C4%A0
hin dere%C4%A0
Entschuldigung%C4%A0 bitte.%C4%A0%C4%8AAssistant:%C4%A0
stimmen%C4%A0 ab
Pr%C3%83%C2%BCfung%C4%A0ist%C4%A0 b
c ap
teil en
N ud
schlie%C3%83%C5%81 t%C4%A0du%C4%A0
hat%C4%A0 time%C4%A0is%C4%A0
User:%C4%A0%C3%83%C4%BEbersetze%C4%A0ins%C4%A0Franz%C3%83%C2%B6sische:%C4%A0Ich%C4%A0hei%C3%83%C5%81e%C4%A0Alex.%C4%A0%C4%8AAssistant:%C4%A0Je%C4%A0 m%C4%A0appelle%C4%A0Alex.</s>
speich er
Grenz en.%C4%A0
href ='
and%C4%A0 und%C4%A0
L angsame%C4%A0
,%C4%A0Pr%C3%83%C2%A4dikat ,%C4%A0
10,%C4%A0dann%C4%A0+ 2.</s>
en.%C4%A0K lang
.%C4%A0Du%C4%A0 f%C3%83%C2%BChl
s eln%C4%A0
klar %C4%A0und%C4%A0
R icht
in%C4%A0JS.%C4%A0%C4%8AAssistant:%C4%A0 se
cui sin
Seite%C4%A0l%C3%83%C2%A4d t%C4%A0nicht.%C4%A0%C4%8AAssistant:%C4%A0
f ri
%C4%A0+%C4%A05 ,%C4%A0wie%C4%A0viel?%C4%A0%C4%8AAssistant:%C4%A015
User:%C4%A02 %C4%A0+%C4%A0
Szen en
?%C4%A0%C4%8AAssistant:%C4%A0Ein%C4%A0 Gebir
User:%C4%A0%C3%83%C4%BEbersetze%C4%A0ins%C4%A0Franz%C3%83%C2%B6sische:%C4%A0Wo%C4%A0ist%C4%A0die%C4%A0 Schule
Beweg ung.</s>
%C4%A0ist%C4%A0 20.</s>
eg e%C4%A0
als%C4%A0 in%C4%A0
en.%C4%A0Dann%C4%A0 baust%C4%A0du%C4%A0
leg en.</s>
%C3%83%C2%A4rmender%C4%A0 Tee.</s>
0 ?%C4%A0%C4%8AAssistant:%C4%A0
B l%C3%83%C2%B6ck
Or iginal
end ?%C4%A0%C4%8AAssistant:%C4%A0Du%C4%A0vergleichst%C4%A0
Ursach e.%C4%A0Dann%C4%A0
,%C4%A0wir%C4%A0 blei
P as
User:%C4%A0Warum%C4%A0 schw
User:%C4%A0Wie%C4%A0 z%C3%83%C2%A4hl
User:%C4%A0Wie%C4%A0gehst%C4%A0du%C4%A0 bei%C4%A0%C3%83%C4%A6nder
mi sier
User:%C4%A0Wie%C4%A0entsteht%C4%A0 ein%C4%A0
Wahl en.%C4%A0
.%C4%A0%C4%8AAssistant:%C4%A0L eise%C4%A0Mu
geschloss ener%C4%A0
.%C4%A0Zehner%C4%A0 teil
User:%C4%A0Wie%C4%A0 r%C3%83%C2%A4um
User:%C4%A0Wie%C4%A0 pr%C3%83%C2%BCf
antwor test%C4%A0du%C4%A0
bitte%C4%A0 auf
Rech t%C4%A0zu%C4%A0
tz %C4%A0dich%C4%A0bitte.%C4%A0%C4%8AAssistant:%C4%A0
User:%C4%A0Wie%C4%A0 teilst%C4%A0du%C4%A0
wiederhol en.%C4%A0%C4%8AAssistant:%C4%A0
Pro mpt
Spiel .</s>
Sprich%C4%A0 langsamer.%C4%A0%C4%8AAssistant:%C4%A0
Impf stoff
User:%C4%A0 Pr%C3%83%C2%BCf
%C4%A0+%C4%A0 9
ge ?%C4%A0%C4%8AAssistant:%C4%A0Du%C4%A0definierst%C4%A0
lau t.%C4%A0
%C3%83%C2%BC her
?%C4%A0%C4%8AAssistant:%C4%A0W ind%C4%A0
lem entier
her gestell
Priorit %C3%83%C2%A4
Sie%C4%A0f%C3%83%C2%A4hr t%C4%A0m
Be wei
User:%C4%A0Fasse%C4%A0kurz%C4%A0zusammen:%C4%A0Ein%C4%A0 Bei
Gef%C3%83%C2%BC hl
fer tig
en.%C4%A0Dann%C4%A0 passt%C4%A0du%C4%A0
Wor te.%C4%A0
mp lementier
pack st%C4%A0
bar %C4%A0und%C4%A0
.%C4%A0%C4%8AAssistant:%C4%A0Je%C4%A0 vo
User:%C4%A0Wie%C4%A0 l%C3%83%C2%A4d
te?%C4%A0%C4%8AAssistant:%C4%A0 Neue%C4%A0
.%C4%A0Dann%C4%A0testest%C4%A0du%C4%A0 sofort.</s>
Frag en.%C4%A0Dann%C4%A0
Elemen t%C4%A0der%C4%A0
ier t?%C4%A0%C4%8AAssistant:%C4%A0
u%C4%A0habites%C4%A0o %C3%83%C2%B9
ern euer
er%C4%A0 geh
.%C4%A0%C4%8AAssistant:%C4%A0 St
a .%C4%A0Sie%C4%A0
W elle%C4%A0
t.%C4%A0Ich%C4%A0 %C3%83%C2%B6l
fest er%C4%A0
.%C4%A0Neu es%C4%A0
st%C4%A0 Themen.%C4%A0Dann%C4%A0
spielen%C4%A0Fu%C3%83%C5%81ball.%C4%A0%C4%8AAssistant:%C4%A0Nous%C4%A0 jou
Verd opp
wer tet%C4%A0
</ li
kor rig
en%C4%A0 es.</s>
rechne st%C4%A0
Ein%C4%A0 Re
Per spektive?%C4%A0%C4%8AAssistant:%C4%A0
alid ier
ku ss
.%C4%A0%C4%8AAssistant:%C4%A0Le erer%C4%A0
N %C3%83%C2%A4ch
e.%C4%A0 Menschen%C4%A0w%C3%83%C2%A4hlen%C4%A0
k%C4%A0w%C3%83%C2%A4hl t.%C4%A0
Mach%C4%A0bitte%C4%A0das%C4%A0Fenst er%C4%A0auf
.%C4%A0%C4%8AAssistant:%C4%A0Je%C4%A0 ch
st y
mache%C4%A0Hausaufgab en
e%C4%A0 t%C3%83%C2%A4g
e%C4%A0ein%C4%A0Arra y%C4%A0
i sches%C4%A0Bro
Rel ation
Sti l%C4%A0
Mathe .%C4%A0Die%C4%A0
Deutschland s
bei%C4%A0 Oma
Sta a
B ein
%C4%A0und%C4%A0 Nach
.%C4%A0Summ e%C4%A0ist%C4%A0
scha f
User:%C4%A0%C3%83%C4%BEbersetze%C4%A0ins%C4%A0Englische:%C4%A0Wir%C4%A0spielen%C4%A0Fu%C3%83%C5%81ball .%C4%A0%C4%8AAssistant:%C4%A0We%C4%A0
stud i
ein%C4%A0 Gehirn%C4%A0
e%C4%A0 G
?%C4%A0%C4%8AAssistant:%C4%A0In%C4%A0Afrik a.%C4%A0Er%C4%A0
onlin e.%C4%A0Die%C4%A0
for muli
a d%C4%A0
per%C4%A0JS%C4%A0 hin
rei f
%C4%A0%C4%8AAssistant:%C4%A01 20</s>
h ar
ver b
Lad e%C4%A0
%C4%A0+%C4%A06 ,%C4%A0Ergebnis?%C4%A0%C4%8AAssistant:%C4%A0
ation%C4%A0 beschreibt%C4%A0
= >%C4%A0
t le
.%C4%A0%C4%8AAssistant:%C4%A0Je%C4%A0vi ens
User:%C4%A0Wie%C4%A0 beginn
h%C3%83%C2%B6 h
te ck
v ier%C4%A0
K un
%C3%83%C2%A4nder n.</s>
Erde%C4%A0d reh
il og
Kohl enst
plant %C4%A0
.%C4%A0Sech s%C4%A0
Meeresh%C3%83%C2%B6 he.</s>
sin d.</s>
= =
bo ar
ein%C4%A0 Fahrrad%C4%A0
sp%C3%83%C2%A4ter.%C4%A0%C4%8AAssistant:%C4%A0E%C4%A0Mail%C4%A0 geschrie
Signale%C4%A0 im%C4%A0
E hr
Pflanzen%C4%A0 nehmen%C4%A0
Schreib %C4%A0das%C4%A0
Sei f
ein .%C4%A0Dann%C4%A0best%C3%83%C2%A4tig
B uch
.%C4%A0G u
User:%C4%A0Wie%C4%A0 sch
bu s.</s>
.%C4%A0Dann%C4%A0 passt%C4%A0du%C4%A0
Zu cker%C4%A0
te?%C4%A0%C4%8AAssistant:%C4%A0Du%C4%A0 pr%C3%83%C2%BCfst%C4%A0
sk izz
is kuss
Z we
oder%C4%A0 n
Er%C4%A0 lern
Gef%C3%83%C2%BCh le
User:%C4%A0Fasse%C4%A0zusammen:%C4%A0Der%C4%A0 Unterricht%C4%A0
hun dert%C4%A0
sp are%C4%A0Geld
Stad t.</s>
wird%C4%A0 er
ein%C4%A0 Frage
3 .%C4%A0F%C3%83%C2%BCnf
Zeitd ruck
Ressourc en?%C4%A0%C4%8AAssistant:%C4%A0Du%C4%A0
ho ch.</s>
User:%C4%A0Fasse%C4%A0kurz%C4%A0zusammen:%C4%A0Ein%C4%A0Text%C4%A0%C3%83%C2%BCber%C4%A0 St%C3%83%C2%A4dte
7 %C4%A0%C4%8AAssistant:%C4%A04
?%C4%A0%C4%8AAssistant:%C4%A0Du%C4%A0 %C3%83%C2%B6ffne
Budge t%C4%A0ist%C4%A0klein.%C4%A0%C4%8AAssistant:%C4%A0
Hand y
w och
Gehir n
f%C3%83%C2%BCr%C4%A0 Frieden.</s>
Napole on
?%C4%A0%C4%8AAssistant:%C4%A0 Ziel
%C4%A0d arf
Gegen beispiel
0.7 5</s>
ir ekte%C4%A0
%C3%83%C4%A6nder ungen?%C4%A0%C4%8AAssistant:%C4%A0Du%C4%A0
en%C4%A0Blumen .%C4%A0Der%C4%A0Balk
Imm un
Lin k%C4%A0
reich t%C4%A0aus
User:%C4%A0Wie%C4%A0pr%C3%83%C2%BCf st%C4%A0du,%C4%A0
Start%C4%A0 in%C4%A0den%C4%A0
w oll
.%C4%A0%C4%8AAssistant:%C4%A0No%C4%A0 prob
n%C3%83%C2%A4ch ste%C4%A0Schritte.</s>
Tool %C4%A0
konkre te%C4%A0
Ko sten.</s>
en?%C4%A0%C4%8AAssistant:%C4%A0 Gleich
exam en.</s>
User:%C4%A0%C3%83%C4%BEbersetze%C4%A0ins%C4%A0Franz%C3%83%C2%B6sische:%C4%A0Entschuldigung.%C4%A0%C4%8AAssistant:%C4%A0 Par
enz iel
User:%C4%A0%C3%83%C4%BEbersetze%C4%A0ins%C4%A0Englische:%C4%A0 Viel%C4%A0Spa%C3%83%C5%81.%C4%A0%C4%8AAssistant:%C4%A0H
Ver mehr
ue ber%C4%A0
si k%C4%A0beim%C4%A0
User:%C4%A0Fasse%C4%A0zusammen:%C4%A0Ich%C4%A0 bring
L im
en%C4%A0 S%C3%83%C2%A4tze%C4%A0
User:%C4%A0%C3%83%C4%BEbersetze%C4%A0ins%C4%A0Englische:%C4%A0Wir%C4%A0 haben%C4%A0Zeit.%C4%A0%C4%8AAssistant:%C4%A0We%C4%A0have%C4%A0
o este%C4%A0Salz
a %C4%A0und%C4%A0
3 %C4%A0-%C4%A04
wech s
Er%C4%A0liest%C4%A0 eine%C4%A0Zeit
User:%C4%A0Fasse%C4%A0zusammen:%C4%A0Ich%C4%A0 trinke%C4%A0Tee.%C4%A0Er%C4%A0w%C3%83%C2%A4rm
Schrit t
');%C4%A0} </s>
let s%C4%A0
User:%C4%A0Was%C4%A0ist%C4%A0F %C3%83%C2%B6der
be such%C4%A0mit%C4%A0
el%C4%A0 sind%C4%A0
be achten.</s>
an ag
lang en%C4%A0
ing !%C4%A0%C4%8AAssistant:%C4%A0
frag st%C4%A0du%C4%A0
.%C4%A0%C4%8AAssistant:%C4%A0How%C4%A0 mu
bin%C4%A0bereit .%C4%A0%C4%8AAssistant:%C4%A0Je%C4%A0suis%C4%A0pr
User:%C4%A0Wie%C4%A0 melde
Ru h
To -D
0 .</s>
ge trennt%C4%A0
bst .%C4%A0Die%C4%A0
Gro %C3%83%C5%81e%C4%A0
er%C4%A0 Regen
%C3%83%C2%BC %C3%83%C5%81
User:%C4%A0Fasse%C4%A0kurz%C4%A0zusammen:%C4%A0Ein%C4%A0Bei trag%C4%A0
Akku%C4%A0ist%C4%A0 le
gesch%C3%83%C2%BCtz t.</s>
%C4%A0 in%C4%A0JS.%C4%A0%C4%8AAssistant:%C4%A0
und%C4%A0 ge
online.%C4%A0Die%C4%A0 Kamera%C4%A0
.%C4%A0S timmt.</s>
%C4%A0%C3%83%C2%B7%C4%A0 7
lesen%C4%A0d azu
en,%C4%A0 guter%C4%A0Erfolg.</s>
Farben%C4%A0 sind%C4%A0h
ehr lich.</s>
?%C4%A0%C4%8AAssistant:%C4%A0Du%C4%A0 erstellst%C4%A0
.%C4%A0%C4%8AAssistant:%C4%A0Today%C4%A0is%C4%A0Mond ay.</s>
ohne%C4%A0 Gew
kn ack
Kinder%C4%A0 lernen%C4%A0
hat %C4%A0die%C4%A0
en%C4%A0 sie.</s>
t%C4%A0du %C4%A0den%C4%A0
User:%C4%A0Was%C4%A0ist%C4%A0eine%C4%A0Metap her
Qu ietsch
16 .</s>
User:%C4%A0Fasse%C4%A0zusammen:%C4%A0Das%C4%A0 WLAN
planst%C4%A0du%C4%A0 Termine.</s>
Akku%C4%A0ist%C4%A0le er
Chlorophy ll%C4%A0
Inflation ?%C4%A0%C4%8AAssistant:%C4%A0Prei
klein em%C4%A0
aus end
um?%C4%A0%C4%8AAssistant:%C4%A0Du%C4%A0merk st%C4%A0d
Ziel %C4%A0und%C4%A0
ung?%C4%A0%C4%8AAssistant:%C4%A0Grund regeln%C4%A0
schreibe%C4%A0 Notiz
D ruck%C4%A0
User:%C4%A0Fasse%C4%A0zusammen:%C4%A0Ich%C4%A0 le
User:%C4%A0Wie%C4%A0schreibe%C4%A0ich%C4%A0Pit ch%C4%A0
- An
7%C4%A0%C4%8AAssistant:%C4%A04 2</s>
%C4%A0%C3%83%C4%B9%C4%A0 5%C4%A0=%C4%A0
,%C4%A0w eil
al te%C4%A0
%C3%83%C2%A4h e.</s>
r%C3%83%C2%A4 der
User:%C4%A0Wel cher%C4%A0
Auf trie
ern en%C4%A0vor
O ff
rei s?%C4%A0%C4%8AAssistant:%C4%A0
such%C4%A0 bei%C4%A0Oma
bin%C4%A0 unterweg
f%C3%83%C2%BC n
lang .</s>
en%C4%A0 re
B eh
trinke%C4%A0Wasser .%C4%A0%C4%8AAssistant:%C4%A0I%C4%A0drink%C4%A0
Mach%C4%A0bitte%C4%A0das%C4%A0 Licht%C4%A0
%C3%83%C2%A4nk ischer%C4%A0
%C3%83%C2%A4sche .%C4%A0Danach%C4%A0fal
%C3%83%C5%81 e?%C4%A0%C4%8AAssistant:%C4%A0Ein%C4%A0
hilf t%C4%A0d
document. get
mon d%C4%A0
9 0%C4%A0
les%C4%A0 Bild%C4%A0
User:%C4%A06 %C4%A0+%C4%A06
tro m%C4%A0
te ?%C4%A0%C4%8AAssistant:%C4%A0Ein%C4%A0
gang %C4%A0mit%C4%A0
bil de
bar ,%C4%A0wenn%C4%A0sie%C4%A0
st%C4%A0du%C4%A0die%C4%A0Ursach e.</s>
anach .</s>
tw a%C4%A0
steig er
User:%C4%A0Was%C4%A0ist%C4%A0ein%C4%A0 Stadtst
Log s%C4%A0
tr ick
Log lin
kur si
e%C4%A0eine%C4%A0 List
Nor mal
Mondsch ei
wor k.</s>
.%C4%A0%C4%8AAssistant:%C4%A0 Spann
Men ge.</s>
ich%C4%A0geh en.%C4%A0%C4%8AAssistant:%C4%A0
User:%C4%A0%C3%83%C4%BEbersetze%C4%A0ins%C4%A0Englische:%C4%A0Ich%C4%A0 schreibe%C4%A0eine%C4%A0E%C4%A0Mail
%C4%A0%C4%8AAssistant:%C4%A0 20</s>
Puff er.</s>
ensystem ?%C4%A0%C4%8AAssistant:%C4%A0Eine%C4%A0Sonne%C4%A0
.%C4%A0Ich%C4%A0 lad
ssch leif
ass er
bess er%C4%A0geh
User:%C4%A0%C3%83%C4%BEbersetze%C4%A0ins%C4%A0Englische:%C4%A0Viel%C4%A0Spa%C3%83%C5%81.%C4%A0%C4%8AAssistant:%C4%A0H ave%C4%A0
tausch st%C4%A0du%C4%A0
User:%C4%A0Wie%C4%A0schreibe%C4%A0ich%C4%A0eine%C4%A0 Ver
Wet t
Rucksack .%C4%A0Morgen%C4%A0ist%C4%A0Ausflug.%C4%A0%C4%8AAssistant:%C4%A0Rucksack
auf %C4%A0dem%C4%A0
te%C4%A0 gern%C4%A0
ie%C4%A0 ge
.%C4%A0S auerstoff%C4%A0
Sch ad
einen%C4%A0 Plan
vera en
.%C4%A0Die%C4%A0 Tickets%C4%A0sind%C4%A0
Lernen?%C4%A0%C4%8AAssistant:%C4%A0Du%C4%A0 startest%C4%A0mit%C4%A0
je dem%C4%A0
helern en%C4%A0mit%C4%A0
Schall%C4%A0 breitet%C4%A0
tz u
Sp azier
Jahreszeit en?%C4%A0%C4%8AAssistant:%C4%A0Die%C4%A0Erde%C4%A0
P ipel
%C4%A0ai der.</s>
jour d'
po li
E s
im%C4%A0 Fokus.</s>
3 %C4%A0+%C4%A04
User:%C4%A0%C3%83%C4%BEbersetze%C4%A0ins%C4%A0Englische:%C4%A0Ich%C4%A0 mag%C4%A0Musik
Komp a
-Ket te?%C4%A0%C4%8AAssistant:%C4%A0Du%C4%A0
t%C4%A0 un%C4%A0
eu x
%C3%83 %C4%A2
st%C4%A0du%C4%A0 ab.</s>
en%C4%A0 Dank
Inflation?%C4%A0%C4%8AAssistant:%C4%A0Prei se%C4%A0steig
is %C4%A0d
kl einer%C4%A0
User:%C4%A0W ann%C4%A0
Heute%C4%A0ist%C4%A0Montag .%C4%A0%C4%8AAssistant:%C4%A0Today%C4%A0is%C4%A0Monday.</s>
H all
li o
ung?%C4%A0%C4%8AAssistant:%C4%A0Du%C4%A0 machst%C4%A0
such%C4%A0bei%C4%A0Oma %C4%A0mit%C4%A0
le.%C4%A0Dann%C4%A0 w%C3%83%C2%A4hlst%C4%A0du%C4%A0
0 0%C4%A0
%C3%83%C5%81e%C4%A0 ist%C4%A0
Konflikt .%C4%A0
o%C4%A0 Welt
.%C4%A0S tr
User:%C4%A0Was%C4%A0ist%C4%A0ein%C4%A0 K
es%C4%A0 einer%C4%A0
Bis%C4%A0 morgen.%C4%A0%C4%8AAssistant:%C4%A0
tion s
Demokratie ?%C4%A0%C4%8AAssistant:%C4%A0Das%C4%A0
gut .%C4%A0%C4%8AAssistant:%C4%A0Obst
De f
komplex en%C4%A0
R%C3%83%C2%A4um e.%C4%A0
Ge s
7,%C4%A0wie%C4%A0viel?%C4%A0%C4%8AAssistant:%C4%A0 2
.%C4%A0%C4%8AAssistant:%C4%A0H el
tr ansp
L atenz
Gute%C4%A0Nacht.%C4%A0%C4%8AAssistant:%C4%A0Good%C4%A0 n
voll .%C4%A0Wir%C4%A0
gute%C4%A0 Ide
Amazonas?%C4%A0%C4%8AAssistant:%C4%A0 In%C4%A0S%C3%83%C2%BCdamerik
Haupt teil
sprech en.</s>
reich en.%C4%A0
.%C4%A0Ein nahmen%C4%A0und%C4%A0Ausgab
%C3%83%C5%81e?%C4%A0%C4%8AAssistant:%C4%A0Ein%C4%A0 fr
K%C3%83%C2%B6rper%C4%A0 und%C4%A0
und%C4%A0ge faltet.</s>
User:%C4%A0%C3%83%C4%BEbersetze%C4%A0ins%C4%A0Englische:%C4%A0 %C3%83%C4%B8ffne%C4%A0das%C4%A0Fenster.%C4%A0%C4%8AAssistant:%C4%A0O
%C3%83%C5%81 en.</s>
User:%C4%A0 Median%C4%A0
User:%C4%A01 9
User:%C4%A0Was%C4%A0ist%C4%A0 Inflation?%C4%A0%C4%8AAssistant:%C4%A0Preise%C4%A0steig
fre sser%C4%A0
co le.</s>
Programm ier
reduz iert%C4%A0die%C4%A0
Rhythmus .%C4%A0
User:%C4%A0Fasse%C4%A0zusammen:%C4%A0Ich%C4%A0schreibe%C4%A0eine%C4%A0E%C4%A0Mail.%C4%A0Die%C4%A0 Antwort%C4%A0
l%C3%83%C2%A4 che%C4%A0
Sauerstoff %C4%A0
in t
Te e?%C4%A0%C4%8AAssistant:%C4%A0
.%C4%A0%C4%8AAssistant:%C4%A0Where%C4%A0is%C4%A0the%C4%A0 library.</s>
z%C3%83%C2%A4hl en.</s>
Regeln%C4%A0 sch%C3%83%C2%BCtzen%C4%A0Rechte.</s>
spr ache?%C4%A0%C4%8AAssistant:%C4%A0
mit%C4%A0 kurzen%C4%A0
Schwerk raft%C4%A0
w %C3%83%C2%B6rt
Mat he%C4%A0
oeste%C4%A0Salz e.</s>
feuch te%C4%A0Luft%C4%A0
im%C4%A0Kopf .</s>
Gegen war
Nachricht en.</s>
ier st%C4%A0du%C4%A0die%C4%A0
0%C4%A0 k
Per spek
und i.</s>
ohne%C4%A0Klische e?%C4%A0%C4%8AAssistant:%C4%A0
%C4%A0%C4%8AAssistant:%C4%A07 </s>
?%C4%A0%C4%8AAssistant:%C4%A0D en
g end
is%C4%A0 that.</s>
b an
function( ){%C4%A0console.log('
User:%C4%A0Fasse%C4%A0zusammen:%C4%A0Ich%C4%A0 wa
H on
weg lassen.</s>
Mat eri
d%C4%A0 C
%C3%83%C2%A4 t%C4%A0
kreis en%C4%A0
n line%C4%A0
bau ten%C4%A0
er%C4%A0 ist%C4%A0eine%C4%A0
st ern,%C4%A0
.%C4%A0%C4%8AAssistant:%C4%A0J%C4%A0ai%C4%A0 faim.</s>
User:%C4%A0%C3%83%C4%BEbersetze%C4%A0ins%C4%A0Franz%C3%83%C2%B6sische:%C4%A0 Wie%C4%A0sp%C3%83%C2%A4t%C4%A0ist%C4%A0es
y m
ick lung%C4%A0
Komp on
enrech te?%C4%A0%C4%8AAssistant:%C4%A0
d ie?%C4%A0%C4%8AAssistant:%C4%A0
rech n
stellst%C4%A0 Fragen.%C4%A0Dann%C4%A0
en.%C4%A0 Nutze%C4%A0
te%C4%A0 der%C4%A0
ung%C4%A0 naht,%C4%A0
e%C4%A0die%C4%A0 Bibliothek
Inter val
Vor trag
Demokratie?%C4%A0%C4%8AAssistant:%C4%A0Das%C4%A0 Vol
g reif
.%C4%A0%C4%8AAssistant:%C4%A0No%C4%A0prob lem
Danke%C4%A0 sch%C3%83%C2%B6n
Was%C4%A0 kostet%C4%A0das
verteil st%C4%A0du%C4%A0
r e%C4%A0
User:%C4%A0%C3%83%C4%BEbersetze%C4%A0ins%C4%A0Englische:%C4%A0Ich%C4%A0lerne%C4%A0 f%C3%83%C2%BCr%C4%A0die%C4%A0Pr%C3%83%C2%BCfung
Hinwei se.</s>
luess el
,%C4%A0wir%C4%A0blei ben%C4%A0d
Kompa ti
User:%C4%A0Was%C4%A0ist%C4%A0die%C4%A0 NA
tra in%C4%A0
User:%C4%A0%C3%83%C4%BEbersetze%C4%A0ins%C4%A0Englische:%C4%A0Wie%C4%A0sp%C3%83%C2%A4t%C4%A0ist%C4%A0es .%C4%A0%C4%8AAssistant:%C4%A0W
User:%C4%A0Wie%C4%A0entsteht%C4%A0 eine%C4%A0
Land .%C4%A0
h%C3%83%C2%A4ng igkeit
Checklist e.%C4%A0Dann%C4%A0
f eld
er setzen.</s>
e%C4%A0t%C3%83%C2%A4g lich%C4%A0
pp en.%C4%A0Dann%C4%A0
w%C3%83%C2%BCr f
%C3%83%C2%BCr bar%C4%A0machen.</s>
User:%C4%A0Was%C4%A0ist%C4%A0ein%C4%A0 Nerv
T hermom
Se m
ar ?%C4%A0%C4%8AAssistant:%C4%A0Ein%C4%A0r%C3%83%C2%B6
Szen e.</s>
I f
Zwe ck
d ow
!%C4%A0 Was%C4%A0
form anc
ge.%C4%A0Sie%C4%A0 l%C3%83%C2%B6st%C4%A0
Seite%C4%A0l%C3%83%C2%A4d t%C4%A0nicht.</s>
s%C4%A0 =%C4%A0
Kategori en.%C4%A0Dann%C4%A0
User:%C4%A0%C3%83%C4%BEbersetze%C4%A0ins%C4%A0Franz%C3%83%C2%B6sische:%C4%A0Ich%C4%A0bin%C4%A0m%C3%83%C2%BCde.%C4%A0%C4%8AAssistant:%C4%A0Je%C4%A0suis%C4%A0fatigu %C3%83%C2%A9.</s>
User:%C4%A0Fasse%C4%A0zusammen:%C4%A0Wir%C4%A0 h%C3%83%C2%B6r
gro ess
al d
.%C4%A0 Passend%C4%A0
Plu s?%C4%A0%C4%8AAssistant:%C4%A0
h .</s>
liest%C4%A0die%C4%A0 Aufgabe
.%C4%A0Die%C4%A0 Farben%C4%A0sind%C4%A0h
.%C4%A0Ich%C4%A0lad e%C4%A0das%C4%A0
k%C4%A0w%C3%83%C2%A4hlt.%C4%A0 Rechte%C4%A0
spielen%C4%A0Fu%C3%83%C5%81ball.%C4%A0%C4%8AAssistant:%C4%A0Nous%C4%A0jou ons%C4%A0
gu tem%C4%A0
u b
Rout ine%C4%A0
it at
s h.</s>
ar me%C4%A0
fahr en%C4%A0
lieg en%C4%A0
User:%C4%A0%C3%83%C4%BEbersetze%C4%A0ins%C4%A0Franz%C3%83%C2%B6sische:%C4%A0 Heute%C4%A0ist%C4%A0Montag.%C4%A0%C4%8AAssistant:%C4%A0Au
e%C4%A0d o%C4%A0you%C4%A0
li ff
st%C4%A0 Normal
,%C4%A0wie%C4%A0viel?%C4%A0%C4%8AAssistant:%C4%A0 30.%C4%A0Zehner%C4%A0
User:%C4%A0Was%C4%A0ist%C4%A0ein%C4%A0Staatsoberhaupt?%C4%A0%C4%8AAssistant:%C4%A0H%C3%83%C2%B6chste%C4%A0Person%C4%A0im%C4%A0Staat .%C4%A0Oft%C4%A0Pr%C3%83%C2%A4si
Info s
User:%C4%A0Wie%C4%A0schreibe%C4%A0ich%C4%A0Sch aup
g il
G ib%C4%A0
er folgt%C4%A0
sch%C3%83%C2%A4tz t%C4%A0
Audio .%C4%A0Du%C4%A0
User:%C4%A0Was%C4%A0ist%C4%A0ein%C4%A0Parlam ent?%C4%A0%C4%8AAssistant:%C4%A0Gew%C3%83%C2%A4hlte%C4%A0
i ti
Satz .%C4%A0
User:%C4%A02 1
infor mati
notier st%C4%A0den%C4%A0
kontr oll
e%C4%A0 =>%C4%A0
.%C4%A0%C4%8AAssistant:%C4%A0Leerer%C4%A0 Akku
.%C4%A0%C4%8AAssistant:%C4%A0 Quelle%C4%A0
Einleit ung?%C4%A0%C4%8AAssistant:%C4%A0
s?%C4%A0%C4%8AAssistant:%C4%A0Du%C4%A0 setzt%C4%A0
.%C4%A0%C4%8AAssistant:%C4%A0M %C3%83%C2%BCll%C4%A0raus,%C4%A0
Programm %C4%A0f%C3%83%C2%BCr%C4%A0
koch t.</s>
erzeu gen%C4%A0
User:%C4%A0Fasse%C4%A0zusammen:%C4%A0Wir%C4%A0h%C3%83%C2%B6r en%C4%A0
Antwor ten.</s>
?%C4%A0%C4%8AAssistant:%C4%A0Das%C4%A0 ist%C4%A0die%C4%A0
ide e.</s>
eine%C4%A0 Liste.%C4%A0Dann%C4%A0
Sch at
Spr ech
User:%C4%A0Wer%C4%A0war%C4%A0 Juli
%C3%83%C2%B6 g
zep tanz
User:%C4%A0%C3%83%C4%BEbersetze%C4%A0ins%C4%A0Franz%C3%83%C2%B6sische:%C4%A0Wie%C4%A0sp%C3%83%C2%A4t%C4%A0ist%C4%A0es .%C4%A0%C4%8AAssistant:%C4%A0Quelle%C4%A0
igkeit ?%C4%A0%C4%8AAssistant:%C4%A0Du%C4%A0
.%C4%A0Neu n%C4%A0
Sonnen lich
g %C3%83%C2%BCnst
gute%C4%A0Ide e
User:%C4%A0Wie%C4%A0strukturierst%C4%A0du%C4%A0 einen%C4%A0
User:%C4%A0Was%C4%A0ist%C4%A0ein%C4%A0 Magnet
Anteil %C4%A0
treff ende%C4%A0
ein mal
will%C4%A0 raus
.%C4%A0%C4%8AAssistant:%C4%A0Merci %C4%A0beau
se -
inter essant
ruh t,%C4%A0
,%C4%A0schnell?%C4%A0%C4%8AAssistant:%C4%A0 9
geteil t.%C4%A0
sauber .%C4%A0Dann%C4%A0
u ben%C4%A0
grupp ierst%C4%A0
ow n.</s>
Mittel al
T age.</s>
User:%C4%A0%C3%83%C4%BEbersetze%C4%A0ins%C4%A0Englische:%C4%A0Ich%C4%A0 bin%C4%A0bereit
Demokratie?%C4%A0%C4%8AAssistant:%C4%A0Das%C4%A0Vol k%C4%A0w%C3%83%C2%A4hlt.%C4%A0Rechte%C4%A0
com bien.</s>
A ction
erkl%C3%83%C2%A4r st%C4%A0
en%C4%A0 um?%C4%A0%C4%8AAssistant:%C4%A0Du%C4%A0
freund lich
%C3%83%C2%BCb e%C4%A0
z ig
%C3%83%C4%A6quator?%C4%A0%C4%8AAssistant:%C4%A0In%C4%A0der%C4%A0Mit te%C4%A0der%C4%A0
%C4%A0in%C4%A0 Mathe
t%C4%A0 wird.</s>
vor .</s>
kursi v
ol l%C4%A0
Da mpf%C4%A0
.%C4%A0%C4%8AAssistant:%C4%A0L a%C4%A0
t%C4%A0 Fahrra
satz %C4%A0
bei%C4%A0 Fehl
zeig en%C4%A0
l undi.</s>
Mensch enrechte?%C4%A0%C4%8AAssistant:%C4%A0
H %C3%83%C2%A4l
12 .%C4%A0
User:%C4%A0%C3%83%C4%BEbersetze%C4%A0ins%C4%A0Englische:%C4%A0Das%C4%A0ist%C4%A0 einfach
Reg en?%C4%A0%C4%8AAssistant:%C4%A0
Beispiele%C4%A0 geben.</s>
.%C4%A0Dann%C4%A0testest%C4%A0du%C4%A0 Beispiele.</s>
Wer t.%C4%A0Dann%C4%A0
.%C4%A0Halb ieren.</s>
ell st%C4%A0du%C4%A0
in .</s>
zweier%C4%A0 Gro
hat%C4%A0time%C4%A0is%C4%A0 i
) ,%C4%A0wie%C4%A0viel?%C4%A0%C4%8AAssistant:%C4%A0
ist%C4%A0eine%C4%A0 gute%C4%A0Idee
User:%C4%A0%C3%83%C4%BEbersetze%C4%A0ins%C4%A0Franz%C3%83%C2%B6sische:%C4%A0Ich%C4%A0hab e%C4%A0Zeit
User:%C4%A0Wie%C4%A0erstell st%C4%A0du%C4%A0ein%C4%A0
User:%C4%A0%C3%83%C4%BEbersetze%C4%A0ins%C4%A0Franz%C3%83%C2%B6sische:%C4%A0Kannst%C4%A0du%C4%A0helfen.%C4%A0%C4%8AAssistant:%C4%A0 Tu%C4%A0p
User:%C4%A0Was%C4%A0ist%C4%A0ein%C4%A0 S
s regeln%C4%A0
kleine%C4%A0 Schritte.</s>
Kann st%C4%A0du%C4%A0das%C4%A0
L%C3%83%C2%B6s ungen.</s>
?%C4%A0%C4%8AAssistant:%C4%A0Du%C4%A0schreib st%C4%A0das%C4%A0
User:%C4%A0Was%C4%A0ist%C4%A0die%C4%A0NA TO
en dest%C4%A0du%C4%A0
%C3%83%C2%A4t te%C4%A0gern%C4%A0
User:%C4%A0%C3%83%C4%BEbersetze%C4%A0ins%C4%A0Franz%C3%83%C2%B6sische:%C4%A0 Eine%C4%A0Fahrkarte%C4%A0bitte.%C4%A0%C4%8AAssistant:%C4%A0
w ohne%C4%A0in%C4%A0Berlin
st ag
St%C3%83%C2%A4d te%C4%A0
geh %C3%83%C2%B6rt%C4%A0
e.%C4%A0 Keine%C4%A0
hy si
a ,%C4%A0
g ern
at en.%C4%A0
trinke%C4%A0Wasser.%C4%A0%C4%8AAssistant:%C4%A0I%C4%A0drink%C4%A0 water.</s>
en%C4%A0 eine%C4%A0
Audio.%C4%A0Du%C4%A0 h%C3%83%C2%B6rst%C4%A0
Par is
sta at%C4%A0in%C4%A0
t%C4%A0die%C4%A0 Handl
arte s%C4%A0
prob l%C3%83%C2%A8me.</s>
Br %C3%83%C2%B6t
%C3%83%C2%A4r m%C4%A0mit%C4%A0Kopfh%C3%83%C2%B6r
toi%C4%A0 s%C4%A0il%C4%A0te%C4%A0plait.</s>
Ver gang
sin n
L%C3%83%C2%BCck en%C4%A0
W%C3%83%C2%B6rter%C4%A0 sammeln.</s>
Konflikt en%C4%A0vor?%C4%A0%C4%8AAssistant:%C4%A0Du%C4%A0
%C3%83%C2%A4n ge.</s>
st%C4%A0du%C4%A0d igitale%C4%A0
verteil en.</s>
reich ?%C4%A0%C4%8AAssistant:%C4%A0
.%C4%A0Er%C4%A0wurde%C4%A0 Kaiser.</s>
fluss ?%C4%A0%C4%8AAssistant:%C4%A0Du%C4%A0
a %C3%83%C5%81e%C4%A0ist%C4%A0
umm er
Wasser%C4%A0 umgeben.</s>
N%C3%83%C2%BCtzliche%C4%A0 Notiz
kal t.%C4%A0Ich%C4%A0
Es%C4%A0tut%C4%A0mir%C4%A0leid .%C4%A0%C4%8AAssistant:%C4%A0I%C4%A0am%C4%A0
gut.%C4%A0%C4%8AAssistant:%C4%A0Obst mark
lernen%C4%A0 Englisch
An zahl
Z em
18 .</s>
M ind
t%C4%A0 bleibt%C4%A0
ge putzt,%C4%A0
t ?%C4%A0%C4%8AAssistant:%C4%A0Du%C4%A0nutzt%C4%A0
User:%C4%A0Ver hindere%C4%A0
?%C4%A0%C4%8AAssistant:%C4%A0Ein%C4%A0 Fluss
tion%C4%A0 ist%C4%A0
wiederhol t%C4%A0
mitt l
In n
e%C4%A0 ri
ing%C4%A0 a%C4%A0
ssch rit
od ca
ziere%C4%A0 mit%C4%A0dem%C4%A0
6 4
sp %C3%83%C2%BCrbar%C4%A0machen.</s>
Kon sistenz
gibt%C4%A0es%C4%A0 O
Sti ck
ticket%C4%A0 please.</s>
Star tzu
lich%C4%A0bleib en.</s>
User:%C4%A0Wie%C4%A0schreibe%C4%A0ich%C4%A0 treffende%C4%A0
%C4%A0+%C4%A01 1
teil st%C4%A0du.</s>
Bibliothe k%C4%A0
Volum en.</s>
bedeutet,%C4%A0d ass
wei se%C4%A0
Bund%C4%A0 und%C4%A0L%C3%83%C2%A4nder%C4%A0
ah ei
User:%C4%A0%C3%83%C4%BEbersetze%C4%A0ins%C4%A0Franz%C3%83%C2%B6sische:%C4%A0Wo%C4%A0 ist%C4%A0der%C4%A0Bahnhof.%C4%A0%C4%8AAssistant:%C4%A0O%C3%83%C2%B9%C4%A0est%C4%A0la%C4%A0g
.%C4%A0Es%C4%A0 riecht%C4%A0
besser .%C4%A0%C4%8AAssistant:%C4%A0M%C3%83%C2%BCll%C4%A0raus,%C4%A0
Stakeh ol
in%C4%A0JS.%C4%A0%C4%8AAssistant:%C4%A0se t
.%C4%A0%C4%8AAssistant:%C4%A0I%C4%A0am%C4%A0 looking%C4%A0
.%C4%A0Null%C4%A0 %C3%83%C2%A4ndert%C4%A0nichts.</s>
%C4%A0 bleibt.</s>
er%C4%A0 Wandel
G l
Schall%C4%A0breitet%C4%A0 sich%C4%A0in%C4%A0
bi lit%C3%83%C2%A4t?%C4%A0%C4%8AAssistant:%C4%A0Du%C4%A0
k riteri
T it
x%C4%A0t u%C4%A0
ig ht.</s>
Dau er.%C4%A0Dann%C4%A0
User:%C4%A0Wo%C4%A0liegt%C4%A0der%C4%A0 %C3%83%C4%A6quator?%C4%A0%C4%8AAssistant:%C4%A0In%C4%A0der%C4%A0Mitte%C4%A0der%C4%A0
au lt
en%C4%A0 Oma
tiv e?%C4%A0%C4%8AAssistant:%C4%A0
We b
,%C4%A0 Handy%C4%A0
Inf o%C4%A0
erkl%C3%83%C2%A4rt%C4%A0langsam.%C4%A0 Alle%C4%A0versteh
u%C4%A0habites%C4%A0o%C3%83%C2%B9 .</s>
antwor ten.</s>
t?%C4%A0%C4%8AAssistant:%C4%A0 M
%C3%83%C4%BEberg%C3%83%C2%A4n ge%C4%A0
ord in
Tag ?%C4%A0%C4%8AAssistant:%C4%A0Du%C4%A0
sp%C3%83%C2%A4 ter%C4%A0
Fahrrad%C4%A0qu ietsch
.%C4%A0W enig%C4%A0
such e%C4%A0die%C4%A0Bibliothek
ier ung%C4%A0
Pr%C3%83%C2%BCfung%C4%A0ist%C4%A0b ald
sel ten
h%C3%83%C2%B6r en.</s>
German y.</s>
brauch .</s>
W ie%C4%A0viel%C4%A0kostet%C4%A0das
f oku
de m.</s>
User:%C4%A0Wie%C4%A0gehst%C4%A0du%C4%A0mit%C4%A0 neuen%C4%A0
en%C4%A0 ordn
User:%C4%A0%C3%83%C4%BEbersetze%C4%A0ins%C4%A0Franz%C3%83%C2%B6sische:%C4%A0Wie%C4%A0sp%C3%83%C2%A4t%C4%A0ist%C4%A0es.%C4%A0%C4%8AAssistant:%C4%A0Quelle%C4%A0 heur
andhi?%C4%A0%C4%8AAssistant:%C4%A0Ein%C4%A0 Anf%C3%83%C2%BChrer%C4%A0aus%C4%A0In
Le se
e d.</s>
hand elt%C4%A0
Tag %C4%A0und%C4%A0Nach
User:%C4%A0 Selektiere%C4%A0
=' bild
Ar t.%C4%A0Dann%C4%A0
User:%C4%A0Was%C4%A0ist%C4%A0ein%C4%A0Kontin ent?%C4%A0%C4%8AAssistant:%C4%A0
W %C3%83%C2%A4sche.%C4%A0Danach%C4%A0fal
S and
User:%C4%A03 /
arbei tet%C4%A0
User:%C4%A0Was%C4%A0ist%C4%A0der%C4%A0Himalaya ?%C4%A0%C4%8AAssistant:%C4%A0Ein%C4%A0Gebir
%C3%83%C2%A9 sol
ter%C4%A0 Laptop,%C4%A0
gel%C3%83%C2%B6 st.</s>
Der%C4%A0 Bus%C4%A0kommt%C4%A0
ultipli ziere%C4%A0mit%C4%A0dem%C4%A0
User:%C4%A0Fasse%C4%A0zusammen:%C4%A0Ich%C4%A0 %C3%83%C2%BCbe%C4%A0
e?%C4%A0%C4%8AAssistant:%C4%A0 Was%C4%A0
Schn itt
F oto
?%C4%A0%C4%8AAssistant:%C4%A0Den ke%C4%A0
Ar g
.%C4%A0S trom%C4%A0
User:%C4%A0Fasse%C4%A0zusammen:%C4%A0Ich%C4%A0trinke%C4%A0Tee.%C4%A0Er%C4%A0w%C3%83%C2%A4rm t%C4%A0gut
prob ierst%C4%A0
alitaet s
Paar e.%C4%A0
User:%C4%A0Wie%C4%A0planst%C4%A0du%C4%A0 Erfolg
r ist
en te
lauf .</s>
poli ti
spar t%C4%A0
Vor schlag
Ver sch
all en.</s>
User:%C4%A0%C3%83%C4%BEbersetze%C4%A0ins%C4%A0Englische:%C4%A0%C3%83%C4%B8ffne%C4%A0das%C4%A0Fenster.%C4%A0%C4%8AAssistant:%C4%A0O pen%C4%A0the%C4%A0window.</s>
bark eit%C4%A0
lin e
User:%C4%A0%C3%83%C4%BEbersetze%C4%A0ins%C4%A0Franz%C3%83%C2%B6sische:%C4%A0Wie%C4%A0geht%C4%A0es%C4%A0dir.%C4%A0%C4%8AAssistant:%C4%A0Comment%C4%A0 %C3%83%C2%A7a%C4%A0va.</s>
dig t.</s>
ein%C4%A0 K%C3%83%C2%B6nig.</s>
User:%C4%A0%C3%83%C4%BEbersetze%C4%A0ins%C4%A0Englische:%C4%A0 Bis%C4%A0sp%C3%83%C2%A4ter.%C4%A0%C4%8AAssistant:%C4%A0
un .</s>
User:%C4%A0Was%C4%A0ist%C4%A0ein%C4%A0 Liter
li t%C4%A0un%C4%A0
is%C4%A0d %C3%83%C2%A9sol
Katze%C4%A0 ruht,%C4%A0
Sie%C4%A0f%C3%83%C2%A4hrt%C4%A0m it
User:%C4%A0%C3%83%C4%BEbersetze%C4%A0ins%C4%A0Franz%C3%83%C2%B6sische:%C4%A0Ich%C4%A0 mag%C4%A0Musik
User:%C4%A0F%C3%83%C2%BCge%C4%A0 ein%C4%A0
?%C4%A0%C4%8AAssistant:%C4%A0Ein%C4%A0 fr
Feedback %C4%A0
Mon ol
sche h
Pass w%C3%83%C2%B6rter
si tz
Ver such
.%C4%A0%C4%8AAssistant:%C4%A0I%C4%A0am%C4%A0 ready.</s>
User:%C4%A0Wie%C4%A0pr%C3%83%C2%BCfst%C4%A0du,%C4%A0 ob
%C4%A0-%C4%A0 8
n%C3%83%C2%A4ch sten%C4%A0
. j
Spr%C3%83%C2%BCn ge.</s>
neu .</s>
Kon j
%C3%83%C2%A4tte%C4%A0gern%C4%A0 Wasser
einflu s
Be st
oku .%C4%A0Dann%C4%A0
ein bauen.</s>
aus%C4%A0Deutschland.%C4%A0%C4%8AAssistant:%C4%A0I%C4%A0am%C4%A0 from%C4%A0
g%C3%83%C2%BCnst ig
ach ten.%C4%A0
.%C4%A0Die%C4%A0 Seite%C4%A0l%C3%83%C2%A4dt%C4%A0nicht.%C4%A0%C4%8AAssistant:%C4%A0
Block .</s>
y Id('
Erkl%C3%83%C2%A4r ung,%C4%A0
User:%C4%A0Wo%C4%A0liegt%C4%A0der%C4%A0Nil ?%C4%A0%C4%8AAssistant:%C4%A0In%C4%A0Afrika.%C4%A0Er%C4%A0
fest .%C4%A0Dann%C4%A0
User:%C4%A0Wie%C4%A0st ellst%C4%A0du%C4%A0
su mm
%C3%83%C4%A6nder ungen%C4%A0
User:%C4%A0Wie%C4%A0 suchst%C4%A0du%C4%A0
hin zu.</s>
S krip
User:%C4%A0 0
t ni
music .</s>
Einf luss.%C4%A0Dann%C4%A0
Szen en.%C4%A0
Seif e%C4%A0
Perspek tive%C4%A0
Red und
Tr ends%C4%A0
hat%C4%A0 wenig%C4%A0
sor ry.</s>
be achten.%C4%A0
schreib en%C4%A0einen%C4%A0
%C3%83%C2%A4 ischer%C4%A0
%C3%83%C2%A4 olog
User:%C4%A0Wie%C4%A0 protokolli
.%C4%A0Du%C4%A0add ierst%C4%A0die%C4%A0
User:%C4%A0%C3%83%C4%BEbersetze%C4%A0ins%C4%A0Englische:%C4%A0Wir%C4%A0 kochen%C4%A0heute
Keine%C4%A0 offenen%C4%A0
f%C3%83%C2%BChr st%C4%A0
Din ge
%C4%A0besoin%C4%A0d %C4%A0ai
h 1
Konflikt .%C4%A0G
Kein%C4%A0Problem .%C4%A0%C4%8AAssistant:%C4%A0No%C4%A0problem
Far be
Restor e%C4%A0
a f
Br%C3%83%C2%B6t ch
User:%C4%A0%C3%83%C4%BEbersetze%C4%A0ins%C4%A0Franz%C3%83%C2%B6sische:%C4%A0Eine%C4%A0Fahrkarte%C4%A0bitte.%C4%A0%C4%8AAssistant:%C4%A0 U
st ich
Inhal t.</s>
User:%C4%A0%C3%83%C4%BEbersetze%C4%A0ins%C4%A0Englische:%C4%A0Wir%C4%A0haben%C4%A0Zeit.%C4%A0%C4%8AAssistant:%C4%A0We%C4%A0have%C4%A0 time.</s>
W%C3%83%C2%B6rter .</s>
Engli sh.</s>
Redund anz
User:%C4%A0%C3%83%C4%BEbersetze%C4%A0ins%C4%A0Englische:%C4%A0 Kein%C4%A0Problem.%C4%A0%C4%8AAssistant:%C4%A0No%C4%A0problem
lag %C4%A0
%C3%83%C4%A6nder ungen.</s>
Ber eich%C4%A0
A m
di al
t%C4%A0 statt%C4%A0
schnell er.</s>
.%C4%A0M acht%C4%A0
stark er%C4%A0
%C3%83%C4%A2 %C4%A0plus%C4%A0
%C4%A0 vor%C4%A0
verteilst%C4%A0du%C4%A0 Aufgaben.</s>
plo ts?%C4%A0%C4%8AAssistant:%C4%A0
ni tive%C4%A0La
.%C4%A0Ich%C4%A0 wiederhole%C4%A0
on%C4%A0wird%C4%A0bun t.%C4%A0%C4%8AAssistant:%C4%A0
User:%C4%A0Fasse%C4%A0zusammen:%C4%A0Wir%C4%A0plan en%C4%A0eine%C4%A0
%C3%83%C4%A2%C4%A0plus%C4%A0 tard.</s>
Handy .%C4%A0%C4%8AAssistant:%C4%A0Leerer%C4%A0Akku
M ent
?%C4%A0%C4%8AAssistant:%C4%A0Ein%C4%A0 Ergebnis%C4%A0
e s?%C4%A0%C4%8AAssistant:%C4%A0
bei%C4%A0Fehl ern.</s>
D uplik
Auf %C4%A0dem%C4%A0
0 );</s>
l%C4%A0 in%C4%A0
M ultipliziere%C4%A0mit%C4%A0dem%C4%A0
.%C4%A0%C4%8AAssistant:%C4%A0J%C4%A0ai %C4%A0besoin%C4%A0d%C4%A0ai
Wasser tr
Nous%C4%A0 cuisin
Zust%C3%83%C2%A4n de
st%C4%A0du%C4%A0d oppel
.%C4%A0%C4%8AAssistant:%C4%A0%C3%83%C4%A9 a%C4%A0
mag%C4%A0 Lesen
User:%C4%A0Wie%C4%A0schreibe%C4%A0ich%C4%A0 Wett
st%C4%A0d oppel
en.%C4%A0%C4%8AAssistant:%C4%A0 T%C3%83%C2%A4gliches%C4%A0Git
A%C4%A0 ticket%C4%A0please.</s>
Pass iv
?%C4%A0%C4%8AAssistant:%C4%A0Ein%C4%A0 Programm%C4%A0f%C3%83%C2%BCr%C4%A0
ing er.</s>
User:%C4%A0Fasse%C4%A0zusammen:%C4%A0Wir%C4%A0 pflanz
Qu ad
%C3%83%C4%BEb e%C4%A0
User:%C4%A0%C3%83%C4%BEbersetze%C4%A0ins%C4%A0Franz%C3%83%C2%B6sische:%C4%A0Kannst%C4%A0du%C4%A0helfen.%C4%A0%C4%8AAssistant:%C4%A0Tu%C4%A0p eux
%C4%A0ist%C4%A0 ein%C4%A0
t%C4%A0die%C4%A0Reg ierung.</s>
erg %C3%83%C2%A4n
k eine%C4%A0
User:%C4%A0Was%C4%A0ist%C4%A0Arch %C3%83%C2%A4olog
Ver besser
la%C4%A0bi b
einfach en%C4%A0
odca st
ne un.</s>
Berg %C4%A0der%C4%A0
der n%C4%A0
?%C4%A0%C4%8AAssistant:%C4%A0 Spannung%C4%A0
.%C4%A0 Kurzer%C4%A0
User:%C4%A0Fasse%C4%A0zusammen:%C4%A0Ich%C4%A0 pack
User:%C4%A0Was%C4%A0ist%C4%A0die%C4%A0UNO ?%C4%A0%C4%8AAssistant:%C4%A0Staatenbund.%C4%A0
h%C3%83%C2%A4lt st%C4%A0du%C4%A0die%C4%A0
%C3%83%C2%A4 ter%C4%A0
.%C4%A0%C4%8AAssistant:%C4%A0How%C4%A0mu ch%C4%A0
konse quent.</s>
.%C4%A0%C4%8AAssistant:%C4%A0St ark
ein%C4%A0 Ergebni
s zen
er leg
f unktion
Gr%C3%83%C2%BCn de.</s>
geschicht en?%C4%A0%C4%8AAssistant:%C4%A0
bekomm st%C4%A0
0%C4%A0 Prozent%C4%A0von%C4%A0
.%C4%A0Dann%C4%A0such st%C4%A0du%C4%A0die%C4%A0Ursache.</s>
ony misier
Bein e.</s>
komm un
m y%C4%A0
cienc e.</s>
off %C4%A0
St %C3%83%C2%A4rke%C4%A0
o ?%C4%A0%C4%8AAssistant:%C4%A0
Emp fehl
z %C3%83%C2%BC
F l%C3%83%C2%A4che%C4%A0
ver wal
C SS
Pa y
%C4%A0eines%C4%A0 Staates
sich er.</s>
st%C4%A0du%C4%A0 Ergebnisse.</s>
entscheidest%C4%A0du%C4%A0 j
h %C3%83%C2%A4tte%C4%A0gern%C4%A0Wasser
Sprech er%C4%A0
%C3%83%C2%AA t.</s>
tanz en%C4%A0
Mach t.</s>
Tr ends.</s>
User:%C4%A0Wie%C4%A0schreibe%C4%A0ich%C4%A0Figur en
B re
og en?%C4%A0%C4%8AAssistant:%C4%A0
B lau
%C3%83%C2%BC ste
Ko ordin
Variab l
Ein%C4%A0 B
User:%C4%A0Fasse%C4%A0zusammen:%C4%A0 Auf%C4%A0dem%C4%A0
gel oeste%C4%A0Salze.</s>
ge .%C4%A0
Erkl%C3%83%C2%A4r ung.%C4%A0
geb enen%C4%A0
als%C4%A0 Figur
entsteht%C4%A0 aus%C4%A0
Itali en.</s>
%C4%A0de%C4%A0 probl%C3%83%C2%A8me.</s>
isches%C4%A0Bro t%C4%A0mit%C4%A0
.%C4%A0S pr
gebni ss
la euf
User:%C4%A0%C3%83%C4%BEbersetze%C4%A0ins%C4%A0Franz%C3%83%C2%B6sische:%C4%A0 Gute%C4%A0Nacht.%C4%A0%C4%8AAssistant:%C4%A0Bonne%C4%A0
Zustand s
Sie%C4%A0f%C3%83%C2%A4hr t%C4%A0Fahrra
Geld .%C4%A0Einnahmen%C4%A0und%C4%A0Ausgab
st%C4%A0du%C4%A0 tausch
wir ft%C4%A0
User:%C4%A0Wie%C4%A0 vergleichst%C4%A0du%C4%A0
User:%C4%A0%C3%83%C4%BEbersetze%C4%A0ins%C4%A0Franz%C3%83%C2%B6sische:%C4%A0Bis%C4%A0sp%C3%83%C2%A4ter.%C4%A0%C4%8AAssistant:%C4%A0 %C3%83%C4%A2%C4%A0plus%C4%A0tard.</s>
t.%C4%A0%C4%8AAssistant:%C4%A0 Katze%C4%A0ruht,%C4%A0
Ak zeptanz
kochen%C4%A0 heu
ar l%C4%A0der%C4%A0
User:%C4%A0Wie%C4%A0 hei%C3%83%C5%81t%C4%A0die%C4%A0
verbin dest%C4%A0du%C4%A0
User:%C4%A0Fasse%C4%A0zusammen:%C4%A0Ich%C4%A0trinke%C4%A0Tee.%C4%A0Er%C4%A0w%C3%83%C2%A4rmt%C4%A0gut .%C4%A0%C4%8AAssistant:%C4%A0W
ell .%C4%A0%C4%8AAssistant:%C4%A0Hel
gut en%C4%A0
User:%C4%A0Wie%C4%A0planst%C4%A0du%C4%A0 Lernziel
schnell er?%C4%A0%C4%8AAssistant:%C4%A0
k ra
ang st?%C4%A0%C4%8AAssistant:%C4%A0
geteilt.%C4%A0 Bund%C4%A0und%C4%A0L%C3%83%C2%A4nder%C4%A0
Fl%C3%83%C2%A4ch e.</s>
kl ernen%C4%A0vor
untersch eid
?%C4%A0%C4%8AAssistant:%C4%A0Du%C4%A0 markierst%C4%A0
D ruck
Pr%C3%83%C2%A4sent ation?%C4%A0%C4%8AAssistant:%C4%A0Du%C4%A0
User:%C4%A0%C3%83%C4%BEbersetze%C4%A0ins%C4%A0Franz%C3%83%C2%B6sische:%C4%A0Ich%C4%A0habe%C4%A0Hunger .%C4%A0%C4%8AAssistant:%C4%A0J%C4%A0ai%C4%A0faim.</s>
ou t%C4%A0
z erleg
Z itat
bil den%C4%A0
e%C4%A0d ich
Neu es%C4%A0
User:%C4%A0Wo%C4%A0liegt%C4%A0der%C4%A0 Amazonas?%C4%A0%C4%8AAssistant:%C4%A0In%C4%A0S%C3%83%C2%BCdamerik
tex t
?%C4%A0%C4%8AAssistant:%C4%A0Wind%C4%A0 schiebt%C4%A0
herr sch
und zwanz
Reise .%C4%A0Das%C4%A0
Inselgrupp e.%C4%A0
Po in
Nenn e%C4%A0
M illi
gute%C4%A0 Einleitung?%C4%A0%C4%8AAssistant:%C4%A0
Nutz en.%C4%A0Dann%C4%A0
User:%C4%A0Wie%C4%A0schreibe%C4%A0ich%C4%A0F an
xi d%C4%A0
?%C4%A0%C4%8AAssistant:%C4%A0Du%C4%A0 liest%C4%A0
.%C4%A0Dann%C4%A0 stell
9 ?%C4%A0%C4%8AAssistant:%C4%A0
.%C4%A0Dann%C4%A0pr%C3%83%C2%BCfst%C4%A0du%C4%A0 Grenzen.</s>
st%C4%A0du%C4%A0tausch en.</s>
scher%C4%A0 Herrscher
ung%C4%A0 mit%C4%A0
Ausflug .</s>
ie d
T aten.%C4%A0
male%C4%A0ein%C4%A0Bild .%C4%A0Die%C4%A0Farben%C4%A0sind%C4%A0h
B %C3%83%C2%BCch
ad en.</s>
Ordn er?%C4%A0%C4%8AAssistant:%C4%A0Du%C4%A0nutzt%C4%A0
Unterr icht.</s>
Figur ,%C4%A0
Bundes land
bst.%C4%A0Die%C4%A0 Prei
e%C4%A0do%C4%A0you%C4%A0 li
JSON%C4%A0 in%C4%A0JS.%C4%A0%C4%8AAssistant:%C4%A0let%C4%A0
An forder
Prozent .%C4%A0Neuer%C4%A0
f%C3%83%C2%BCr %C4%A0deine%C4%A0Zeit
.%C4%A0%C4%8AAssistant:%C4%A0I%C4%A0have%C4%A0 time.</s>
Ge st
klar %C4%A0
zeit ?%C4%A0%C4%8AAssistant:%C4%A0Du%C4%A0
?%C4%A0%C4%8AAssistant:%C4%A0Du%C4%A0listest%C4%A0 Aufgaben.%C4%A0Dann%C4%A0
O h
Rep ub
reich t.</s>
User:%C4%A0Fasse%C4%A0zusammen:%C4%A0Das%C4%A0 Fahrrad%C4%A0quietsch
User:%C4%A0%C3%83%C4%BEbersetze%C4%A0ins%C4%A0Englische:%C4%A0Wie%C4%A0sp%C3%83%C2%A4t%C4%A0ist%C4%A0es.%C4%A0%C4%8AAssistant:%C4%A0W hat%C4%A0time%C4%A0is%C4%A0i
Laptop%C4%A0ist%C4%A0al t.%C4%A0Er%C4%A0
bo ok.</s>
User:%C4%A0Fasse%C4%A0zusammen:%C4%A0Die%C4%A0Katze%C4%A0schl%C3%83%C2%A4 ft.%C4%A0Der%C4%A0
W art
User:%C4%A0Was%C4%A0ist%C4%A0ein%C4%A0Stadtst a
ni s.%C4%A0
User:%C4%A0Fasse%C4%A0zusammen:%C4%A0Ich%C4%A0lerne%C4%A0 Mathe.%C4%A0Die%C4%A0
Ergebniss e?%C4%A0%C4%8AAssistant:%C4%A0Du%C4%A0
%C3%83%C5%81 e?%C4%A0%C4%8AAssistant:%C4%A0
Problem .</s>
Staaten.%C4%A0 F%C3%83%C2%BCr%C4%A0
,%C4%A0Ergebnis?%C4%A0%C4%8AAssistant:%C4%A0 30
User:%C4%A0Wie%C4%A0schreibe%C4%A0ich%C4%A0eine%C4%A0 E-Mail
?%C4%A0%C4%8AAssistant:%C4%A0Du%C4%A0nutzt%C4%A0 klare%C4%A0
hilf t.</s>
trinke%C4%A0Te e
%C3%83%C2%AA tr
r at
plan en.</s>
trinke%C4%A0Wasser.%C4%A0%C4%8AAssistant:%C4%A0Je%C4%A0bo is%C4%A0de%C4%A0l%C4%A0eau.</s>
User:%C4%A0Fasse%C4%A0zusammen:%C4%A0Der%C4%A0 Zug
re ale%C4%A0
User:%C4%A0Was%C4%A0ist%C4%A0eine%C4%A0Dikt atur
f el
Ein trag%C4%A0
Dialog ?%C4%A0%C4%8AAssistant:%C4%A0
en?%C4%A0%C4%8AAssistant:%C4%A0W ort
ch%C4%A0 schnell.%C4%A0%C4%8AAssistant:%C4%A0Al
.%C4%A0M erk
ie%C4%A0 und%C4%A0
,%C4%A0wir%C4%A0bleiben%C4%A0d ahei
in%C4%A0der%C4%A0 Bibliothek
Entscheid ungs
f%C3%83%C2%BCr %C4%A0den%C4%A0
gutem%C4%A0 Duf
s zene?%C4%A0%C4%8AAssistant:%C4%A0
%C4%A0%C4%8AAssistant:%C4%A01 8</s>
at en
User:%C4%A0%C3%83%C4%BEbersetze%C4%A0ins%C4%A0Franz%C3%83%C2%B6sische:%C4%A0Wo%C4%A0ist%C4%A0der%C4%A0Bahnhof.%C4%A0%C4%8AAssistant:%C4%A0O%C3%83%C2%B9%C4%A0est%C4%A0la%C4%A0g are.</s>
tigk eit%C4%A0
Auto%C4%A0ist%C4%A0 schnell
Ber%C3%83%C2%BCh m
an ge
zwei%C4%A0 We
m ultiplizier
bin%C4%A0bereit.%C4%A0%C4%8AAssistant:%C4%A0Je%C4%A0suis%C4%A0pr %C3%83%C2%AAt.</s>
User:%C4%A0Selektiere%C4%A0 per%C4%A0
au ss
kurze%C4%A0 Fragen.</s>
besser%C4%A0geh t.</s>
Frage .%C4%A0O
Komp lex
f%C3%83%C2%BCr s%C4%A0
ei erst%C4%A0
Erd be
erwarte tes%C4%A0
User:%C4%A0%C3%83%C4%BEbersetze%C4%A0ins%C4%A0Franz%C3%83%C2%B6sische:%C4%A0 Es%C4%A0tut%C4%A0mir%C4%A0leid
ste x
Fol ge%C4%A0
L %C4%A0
Nous%C4%A0cuisin ons%C4%A0au
User:%C4%A0Was%C4%A0ist%C4%A0ein%C4%A0 Algorithmus?%C4%A0%C4%8AAssistant:%C4%A0
Bi enen%C4%A0
User:%C4%A0Fasse%C4%A0zusammen:%C4%A0Ich%C4%A0trinke%C4%A0Tee.%C4%A0Er%C4%A0w%C3%83%C2%A4rmt%C4%A0gut.%C4%A0%C4%8AAssistant:%C4%A0W %C3%83%C2%A4rmender%C4%A0Tee.</s>
lie f%C4%A0gut
User:%C4%A0Wie%C4%A0melde st%C4%A0du%C4%A0dich%C4%A0
ge gebenen%C4%A0
Puf fer
Ein%C4%A0 E
Be darf
User:%C4%A0Fasse%C4%A0zusammen:%C4%A0Der%C4%A0 Akku%C4%A0ist%C4%A0leer
z it
User:%C4%A0%C3%83%C4%BEbersetze%C4%A0ins%C4%A0Franz%C3%83%C2%B6sische:%C4%A0Eine%C4%A0Fahrkarte%C4%A0bitte.%C4%A0%C4%8AAssistant:%C4%A0U n%C4%A0
Ein%C4%A0 C
User:%C4%A0Wer%C4%A0war%C4%A0Juli us%C4%A0C
nach%C4%A0 Schwierigkeit.</s>
.%C4%A0%C4%8AAssistant:%C4%A0Mat helernen%C4%A0mit%C4%A0
User:%C4%A0Fasse%C4%A0zusammen:%C4%A0 Im%C4%A0
.%C4%A0S onne%C4%A0
?%C4%A0%C4%8AAssistant:%C4%A0Du%C4%A0 kl%C3%83%C2%A4rst%C4%A0
en .%C4%A0Drei%C4%A0
Sinnes det
el li
Up d
ung?%C4%A0%C4%8AAssistant:%C4%A0Du%C4%A0 vergleichst%C4%A0
Re st
besteh en%C4%A0
l%C3%83%C2%B6 sen.</s>
wind igkeit%C4%A0
t.%C4%A0Ich%C4%A0%C3%83%C2%B6l e%C4%A0die%C4%A0
se%C4%A0 Musik
B o
D enk
Ne bel
ko g
ti de
Konj unktion
ar tig
um?%C4%A0%C4%8AAssistant:%C4%A0Du%C4%A0merkst%C4%A0d ir%C4%A0das%C4%A0
Ab nahm
auf %C4%A0und%C4%A0
Fil m
27 .</s>
ung%C4%A0 wecken.</s>
r c
.%C4%A0Sp ann
Antwor ten.%C4%A0Dann%C4%A0
.%C4%A0%C4%8AAssistant:%C4%A0I%C4%A0like%C4%A0 music.</s>
.%C4%A0Zehner%C4%A0teil en.</s>
Bit te%C4%A0
arme%C4%A0 feuchte%C4%A0Luft%C4%A0
( function(){%C4%A0console.log('
4 2
bedeutet%C4%A0d ass%C4%A0die%C4%A0
.%C4%A0%C4%8AAssistant:%C4%A0 Pr%C3%83%C2%BCf
Er%C4%A0liest%C4%A0eine%C4%A0Zeit ung
w%C3%83%C2%BCrf eln
User:%C4%A0Was%C4%A0ist%C4%A0Inflation?%C4%A0%C4%8AAssistant:%C4%A0Preise%C4%A0steig en.%C4%A0G
on%C4%A0 und%C4%A0
User:%C4%A0Wie%C4%A0 teste
sie%C4%A0auf .%C4%A0Dann%C4%A0pr%C3%83%C2%BCfst%C4%A0du%C4%A0
ohn e%C4%A0d
st%C4%A0du%C4%A0einen%C4%A0 Plan
c a.</s>
Grav it
bleibt%C4%A0an.%C4%A0%C4%8AAssistant:%C4%A0O nline%C4%A0
%C4%A0determin istisch
Spe zifik
en%C4%A0Blumen.%C4%A0Der%C4%A0Balk on%C4%A0wird%C4%A0bunt.%C4%A0%C4%8AAssistant:%C4%A0
.%C4%A0%C4%8AAssistant:%C4%A0Merci%C4%A0beau co
bleib t?%C4%A0%C4%8AAssistant:%C4%A0
?%C4%A0%C4%8AAssistant:%C4%A0D rei%C4%A0
alit %C3%83%C2%A4t?%C4%A0%C4%8AAssistant:%C4%A0
fin den.</s>
brauche%C4%A0 Ruhe
.%C4%A0%C4%8AAssistant:%C4%A0T u%C4%A0habites%C4%A0o%C3%83%C2%B9.</s>
Klass en
.%C4%A0D at
User:%C4%A0Wie%C4%A0 back
Frei heit.</s>
en.%C4%A0%C4%8AAssistant:%C4%A0T%C3%83%C2%A4gliches%C4%A0Git arr
gewaschen%C4%A0 und%C4%A0gefaltet.</s>
.%C4%A0%C4%8AAssistant:%C4%A0Pas %C4%A0de%C4%A0probl%C3%83%C2%A8me.</s>
h%C3%83%C2%B6r e%C4%A0dich
User:%C4%A0Warum%C4%A0 seh
zu%C4%A0Hau se
,%C4%A0 Wasser%C4%A0und%C4%A0
ist ische%C4%A0
g lei
User:%C4%A0Fasse%C4%A0zusammen:%C4%A0Das%C4%A0Fahrrad%C4%A0quietsch t.%C4%A0Ich%C4%A0%C3%83%C2%B6le%C4%A0die%C4%A0
fehl er
loest%C4%A0 sich%C4%A0in%C4%A0
st ation.</s>
.%C4%A0%C4%8AAssistant:%C4%A0Wher e%C4%A0do%C4%A0you%C4%A0li
Dikt ator
User:%C4%A0Warum%C4%A0brauch en%C4%A0wir%C4%A0
lief erst%C4%A0du%C4%A0
beeinfluss en.</s>
.%C4%A0F %C3%83%C2%BCnf%C4%A0
User:%C4%A0%C3%83%C4%BEbersetze%C4%A0ins%C4%A0Franz%C3%83%C2%B6sische:%C4%A0Ich%C4%A0lerne%C4%A0 f%C3%83%C2%BCr%C4%A0die%C4%A0Pr%C3%83%C2%BCfung
tief %C4%A0und%C4%A0
zweier%C4%A0Gro essen%C4%A0konstant
User:%C4%A0Wie%C4%A0schreibe%C4%A0ich%C4%A0 Orts
U S
li tz
en%C4%A0re tard.</s>
laut.%C4%A0Ich%C4%A0 setze%C4%A0Kopfh%C3%83%C2%B6r
i denti
H%C3%83%C2%B6 r%C4%A0gut%C4%A0
neutr ale%C4%A0Element%C4%A0bei%C4%A0
R%C3%83%C2%BCck meld
Zahl en
ad el%C4%A0
.%C4%A0Du%C4%A0f%C3%83%C2%BChl st%C4%A0dich%C4%A0
Eine%C4%A0Fahrkarte%C4%A0bitte.%C4%A0%C4%8AAssistant:%C4%A0 A%C4%A0ticket%C4%A0please.</s>
et was
. 5%C4%A0
ar?%C4%A0%C4%8AAssistant:%C4%A0Ein%C4%A0r%C3%83%C2%B6 misch
er- Reihe.</s>
ck st%C4%A0Normal
Klar %C4%A0und%C4%A0
User:%C4%A0Wel che%C4%A0
t %C3%A2%C4%A2
Ein%C4%A0 Daten
Ent deck
bedeutet%C4%A0dass%C4%A0die%C4%A0 Mondschei
?%C4%A0%C4%8AAssistant:%C4%A0 Beweg
Physik.%C4%A0Morgen%C4%A0ist%C4%A0 Test.%C4%A0%C4%8AAssistant:%C4%A0P
e%C4%A0Zeit .%C4%A0%C4%8AAssistant:%C4%A0I%C4%A0have%C4%A0time.</s>
19 3
sp%C3%83%C2%A4ter.%C4%A0%C4%8AAssistant:%C4%A0E%C4%A0Mail%C4%A0geschrie ben,%C4%A0
ass er%C4%A0
User:%C4%A0Fasse%C4%A0zusammen:%C4%A0Ich%C4%A0 male%C4%A0ein%C4%A0Bild.%C4%A0Die%C4%A0Farben%C4%A0sind%C4%A0h
Aufgab en.%C4%A0
Hall o%C4%A0Welt
Preis en.</s>
0%C4%A0EUR %C4%A0und%C4%A0
laut.%C4%A0Ich%C4%A0setze%C4%A0Kopfh%C3%83%C2%B6r er%C4%A0auf
te%C4%A0 Daten
Himm el
st ,%C4%A0was%C4%A0
User:%C4%A0Fasse%C4%A0zusammen:%C4%A0Wir%C4%A0machen%C4%A0 Sport
Relation en%C4%A0
User:%C4%A0Was%C4%A0ist%C4%A0ein%C4%A0 Bundesland
Steh%C4%A0 bitte%C4%A0auf
Hal lo
bedeutet,%C4%A0dass %C4%A0das%C4%A0
fra ge?%C4%A0%C4%8AAssistant:%C4%A0Du%C4%A0definierst%C4%A0
%C3%83%C5%81e?%C4%A0%C4%8AAssistant:%C4%A0Ein%C4%A0fr %C3%83%C2%A4nkischer%C4%A0
se%C4%A0 ein%C4%A0Buch
guten%C4%A0 Preisen.</s>
St att%C4%A0
Lav a%C4%A0und%C4%A0
identi f
Le arn
ander s.</s>
User:%C4%A0%C3%83%C4%BEbersetze%C4%A0ins%C4%A0Franz%C3%83%C2%B6sische:%C4%A0Ich%C4%A0brauche%C4%A0Hilfe .%C4%A0%C4%8AAssistant:%C4%A0J%C4%A0ai%C4%A0besoin%C4%A0d%C4%A0ai
.%C4%A0%C4%8AAssistant:%C4%A0Nous%C4%A0av ons
( e%C4%A0=>%C4%A0
Daten schutz
De pre
gr%C3%83%C2%B6%C3%83%C5%81 te%C4%A0
?%C4%A0%C4%8AAssistant:%C4%A0Du%C4%A0 fragst%C4%A0nach%C4%A0
User:%C4%A0Wie%C4%A0schreibe%C4%A0ich%C4%A0 gute%C4%A0
ung?%C4%A0%C4%8AAssistant:%C4%A0Du%C4%A0 w%C3%83%C2%A4hlst%C4%A0
antwor tet%C4%A0
beginn en%C4%A0jetz
?%C4%A0%C4%8AAssistant:%C4%A0 Teil
User:%C4%A0Fasse%C4%A0zusammen:%C4%A0Wir%C4%A0pflanz en%C4%A0Blumen.%C4%A0Der%C4%A0Balkon%C4%A0wird%C4%A0bunt.%C4%A0%C4%8AAssistant:%C4%A0
%C4%A0est%C4%A0 lundi.</s>
er fasst%C4%A0
beim%C4%A0 Lern
Kriterien.%C4%A0Dann%C4%A0 bewertest%C4%A0du%C4%A0
User:%C4%A0Was%C4%A0 machst%C4%A0du%C4%A0bei%C4%A0
%C4%A0darf st%C4%A0du%C4%A0tauschen.</s>
train%C4%A0 station.</s>
u te.</s>
.%C4%A0%C4%8AAssistant:%C4%A0Pr%C3%83%C2%BCf ung%C4%A0naht,%C4%A0
nicht%C4%A0 ver
kommt%C4%A0 sp%C3%83%C2%A4ter.%C4%A0%C4%8AAssistant:%C4%A0E%C4%A0Mail%C4%A0geschrieben,%C4%A0
a tivit
sik%C4%A0beim%C4%A0 Lesen.</s>
klar ?%C4%A0%C4%8AAssistant:%C4%A0
ita et%C4%A0
%C3%83%C2%A4nder t%C4%A0sich
m -
User:%C4%A0Fasse%C4%A0zusammen:%C4%A0Ich%C4%A0 backe%C4%A0Bro
vier%C4%A0 ist%C4%A0
');%C4%A0} ,%C4%A0
b%C3%83%C2%BCnd elst%C4%A0
erg%C3%83%C2%A4n z
stark.%C4%A0Wir%C4%A0 bleiben%C4%A0
re p
Zita te.</s>
b ank
D onau
Dok ument
bin den%C4%A0
ab ?%C4%A0%C4%8AAssistant:%C4%A0Du%C4%A0
?%C4%A0%C4%8AAssistant:%C4%A0Eine%C4%A0 Bedingung%C4%A0
bi lita
verbess ert%C4%A0
Arbei tet%C4%A0
ueber wach
fol ge.%C4%A0Sie%C4%A0l%C3%83%C2%B6st%C4%A0
User:%C4%A0Was%C4%A0be wirk
n uit.</s>
User:%C4%A0Wie%C4%A0schreibe%C4%A0ich%C4%A0 B
G ol
E ta
Grund gesetz
Ab h%C3%83%C2%A4ngigkeit
Schritt folge.%C4%A0Sie%C4%A0l%C3%83%C2%B6st%C4%A0
eld herr
Op tion
sehr .%C4%A0%C4%8AAssistant:%C4%A0
Lim it
User:%C4%A0Fasse%C4%A0zusammen:%C4%A0Auf%C4%A0dem%C4%A0 Mark
el d%C4%A0ver
pr%C3%83%C2%BCfst%C4%A0 Einfluss.%C4%A0Dann%C4%A0
User:%C4%A0Wie%C4%A0schreibe%C4%A0ich%C4%A0eine%C4%A0 St
Depre c
%C4%A0dem%C4%A0 Bus.%C4%A0%C4%8AAssistant:%C4%A0
; i
st%C4%A0du%C4%A0 D
La de
i let
Experim ent%C4%A0
gew inn
s ing
Antwort%C4%A0 sp%C3%83%C2%A4ter.</s>
Use%C4%A0 Case%C4%A0
.%C4%A0%C4%8AAssistant:%C4%A0How%C4%A0much%C4%A0 is%C4%A0that.</s>
n%C3%83%C2%B6 ti
en%C4%A0in%C4%A0 St%C3%83%C2%A4d
Ausblick .</s>
n ie
t%C4%A0 gibt%C4%A0es%C4%A0O
,%C4%A0stimmt%C4%A0 30?%C4%A0%C4%8AAssistant:%C4%A0Ja.%C4%A0
testest%C4%A0du%C4%A0dich%C4%A0sel bst.</s>
Gute%C4%A0Nacht.%C4%A0%C4%8AAssistant:%C4%A0Good%C4%A0n ight.</s>
lieg t%C4%A0
anz%C3%83%C2%B6si scher%C4%A0Herrscher
ation%C4%A0ver hindert%C4%A0
Mit te.</s>
haben%C4%A0Zeit .%C4%A0%C4%8AAssistant:%C4%A0Nous%C4%A0avons
Reise.%C4%A0Das%C4%A0 Budget%C4%A0ist%C4%A0klein.%C4%A0%C4%8AAssistant:%C4%A0
Hund%C4%A0 spiel
B ur
User:%C4%A0Wie%C4%A0schreibe%C4%A0ich%C4%A0eine%C4%A0 M
%C3%83%C2%A4rm%C4%A0mit%C4%A0Kopfh%C3%83%C2%B6r ern%C4%A0
learning%C4%A0 English.</s>
%C4%A0+%C4%A02 %C4%A0=%C4%A08.</s>
User:%C4%A0%C3%83%C4%BEbersetze%C4%A0ins%C4%A0Franz%C3%83%C2%B6sische:%C4%A0Ich%C4%A0 bin%C4%A0bereit.%C4%A0%C4%8AAssistant:%C4%A0Je%C4%A0suis%C4%A0pr%C3%83%C2%AAt.</s>
d%C4%A0C el
t%C4%A0mit%C4%A0 guten%C4%A0Preisen.</s>
Tempo%C4%A0 und%C4%A0
hin ten.</s>
Ende ?%C4%A0%C4%8AAssistant:%C4%A0
mess bar
st%C4%A0den%C4%A0 Ablauf
cris%C4%A0 un%C4%A0
anpass en.</s>
ueberwach t.</s>
block iert%C4%A0
spielen%C4%A0Fu%C3%83%C5%81ball.%C4%A0%C4%8AAssistant:%C4%A0Nous%C4%A0jouons%C4%A0 au%C4%A0
f eierst%C4%A0
eig enen%C4%A0
se?%C4%A0%C4%8AAssistant:%C4%A0 Pflanzen%C4%A0
Kannst%C4%A0du%C4%A0das%C4%A0 wiederholen.%C4%A0%C4%8AAssistant:%C4%A0
Danke%C4%A0 f%C3%83%C2%BCr%C4%A0deine%C4%A0Zeit
for%C4%A0the%C4%A0 exam
l%C3%83%C2%A4s st%C4%A0du%C4%A0
ho de
gutem%C4%A0Duf t.</s>
ow n
User:%C4%A0Fasse%C4%A0zusammen:%C4%A0Das%C4%A0 Zimmer%C4%A0ist%C4%A0
Mind map
Git arre.%C4%A0
User:%C4%A0Fasse%C4%A0zusammen:%C4%A0Wir%C4%A0planen%C4%A0eine%C4%A0 Reise.%C4%A0Das%C4%A0Budget%C4%A0ist%C4%A0klein.%C4%A0%C4%8AAssistant:%C4%A0
w .</s>
Fe atur
.%C4%A0N imm
e kt%C4%A0
st er
We ge?%C4%A0%C4%8AAssistant:%C4%A0Du%C4%A0
.%C4%A0%C4%8AAssistant:%C4%A0Il%C4%A0 lit%C4%A0un%C4%A0
rie sig
Get eil
Fr ank
User:%C4%A0Wie%C4%A0 kontrollierst%C4%A0du%C4%A0
Prozent.%C4%A0Neuer%C4%A0 Preis
glei ch%C4%A0
%C3%83%C2%A4rm%C4%A0mit%C4%A0Kopfh%C3%83%C2%B6rern%C4%A0 gel%C3%83%C2%B6st.</s>
Lehr e%C4%A0von%C4%A0
Es%C4%A0tut%C4%A0mir%C4%A0leid.%C4%A0%C4%8AAssistant:%C4%A0I%C4%A0am%C4%A0 sorry.</s>
jourd%C4%A0hui .</s>
- 1.</s>
Reflexion%C4%A0 von%C4%A0
z ahl%C4%A0
R P
Sp %C3%83%C2%A4ter%C4%A0
Me er.</s>
?%C4%A0%C4%8AAssistant:%C4%A0Du%C4%A0sag st%C4%A0
User:%C4%A0%C3%83%C4%BEbersetze%C4%A0ins%C4%A0Englische:%C4%A0 Es%C4%A0tut%C4%A0mir%C4%A0leid.%C4%A0%C4%8AAssistant:%C4%A0I%C4%A0am%C4%A0sorry.</s>
kog nitive%C4%A0La
De zi
fas st%C4%A0du%C4%A0
.%C4%A0Vier%C4%A0 mal%C4%A0
ot enz
Idemp otenz
User:%C4%A0Was%C4%A0ist%C4%A0ein%C4%A0Algorithmus?%C4%A0%C4%8AAssistant:%C4%A0 Eine%C4%A0klare%C4%A0
?%C4%A0%C4%8AAssistant:%C4%A0Ein%C4%A0fr anz%C3%83%C2%B6sischer%C4%A0Herrscher
?%C4%A0%C4%8AAssistant:%C4%A0Ein%C4%A0 Bund%C4%A0von%C4%A0
e%C4%A0ich%C4%A0m ir%C4%A0
Aus d
en?%C4%A0%C4%8AAssistant:%C4%A0Du%C4%A0 pr%C3%83%C2%BCfst%C4%A0
!%C4%A0Wie%C4%A0kann%C4%A0 ich%C4%A0helfen?</s>
reflektiert%C4%A0 Sonnenlich
User:%C4%A0%C3%83%C4%BEbersetze%C4%A0ins%C4%A0Englische:%C4%A0Wo%C4%A0ist%C4%A0die%C4%A0Bibliothek .%C4%A0%C4%8AAssistant:%C4%A0Where%C4%A0is%C4%A0the%C4%A0library.</s>
lei se%C4%A0Musik
Kl einer%C4%A0
politi sch.</s>
.%C4%A0%C4%8AAssistant:%C4%A0Je%C4%A0su is%C4%A0d%C3%83%C2%A9sol
Sie%C4%A0 tanzen%C4%A0
User:%C4%A0Fasse%C4%A0zusammen:%C4%A0 Er%C4%A0lern
tro cken.</s>
Ide e?%C4%A0%C4%8AAssistant:%C4%A0Du%C4%A0pr%C3%83%C2%BCfst%C4%A0
Test d
User:%C4%A0%C3%83%C4%BEbersetze%C4%A0ins%C4%A0Englische:%C4%A0Ich%C4%A0hab e%C4%A0Zeit.%C4%A0%C4%8AAssistant:%C4%A0I%C4%A0have%C4%A0time.</s>
lich t%C4%A0
Schne em
%C3%83%C2%A4hl e%C4%A0
schwer .%C4%A0%C4%8AAssistant:%C4%A0Mathelernen%C4%A0mit%C4%A0
en%C4%A0 le
bis%C4%A0 es%C4%A0
Dezi mal
.%C4%A0Dann%C4%A0 legst%C4%A0du%C4%A0
Cro ut
Ka tz
aus%C4%A0Deutschland.%C4%A0%C4%8AAssistant:%C4%A0I%C4%A0am%C4%A0from%C4%A0 Germany.</s>
zu%C4%A0Hause .%C4%A0%C4%8AAssistant:%C4%A0Stark
User:%C4%A0Wie%C4%A0schreibe%C4%A0ich%C4%A0 f%C3%83%C2%BCr%C4%A0
ung leich
End zustand
Sprach e.</s>
k g
tion alitaet%C4%A0
n%C3%83%C2%B6 tige%C4%A0
d on.</s>
beh and
kau m%C4%A0
tionalitaet%C4%A0 bedeutet,%C4%A0dass%C4%A0das%C4%A0
User:%C4%A0 Rechne%C4%A0
einen%C4%A0 Prozess?%C4%A0%C4%8AAssistant:%C4%A0Du%C4%A0
Kurz %C4%A0
User:%C4%A0Median%C4%A0 von%C4%A0
P an
in%C4%A0JS.%C4%A0%C4%8AAssistant:%C4%A0let%C4%A0 s%C4%A0=%C4%A0
t.%C4%A0Dann%C4%A0 testest%C4%A0du%C4%A0
?%C4%A0%C4%8AAssistant:%C4%A0Du%C4%A0 startest%C4%A0
Antwort%C4%A0 hinten.</s>
an%C4%A0 email.</s>
De ad
User:%C4%A0Fasse%C4%A0zusammen:%C4%A0Ich%C4%A0male%C4%A0ein%C4%A0Bild.%C4%A0Die%C4%A0Farben%C4%A0sind%C4%A0h ell.%C4%A0%C4%8AAssistant:%C4%A0Hel
t%C4%A0 sie%C4%A0
User:%C4%A020 %C4%A0-%C4%A0
List e?%C4%A0%C4%8AAssistant:%C4%A0Du%C4%A0
.%C4%A0Nimm %C4%A0
real istische%C4%A0
me%C4%A0la%C4%A0musi que.</s>
e ber
%C3%83%C2%BCb en.%C4%A0
.%C4%A0%C4%8AAssistant:%C4%A0That%C4%A0is%C4%A0 easy.</s>
isier ung?%C4%A0%C4%8AAssistant:%C4%A0
y%C4%A0socc er.</s>
?%C4%A0%C4%8AAssistant:%C4%A0Du%C4%A0de ckst%C4%A0Normal
isches%C4%A0Brot%C4%A0mit%C4%A0 gutem%C4%A0Duft.</s>
Zuf all
Repub lik
Summ e%C4%A0der%C4%A0
Die%C4%A0 Pr%C3%83%C2%BCfung%C4%A0ist%C4%A0schwer
entsteht%C4%A0 bei%C4%A0
klick st%C4%A0du%C4%A0auf%C4%A0
Sp ur
User:%C4%A0Fasse%C4%A0zusammen:%C4%A0Ich%C4%A0 spare%C4%A0Geld
Stunde%C4%A0 %C4%8AAssistant:%C4%A0
ung%C4%A0 reduziert%C4%A0
sche%C4%A0 gewaschen%C4%A0und%C4%A0gefaltet.</s>
bil let%C4%A0
sicht bar.</s>
t%C4%A0m an
User:%C4%A0Fasse%C4%A0zusammen:%C4%A0Ich%C4%A0male%C4%A0ein%C4%A0Bild.%C4%A0Die%C4%A0Farben%C4%A0sind%C4%A0hell.%C4%A0%C4%8AAssistant:%C4%A0Hel les%C4%A0Bild%C4%A0
User:%C4%A0%C3%83%C4%BEbersetze%C4%A0ins%C4%A0Englische:%C4%A0Wie%C4%A0sp%C3%83%C2%A4t%C4%A0ist%C4%A0es.%C4%A0%C4%8AAssistant:%C4%A0What%C4%A0time%C4%A0is%C4%A0i t.</s>
%C4%A0=%C4%A0 7.</s>
Variab le%C4%A0
t%C3%A2%C4%A2 %C4%BB
en -
.%C4%A0%C4%8AAssistant:%C4%A0%C3%83%C4%A9a%C4%A0 co%C3%83%C2%BBte%C4%A0
un n%C3%83%C2%B6tige%C4%A0
User:%C4%A0W hat
art eien%C4%A0
trag en.</s>
Bal anc
t.%C4%A0Dann%C4%A0 pr%C3%83%C2%BCfst%C4%A0du%C4%A0
op f
steig end?%C4%A0%C4%8AAssistant:%C4%A0Du%C4%A0vergleichst%C4%A0
kleinem%C4%A0 Budget.</s>
User:%C4%A0Was%C4%A0ist%C4%A0der%C4%A0 Kalte%C4%A0Krieg
u s.</s>
Handl ung%C4%A0
Linie%C4%A0 um%C4%A0die%C4%A0
en?%C4%A0%C4%8AAssistant:%C4%A0Du%C4%A0 listest%C4%A0
te st.</s>
User:%C4%A0%C3%83%C4%BEbersetze%C4%A0ins%C4%A0Franz%C3%83%C2%B6sische:%C4%A0Kannst%C4%A0du%C4%A0helfen.%C4%A0%C4%8AAssistant:%C4%A0Tu%C4%A0peux %C4%A0aider.</s>
e?%C4%A0%C4%8AAssistant:%C4%A0Du%C4%A0 fragst%C4%A0
kt ,%C4%A0Pr%C3%83%C2%A4dikat,%C4%A0
Teil e%C4%A0in%C4%A0
Konflikt.%C4%A0G ib%C4%A0
Kohlendio xid%C4%A0
Wiederh erstell
Rest%C4%A0 weglassen.</s>
zieh en%C4%A0in%C4%A0St%C3%83%C2%A4d
leich t?%C4%A0%C4%8AAssistant:%C4%A0
User:%C4%A0%C3%83%C4%BEbersetze%C4%A0ins%C4%A0Franz%C3%83%C2%B6sische:%C4%A0Eine%C4%A0Fahrkarte%C4%A0bitte.%C4%A0%C4%8AAssistant:%C4%A0Un%C4%A0 billet%C4%A0
s' il%C4%A0
fa ctoring%C4%A0
User:%C4%A0Was%C4%A0ist%C4%A0das%C4%A0 neutrale%C4%A0Element%C4%A0bei%C4%A0
User:%C4%A0Fasse%C4%A0zusammen:%C4%A0Ich%C4%A0le se%C4%A0ein%C4%A0Buch
lesen%C4%A0dazu .%C4%A0%C4%8AAssistant:%C4%A0Leise%C4%A0Mu
User:%C4%A0 Good%C4%A0
Str a%C3%83%C5%81e%C4%A0ist%C4%A0
liche%C4%A0 Rede%C4%A0
kurz ?%C4%A0%C4%8AAssistant:%C4%A0
User:%C4%A0Er zeuge%C4%A0
.%C4%A0%C4%8AAssistant:%C4%A0W %C3%83%C2%A4
Them en%C4%A0
ann%C4%A0 ich%C4%A0gehen.%C4%A0%C4%8AAssistant:%C4%A0
Ment or
.%C4%A0An dere%C4%A0
t%C4%A0gibt%C4%A0es%C4%A0O bst.%C4%A0Die%C4%A0Prei
Dat en.%C4%A0Sie%C4%A0zeigt%C4%A0
veraen dert%C4%A0
Excuse%C4%A0 me.</s>
en.%C4%A0Dann %C4%A0definierst%C4%A0du%C4%A0
V alidier
User:%C4%A0%C3%83%C4%BEbersetze%C4%A0ins%C4%A0Franz%C3%83%C2%B6sische:%C4%A0Heute%C4%A0ist%C4%A0Montag.%C4%A0%C4%8AAssistant:%C4%A0Au jourd%C4%A0hui%C4%A0c
vo us%C4%A0pla%C3%83%C2%AEt.</s>
%C4%A0%C3%83%C2%B7%C4%A03,%C4%A0Ergebnis?%C4%A0%C4%8AAssistant:%C4%A0 6
klar .%C4%A0
s.%C4%A0Dann%C4%A0 passt%C4%A0du%C4%A0
min imal
User:%C4%A0Wie%C4%A0schreibe%C4%A0ich%C4%A0 D
Foli en.</s>
User:%C4%A0%C3%83%C4%BEbersetze%C4%A0ins%C4%A0Franz%C3%83%C2%B6sische:%C4%A0Wir%C4%A0 spielen%C4%A0Fu%C3%83%C5%81ball.%C4%A0%C4%8AAssistant:%C4%A0Nous%C4%A0jouons%C4%A0au%C4%A0
t%C4%A0 wird%C4%A0
Rhyth mus%C4%A0
ieren.%C4%A0 H
en?%C4%A0%C4%8AAssistant:%C4%A0Du%C4%A0 nutzt%C4%A0
ings%C4%A0 in%C4%A0JS.%C4%A0%C4%8AAssistant:%C4%A0let%C4%A0s%C4%A0=%C4%A0
Handel %C4%A0und%C4%A0
User:%C4%A0Wie%C4%A0planst%C4%A0du%C4%A0Lernziel e%C4%A0pro%C4%A0
i s?%C4%A0%C4%8AAssistant:%C4%A0
O hr
b us%C4%A0
ir ekt
>< li>
.%C4%A0Sie%C4%A0 hat%C4%A0
User:%C4%A0%C3%83%C4%BEbersetze%C4%A0ins%C4%A0Englische:%C4%A0Bis%C4%A0sp%C3%83%C2%A4ter.%C4%A0%C4%8AAssistant:%C4%A0 See%C4%A0you%C4%A0
Gra d%C4%A0Cel
B %C3%83%C2%BCr
An leitung?%C4%A0%C4%8AAssistant:%C4%A0Du%C4%A0
r aus.</s>
Kl ein%C4%A0und%C4%A0
suche%C4%A0 Arbeit
nach%C4%A0 Zeit.</s>
1%C4%A0 /%C4%A0
User:%C4%A0Wie%C4%A0schreibe%C4%A0ich%C4%A0eine%C4%A0 Figuren
elek trischen%C4%A0
Roll back
a%C4%A0 oder%C4%A0n
t%C4%A0gibt%C4%A0es%C4%A0Obst.%C4%A0Die%C4%A0Prei se%C4%A0sind%C4%A0
st euer
Fab rik
t ung.</s>
bedeutet%C4%A0dass%C4%A0die%C4%A0Mondschei be%C4%A0
Wichtigkeit .%C4%A0Dann%C4%A0
g lie
Ausnahm en.</s>
Tr ig
Erneu er
erst%C4%A0du%C4%A0 einen%C4%A0Prozess?%C4%A0%C4%8AAssistant:%C4%A0Du%C4%A0
User:%C4%A0Wie%C4%A0protokolli erst%C4%A0du%C4%A0
Modell %C4%A0
gehen%C4%A0 sp
im um?%C4%A0%C4%8AAssistant:%C4%A0Du%C4%A0merkst%C4%A0dir%C4%A0das%C4%A0
laut.%C4%A0Ich%C4%A0setze%C4%A0Kopfh%C3%83%C2%B6rer%C4%A0auf .%C4%A0%C4%8AAssistant:%C4%A0L
Ent w
User:%C4%A0Fasse%C4%A0zusammen:%C4%A0Wir%C4%A0besuch en%C4%A0Oma
A kt
K uch
kommt%C4%A0sp%C3%83%C2%A4ter.%C4%A0%C4%8AAssistant:%C4%A0E%C4%A0Mail%C4%A0geschrieben,%C4%A0 Antwort%C4%A0sp%C3%83%C2%A4ter.</s>
auf%C4%A0 Meeresh%C3%83%C2%B6he.</s>
.%C4%A0Wir%C4%A0 lesen%C4%A0dazu.%C4%A0%C4%8AAssistant:%C4%A0Leise%C4%A0Mu
Krieg .%C4%A0
Ster n.</s>
iz iert.</s>
2 %C4%A0+%C4%A01
mo eg
.%C4%A0%C4%8AAssistant:%C4%A0Where%C4%A0do%C4%A0you%C4%A0li ve.</s>
gr %C3%83%C2%A4
'%C4%A0 />.</s>
Aufgab en%C4%A0vor?%C4%A0%C4%8AAssistant:%C4%A0Du%C4%A0
H%C3%83%C2%B6r%C4%A0gut%C4%A0 zu.%C4%A0%C4%8AAssistant:%C4%A0
Daten bank
0 ,%C4%A0
wechsel ?%C4%A0%C4%8AAssistant:%C4%A0
war %C4%A0M
Plan%C4%A0f%C3%83%C2%BCr%C4%A0 Geld.%C4%A0Einnahmen%C4%A0und%C4%A0Ausgab
User:%C4%A0Wie%C4%A0nutzt%C4%A0du%C4%A0 Beispiele%C4%A0
Par am
klernen%C4%A0vor %C4%A0dem%C4%A0
T a
zwei%C4%A0 Ausd
B yId('
e t.</s>
nachvollzieh bare%C4%A0
liest%C4%A0die%C4%A0Aufgabe .%C4%A0Dann%C4%A0
H%C3%83%C2%A4l fte.</s>
User:%C4%A0%C3%83%C4%BEbersetze%C4%A0ins%C4%A0Englische:%C4%A0 Heute%C4%A0ist%C4%A0Montag.%C4%A0%C4%8AAssistant:%C4%A0Today%C4%A0is%C4%A0Monday.</s>
L%C3%83%C2%BCck en.</s>
User:%C4%A0%C3%83%C4%BEbersetze%C4%A0ins%C4%A0Englische:%C4%A0Ich%C4%A0mag%C4%A0Musik .%C4%A0%C4%8AAssistant:%C4%A0I%C4%A0like%C4%A0music.</s>
Grad%C4%A0Cel si
User:%C4%A0%C3%83%C4%BEbersetze%C4%A0ins%C4%A0Franz%C3%83%C2%B6sische:%C4%A0Heute%C4%A0ist%C4%A0Montag.%C4%A0%C4%8AAssistant:%C4%A0Aujourd%C4%A0hui%C4%A0c %C4%A0est%C4%A0lundi.</s>
User:%C4%A0%C3%83%C4%BEbersetze%C4%A0ins%C4%A0Franz%C3%83%C2%B6sische:%C4%A0Wir%C4%A0 kochen%C4%A0heu
Blick .</s>
User:%C4%A0Wie%C4%A0 bereitest%C4%A0du%C4%A0
en?%C4%A0%C4%8AAssistant:%C4%A0Du%C4%A0 suchst%C4%A0
ro t
be schreibst%C4%A0
per%C4%A0JS%C4%A0hin zu.%C4%A0%C4%8AAssistant:%C4%A0
en %C3%83%C2%BCb
informati que.</s>
a es
Ein%C4%A0 System%C4%A0
geputzt,%C4%A0 alles%C4%A0sauber.</s>
?%C4%A0%C4%8AAssistant:%C4%A0Eine%C4%A0Person%C4%A0reg iert.%C4%A0
Berg%C4%A0mit%C4%A0 Magma
User:%C4%A0Wie%C4%A0teste st%C4%A0du%C4%A0eine%C4%A0
arl%C4%A0der%C4%A0 Gro
klernen%C4%A0vor%C4%A0dem%C4%A0 Te
en.%C4%A0Dann%C4%A0 benennst%C4%A0du%C4%A0
arl%C4%A0der%C4%A0Gro %C3%83%C5%81e?%C4%A0%C4%8AAssistant:%C4%A0Ein%C4%A0fr%C3%83%C2%A4nkischer%C4%A0
User:%C4%A0%C3%83%C4%BEbersetze%C4%A0ins%C4%A0Franz%C3%83%C2%B6sische:%C4%A0Ich%C4%A0 studiere%C4%A0Informatik
kauf en%C4%A0
?%C4%A0%C4%8AAssistant:%C4%A0B akteri
User:%C4%A0%C3%83%C4%BEbersetze%C4%A0ins%C4%A0Franz%C3%83%C2%B6sische:%C4%A0Ich%C4%A0 trinke%C4%A0Wasser.%C4%A0%C4%8AAssistant:%C4%A0Je%C4%A0bois%C4%A0de%C4%A0l%C4%A0eau.</s>
Gegenwar ts
.%C4%A0Eine%C4%A0 Seite%C4%A0
User:%C4%A0Fasse%C4%A0zusammen:%C4%A0Der%C4%A0Akku%C4%A0ist%C4%A0leer .%C4%A0Ich%C4%A0lade%C4%A0das%C4%A0
Wasser?%C4%A0%C4%8AAssistant:%C4%A0 Wasser%C4%A0
User:%C4%A0%C3%83%C4%BEbersetze%C4%A0ins%C4%A0Franz%C3%83%C2%B6sische:%C4%A0Kein%C4%A0Problem .%C4%A0%C4%8AAssistant:%C4%A0Pas%C4%A0de%C4%A0probl%C3%83%C2%A8me.</s>
Str ings%C4%A0in%C4%A0JS.%C4%A0%C4%8AAssistant:%C4%A0let%C4%A0s%C4%A0=%C4%A0
Stra%C3%83%C5%81 e,%C4%A0
D own
ein .%C4%A0%C4%8AAssistant:%C4%A0Nutze%C4%A0<
Gew ohn
User:%C4%A0Was%C4%A0ist%C4%A0ein%C4%A0Staatsoberhaupt?%C4%A0%C4%8AAssistant:%C4%A0H%C3%83%C2%B6chste%C4%A0Person%C4%A0im%C4%A0Staat.%C4%A0Oft%C4%A0Pr%C3%83%C2%A4si dent%C4%A0oder%C4%A0
.%C4%A0Sonne%C4%A0 und%C4%A0Wind%C4%A0
e?%C4%A0%C4%8AAssistant:%C4%A0Du%C4%A0 w%C3%83%C2%A4hlst%C4%A0
Eur o%C4%A0
Aender ungen.</s>
ere%C4%A0Zahl%C4%A0 kommt%C4%A0nach%C4%A0vorn.</s>
st%C4%A0du%C4%A0 zur%C3%83%C2%BCck.</s>
User:%C4%A02 2%C4%A0-%C4%A0
! </s>
%C3%83%C2%A4 t.</s>
te.%C4%A0%C4%8AAssistant:%C4%A0 Nous%C4%A0cuisinons%C4%A0au
mark ieren.%C4%A0
User:%C4%A0%C3%83%C4%BEbersetze%C4%A0ins%C4%A0Franz%C3%83%C2%B6sische:%C4%A0Es%C4%A0tut%C4%A0mir%C4%A0leid .%C4%A0%C4%8AAssistant:%C4%A0Je%C4%A0suis%C4%A0d%C3%83%C2%A9sol
D e%C4%A0ri
Pr%C3%83%C2%BCfung%C4%A0ist%C4%A0bald .%C4%A0Ich%C4%A0wiederhole%C4%A0
benoetig en%C4%A0
Arbeitet%C4%A0 f%C3%83%C2%BCr%C4%A0Frieden.</s>
fal sch.</s>
ver arbeitet%C4%A0
mittl ere%C4%A0
User:%C4%A0Was%C4%A0ist%C4%A0 Geografie
F eldherr
P fa
beginn st%C4%A0
Sie%C4%A0f%C3%83%C2%A4hrt%C4%A0Fahrra d.%C4%A0%C4%8AAssistant:%C4%A0
st%C4%A0du%C4%A0d ir%C4%A0
sch m
Ende .%C4%A0
add ierst%C4%A0du%C4%A0
er h%C3%83%C2%B6h
Handl ung.%C4%A0
g ie
H ilf
F et
M %C3%83%C2%BCll%C4%A0raus
Rucksack.%C4%A0Morgen%C4%A0ist%C4%A0Ausflug.%C4%A0%C4%8AAssistant:%C4%A0Rucksack %C4%A0
R au
h %C3%83%C2%A4r
zwei%C4%A0Ausd rueck
sing t%C4%A0gut
User:%C4%A0Wie%C4%A0 setze%C4%A0ich%C4%A0
St uf
?%C4%A0%C4%8AAssistant:%C4%A0Du%C4%A0 misst%C4%A0
Sal zw
User:%C4%A0%C3%83%C4%BEbersetze%C4%A0ins%C4%A0Englische:%C4%A0Ich%C4%A0 trinke%C4%A0Wasser.%C4%A0%C4%8AAssistant:%C4%A0I%C4%A0drink%C4%A0water.</s>
ar te?%C4%A0%C4%8AAssistant:%C4%A0
Arbei t%C4%A0
User:%C4%A0Fasse%C4%A0zusammen:%C4%A0Der%C4%A0Lehrer%C4%A0 erkl%C3%83%C2%A4rt%C4%A0langsam.%C4%A0Alle%C4%A0versteh
Fakt en.%C4%A0Dann%C4%A0
User:%C4%A0%C3%83%C4%BEbersetze%C4%A0ins%C4%A0Franz%C3%83%C2%B6sische:%C4%A0 Viel%C4%A0Spa%C3%83%C5%81.%C4%A0%C4%8AAssistant:%C4%A0A
User:%C4%A0Was%C4%A0ist%C4%A0der%C4%A0Kalte%C4%A0Krieg ?%C4%A0%C4%8AAssistant:%C4%A0Spannung%C4%A0
ihr e%C4%A0
User:%C4%A0Er stelle%C4%A0
M%C3%83%C2%BCll%C4%A0raus .%C4%A0Es%C4%A0riecht%C4%A0
Komm as%C4%A0
ent ?%C4%A0%C4%8AAssistant:%C4%A0Eine%C4%A0
ch%C4%A0schnell.%C4%A0%C4%8AAssistant:%C4%A0Al ter%C4%A0Laptop,%C4%A0
User:%C4%A0Was%C4%A0ist%C4%A0 G
Magma %C4%A0
im%C4%A0 Text
Frage%C4%A0 vor
Element ById('
User:%C4%A0Wie%C4%A0merk st%C4%A0du%C4%A0dir%C4%A0
Ressourc en.</s>
ungs fehl
User:%C4%A0Wie%C4%A0schreibe%C4%A0ich%C4%A0Ne ben
Wiss ens
User:%C4%A0Wo%C4%A0liegt%C4%A0die%C4%A0 Sahara?%C4%A0%C4%8AAssistant:%C4%A0In%C4%A0
Entschuldigung%C4%A0bitte.%C4%A0%C4%8AAssistant:%C4%A0 Excuse%C4%A0
minus%C4%A0 7.</s>
in de%C4%A0
el le.</s>
pass ende%C4%A0
Blei be%C4%A0
Fant a
User:%C4%A0%C3%83%C4%BEbersetze%C4%A0ins%C4%A0Franz%C3%83%C2%B6sische:%C4%A0Gute%C4%A0Nacht.%C4%A0%C4%8AAssistant:%C4%A0Bonne%C4%A0 nuit.</s>
D oku.%C4%A0Dann%C4%A0
%C4%A0+%C4%A04 %C4%A0=%C4%A0
Ereig nisse%C4%A0
%C4%A0den%C4%A0 Koerper.</s>
User:%C4%A0%C3%83%C4%BEbersetze%C4%A0ins%C4%A0Englische:%C4%A0Viel%C4%A0Spa%C3%83%C5%81.%C4%A0%C4%8AAssistant:%C4%A0Have%C4%A0 fun.</s>
.%C4%A0%C4%8AAssistant:%C4%A0Where%C4%A0is%C4%A0the%C4%A0 train%C4%A0station.</s>
User:%C4%A0Wo%C4%A0liegt%C4%A0der%C4%A0%C3%83%C4%A6quator?%C4%A0%C4%8AAssistant:%C4%A0In%C4%A0der%C4%A0Mitte%C4%A0der%C4%A0 Erde.%C4%A0
User:%C4%A0Wie%C4%A0 sch%C3%83%C2%A4tzt%C4%A0du%C4%A0
Hunder tst
User:%C4%A0Wer%C4%A0war%C4%A0 Napoleon
?%C4%A0%C4%8AAssistant:%C4%A0R und%C4%A0
P au
t%C4%A0das%C4%A0 Internet
Quell en.%C4%A0
.%C4%A0Dann%C4%A0 beobachte
Gef%C3%83%C2%BCh le.</s>
Kont ak
t able
User:%C4%A0%C3%83%C4%BEbersetze%C4%A0ins%C4%A0Franz%C3%83%C2%B6sische:%C4%A0Wir%C4%A0spielen%C4%A0Fu%C3%83%C5%81ball.%C4%A0%C4%8AAssistant:%C4%A0Nous%C4%A0jouons%C4%A0au%C4%A0 foot.</s>
lo s
User:%C4%A0Fasse%C4%A0zusammen:%C4%A0Das%C4%A0Fahrrad%C4%A0quietscht.%C4%A0Ich%C4%A0%C3%83%C2%B6le%C4%A0die%C4%A0 Kette.%C4%A0%C4%8AAssistant:%C4%A0
User:%C4%A0Was%C4%A0ist%C4%A0ein%C4%A0Kontin ent?%C4%A0%C4%8AAssistant:%C4%A0Eine%C4%A0
User:%C4%A0Fasse%C4%A0zusammen:%C4%A0Wir%C4%A0h%C3%83%C2%B6ren%C4%A0 leise%C4%A0Musik
pla y%C4%A0soccer.</s>
User:%C4%A0Fasse%C4%A0zusammen:%C4%A0Ich%C4%A0 schreibe%C4%A0Notiz
Paus en.</s>
Gesch windigkeit%C4%A0
l%C3%83%C2%A4uf t%C4%A0
iederkehr ende%C4%A0
User:%C4%A0Wie%C4%A0stopp st%C4%A0du%C4%A0eine%C4%A0
bestehen%C4%A0 aus%C4%A0
Viel en%C4%A0Dank
User:%C4%A0Wie%C4%A0kling en%C4%A0S%C3%83%C2%A4tze%C4%A0
Vir en%C4%A0
eur op
Techni k
eck t%C4%A0
st%C4%A0d rei%C4%A0
foku ss
n ummer
User:%C4%A0Schreib e%C4%A0
User:%C4%A0Wie%C4%A0lie st%C4%A0du%C4%A0eine%C4%A0
put ?%C4%A0%C4%8AAssistant:%C4%A0Das%C4%A0ist%C4%A0die%C4%A0
y (
bring en%C4%A0
Sie%C4%A0f%C3%83%C2%A4hrt%C4%A0mit %C4%A0dem%C4%A0Bus.%C4%A0%C4%8AAssistant:%C4%A0
te?%C4%A0%C4%8AAssistant:%C4%A0Du%C4%A0 beginnst%C4%A0
5 0%C4%A0
Wirk ung%C4%A0
lin k
User:%C4%A0%C3%83%C4%BEbersetze%C4%A0ins%C4%A0Englische:%C4%A0 Eine%C4%A0Fahrkarte%C4%A0bitte.%C4%A0%C4%8AAssistant:%C4%A0A%C4%A0ticket%C4%A0please.</s>
K %C3%83%C2%BCste
%C4%A0+%C4%A01 4
stark.%C4%A0Wir%C4%A0bleiben%C4%A0 zu%C4%A0Hause.%C4%A0%C4%8AAssistant:%C4%A0Stark
Frage.%C4%A0O der%C4%A0
,%C4%A0Ergebnis?%C4%A0%C4%8AAssistant:%C4%A0 10
.%C4%A0Erst%C4%A0 -
.%C4%A0Z um%C4%A0Beispiel%C4%A0
lern en.</s>
.%C4%A0%C4%8AAssistant:%C4%A0W%C3%83%C2%A4 sche%C4%A0gewaschen%C4%A0und%C4%A0gefaltet.</s>
en.%C4%A0Sie%C4%A0 helfen%C4%A0
User:%C4%A0Wer%C4%A0war%C4%A0K arl%C4%A0der%C4%A0Gro%C3%83%C5%81e?%C4%A0%C4%8AAssistant:%C4%A0Ein%C4%A0fr%C3%83%C2%A4nkischer%C4%A0
.%C4%A0Was%C4%A0 steh
%C3%83%C2%B6 die?%C4%A0%C4%8AAssistant:%C4%A0
War um,%C4%A0
Handy.%C4%A0%C4%8AAssistant:%C4%A0Leerer%C4%A0Akku ,%C4%A0Handy%C4%A0
eig ene%C4%A0
User:%C4%A0Wer%C4%A0war%C4%A0Napoleon ?%C4%A0%C4%8AAssistant:%C4%A0Ein%C4%A0franz%C3%83%C2%B6sischer%C4%A0Herrscher
User:%C4%A0%C3%83%C4%BEbersetze%C4%A0ins%C4%A0Englische:%C4%A0Ich%C4%A0studiere%C4%A0Informatik .%C4%A0%C4%8AAssistant:%C4%A0I%C4%A0study%C4%A0co
en.%C4%A0K %C3%83%C2%BCrz
stex te?%C4%A0%C4%8AAssistant:%C4%A0
klick st%C4%A0auf%C4%A0
Wer te.</s>
ar ri
User:%C4%A0Wer%C4%A0war%C4%A0G andhi?%C4%A0%C4%8AAssistant:%C4%A0Ein%C4%A0Anf%C3%83%C2%BChrer%C4%A0aus%C4%A0In
You%C4%A0are%C4%A0welcom e.</s>
.%C4%A0Viele%C4%A0 Menschen%C4%A0
mal%C4%A0 zwei.</s>
Eta ppen.%C4%A0Dann%C4%A0
t%C4%A0gibt%C4%A0es%C4%A0Obst.%C4%A0Die%C4%A0Preise%C4%A0sind%C4%A0 gut.%C4%A0%C4%8AAssistant:%C4%A0Obstmark
Pr%C3%83%C2%A4sen s%C4%A0
.%C4%A0Wir%C4%A0lesen%C4%A0dazu.%C4%A0%C4%8AAssistant:%C4%A0Leise%C4%A0Mu sik%C4%A0beim%C4%A0Lesen.</s>
aren%C4%A0f%C3%83%C2%BCr%C4%A0ein%C4%A0Fahrra d.</s>
User:%C4%A0Fasse%C4%A0zusammen:%C4%A0Auf%C4%A0dem%C4%A0Mark t%C4%A0gibt%C4%A0es%C4%A0Obst.%C4%A0Die%C4%A0Preise%C4%A0sind%C4%A0gut.%C4%A0%C4%8AAssistant:%C4%A0Obstmark
mputer%C4%A0s cience.</s>
wichtig %C4%A0
Beg r
er gebniss
Elemen te.</s>
war m%C4%A0
?%C4%A0%C4%8AAssistant:%C4%A0Ein%C4%A0Bild%C4%A0 von%C4%A0
steigend?%C4%A0%C4%8AAssistant:%C4%A0Du%C4%A0vergleichst%C4%A0 Paare.%C4%A0
K ant
User:%C4%A0Was%C4%A0ist%C4%A0ein%C4%A0Algorithmus?%C4%A0%C4%8AAssistant:%C4%A0Eine%C4%A0klare%C4%A0 Schrittfolge.%C4%A0Sie%C4%A0l%C3%83%C2%B6st%C4%A0
%C4%A0d reh
User:%C4%A0%C3%83%C4%BEbersetze%C4%A0ins%C4%A0Englische:%C4%A0 Entschuldigung.%C4%A0%C4%8AAssistant:%C4%A0
%C3%83%C2%A4r chen
Be such%C4%A0bei%C4%A0Oma%C4%A0mit%C4%A0
W ichtiges%C4%A0
ho ch%C4%A0
.%C4%A0Danach%C4%A0 trink
haeufig %C4%A0
Bitte%C4%A0 sehr.%C4%A0%C4%8AAssistant:%C4%A0
op er
bin d
Thema .%C4%A0Dann%C4%A0
Weg %C4%A0
t%C4%A0 auf%C4%A0
User:%C4%A0Ein%C4%A0 Preis%C4%A0ist%C4%A0
st%C4%A0nach%C4%A0 Zeit
haben%C4%A0Zeit.%C4%A0%C4%8AAssistant:%C4%A0Nous%C4%A0avons %C4%A0du%C4%A0temps.</s>
sieh st%C4%A0
Wassertr %C3%83%C2%B6pfch
User:%C4%A0Wie%C4%A0schreibe%C4%A0ich%C4%A0Pitch%C4%A0 an%C4%A0
en.%C4%A0Dann%C4%A0 wiederholst%C4%A0du%C4%A0
w%C3%83%C2%B6rt liche%C4%A0Rede%C4%A0
nach %C4%A0dem%C4%A0
Schreib%C4%A0das%C4%A0 auf
Sie%C4%A0tanzen%C4%A0 gern
richtig .</s>
sehe%C4%A0den%C4%A0 Mond
Lernmat eri
User:%C4%A0%C3%83%C4%BEbersetze%C4%A0ins%C4%A0Englische:%C4%A0Ich%C4%A0komme%C4%A0 aus%C4%A0Deutschland.%C4%A0%C4%8AAssistant:%C4%A0I%C4%A0am%C4%A0from%C4%A0Germany.</s>
Rei b
sauber .%C4%A0%C4%8AAssistant:%C4%A0
Klar er%C4%A0
B litz
User:%C4%A0%C3%83%C4%BEbersetze%C4%A0ins%C4%A0Franz%C3%83%C2%B6sische:%C4%A0Es%C4%A0tut%C4%A0mir%C4%A0leid.%C4%A0%C4%8AAssistant:%C4%A0Je%C4%A0suis%C4%A0d%C3%83%C2%A9sol %C3%83%C2%A9.</s>
Tool s.%C4%A0Dann%C4%A0
im%C4%A0 Alltag
Fehl er?%C4%A0%C4%8AAssistant:%C4%A0Du%C4%A0
sen sib
n%C3%83%C2%A4chsten%C4%A0 Schritt.</s>
tr iff
h%C3%83%C2%A4lt st%C4%A0
User:%C4%A0%C3%83%C4%BEbersetze%C4%A0ins%C4%A0Englische:%C4%A0Ich%C4%A0studiere%C4%A0Informatik.%C4%A0%C4%8AAssistant:%C4%A0I%C4%A0study%C4%A0co mputer%C4%A0science.</s>
Auss ag
User:%C4%A0%C3%83%C4%BEbersetze%C4%A0ins%C4%A0Franz%C3%83%C2%B6sische:%C4%A0Ich%C4%A0brauche%C4%A0Hilfe.%C4%A0%C4%8AAssistant:%C4%A0J%C4%A0ai%C4%A0besoin%C4%A0d%C4%A0ai de.</s>
User:%C4%A0%C3%83%C4%BEbersetze%C4%A0ins%C4%A0Englische:%C4%A0Das%C4%A0ist%C4%A0einfach .%C4%A0%C4%8AAssistant:%C4%A0That%C4%A0is%C4%A0easy.</s>
t -
User:%C4%A0Was%C4%A0ist%C4%A0eine%C4%A0 Demokratie?%C4%A0%C4%8AAssistant:%C4%A0Das%C4%A0Volk%C4%A0w%C3%83%C2%A4hlt.%C4%A0Rechte%C4%A0
User:%C4%A0%C3%83%C4%BEbersetze%C4%A0ins%C4%A0Englische:%C4%A0Kein%C4%A0Problem.%C4%A0%C4%8AAssistant:%C4%A0No%C4%A0problem .</s>
lat ten%C4%A0
Sch %C3%83%C2%A4tz
t.%C4%A0 Keine%C4%A0offenen%C4%A0
User:%C4%A0Wie%C4%A0beende st%C4%A0du%C4%A0eine%C4%A0
knapp .</s>
Afrika.%C4%A0Sehr%C4%A0 trocken.</s>
User:%C4%A0Fasse%C4%A0zusammen:%C4%A0Die%C4%A0Sonne%C4%A0schein t.%C4%A0Wir%C4%A0
%C4%A0ein%C4%A0 bi
o m%C4%A0
)%C4%A0%C4%8AAssistant:%C4%A0 2</s>
ur sach
fr%C3%83%C2%BCh %C4%A0
User:%C4%A0Fasse%C4%A0zusammen:%C4%A0Der%C4%A0 Laptop%C4%A0ist%C4%A0alt.%C4%A0Er%C4%A0
Physik.%C4%A0Morgen%C4%A0ist%C4%A0Test.%C4%A0%C4%8AAssistant:%C4%A0P hysi
User:%C4%A0%C3%83%C4%BEbersetze%C4%A0ins%C4%A0Franz%C3%83%C2%B6sische:%C4%A0Entschuldigung.%C4%A0%C4%8AAssistant:%C4%A0Par don.</s>
19 4
wahr%C4%A0 oder%C4%A0fal
kontrolli er
.%C4%A0%C4%8AAssistant:%C4%A0Thank%C4%A0 you%C4%A0
Wider spr%C3%83%C2%BCch
?%C4%A0%C4%8AAssistant:%C4%A0Ein%C4%A0Fluss %C4%A0in%C4%A0
ation?%C4%A0%C4%8AAssistant:%C4%A0Du%C4%A0 startest%C4%A0mit%C4%A0
%C4%A0%C3%83%C2%B7%C4%A03%C4%A0=%C4%A0 2.%C4%A0Dann%C4%A0
Einfach%C4%A0 und%C4%A0
frag en%C4%A0vor?%C4%A0%C4%8AAssistant:%C4%A0Du%C4%A0
%C4%A0d a%C4%A0
Neutr alit%C3%83%C2%A4t?%C4%A0%C4%8AAssistant:%C4%A0
.%C4%A0%C4%8AAssistant:%C4%A0Fr isches%C4%A0Brot%C4%A0mit%C4%A0gutem%C4%A0Duft.</s>
User:%C4%A0Wie%C4%A0schreibe%C4%A0ich%C4%A0eine%C4%A0 Zusammenfassung?%C4%A0%C4%8AAssistant:%C4%A0
zweier%C4%A0Groessen%C4%A0konstant %C4%A0bleibt.</s>
st %C3%83%C2%A4r
CO 2.</s>
User:%C4%A0Fasse%C4%A0zusammen:%C4%A0Ich%C4%A0schreibe%C4%A0Notiz en.%C4%A0Sie%C4%A0helfen%C4%A0
Menschenrechte?%C4%A0%C4%8AAssistant:%C4%A0 Rechte%C4%A0f%C3%83%C2%BCr%C4%A0
gew ich
User:%C4%A0Was%C4%A0ist%C4%A0Inflation?%C4%A0%C4%8AAssistant:%C4%A0Preise%C4%A0steigen.%C4%A0G eld%C4%A0ver
k ap
ch mal%C4%A0
Zwei- Fakt
reg eln
User:%C4%A0Was%C4%A0ist%C4%A0ein%C4%A0 Planet
2 .%C4%A0Doppelt%C4%A0
an gaben?%C4%A0%C4%8AAssistant:%C4%A0
Nud eln
User:%C4%A0 I
Er%C4%A0 singt%C4%A0gut
User:%C4%A04 5
Kon stant
laut.%C4%A0Ich%C4%A0setze%C4%A0Kopfh%C3%83%C2%B6rer%C4%A0auf.%C4%A0%C4%8AAssistant:%C4%A0L %C3%83%C2%A4rm%C4%A0mit%C4%A0Kopfh%C3%83%C2%B6rern%C4%A0gel%C3%83%C2%B6st.</s>
User:%C4%A0Was%C4%A0ist%C4%A0Inflation?%C4%A0%C4%8AAssistant:%C4%A0Preise%C4%A0steigen.%C4%A0Geld%C4%A0ver liert%C4%A0Wert.</s>
Sinnesdet ails%C4%A0
arbei te
Mo tiv
Physik.%C4%A0Morgen%C4%A0ist%C4%A0Test.%C4%A0%C4%8AAssistant:%C4%A0Physi klernen%C4%A0vor%C4%A0dem%C4%A0Te
online.%C4%A0Die%C4%A0Kamera%C4%A0 bleibt%C4%A0an.%C4%A0%C4%8AAssistant:%C4%A0Online%C4%A0
M%C3%83%C2%BCll%C4%A0raus.%C4%A0Es%C4%A0riecht%C4%A0 besser.%C4%A0%C4%8AAssistant:%C4%A0M%C3%83%C2%BCll%C4%A0raus,%C4%A0
?%C4%A0%C4%8AAssistant:%C4%A0Ein%C4%A0 Ger%C3%83%C2%A4t%C4%A0
User:%C4%A0Fasse%C4%A0zusammen:%C4%A0Ich%C4%A0%C3%83%C2%BCbe%C4%A0 Gitarre.%C4%A0
User:%C4%A0%C3%83%C4%BEbersetze%C4%A0ins%C4%A0Englische:%C4%A0Wo%C4%A0ist%C4%A0der%C4%A0Bahnhof .%C4%A0%C4%8AAssistant:%C4%A0Where%C4%A0is%C4%A0the%C4%A0train%C4%A0station.</s>
el f.</s>
erle digt.</s>
schwer.%C4%A0%C4%8AAssistant:%C4%A0Mathelernen%C4%A0mit%C4%A0 schwer
User:%C4%A0Wie%C4%A0schreibe%C4%A0ich%C4%A0 Dial
Vergang enheit
Detail s.%C4%A0
geteilt%C4%A0durch%C4%A0 Zeit.</s>
er%C4%A0Wandel .%C4%A0Oft%C4%A0
Abstra k
fo er
mond%C4%A0 bedeutet%C4%A0dass%C4%A0die%C4%A0Mondscheibe%C4%A0
st ri
HTML%C4%A0 ein.%C4%A0%C4%8AAssistant:%C4%A0Nutze%C4%A0<
.%C4%A0Danach%C4%A0ist%C4%A0es%C4%A0 sauber.%C4%A0%C4%8AAssistant:%C4%A0
User:%C4%A0Fasse%C4%A0zusammen:%C4%A0Der%C4%A0Akku%C4%A0ist%C4%A0leer.%C4%A0Ich%C4%A0lade%C4%A0das%C4%A0 Handy.%C4%A0%C4%8AAssistant:%C4%A0Leerer%C4%A0Akku,%C4%A0Handy%C4%A0
Di enst
.%C4%A0%C4%8AAssistant:%C4%A0Merci%C4%A0beauco up.</s>
sp%C3%83%C2%A4 te
ho ch
User:%C4%A0Was%C4%A0ist%C4%A0F%C3%83%C2%B6der alismus?%C4%A0%C4%8AAssistant:%C4%A0Macht%C4%A0
User:%C4%A0Wer%C4%A0 war%C4%A0M
M au
v ier
mit%C4%A0K amera%C4%A0an.</s>
User:%C4%A0Fasse%C4%A0zusammen:%C4%A0Die%C4%A0 Stra%C3%83%C5%81e%C4%A0ist%C4%A0
document.get ElementById('
stab en%C4%A0
User:%C4%A0%C3%83%C4%BEbersetze%C4%A0ins%C4%A0Franz%C3%83%C2%B6sische:%C4%A0Wo%C4%A0wohnst%C4%A0du .%C4%A0%C4%8AAssistant:%C4%A0Tu%C4%A0habites%C4%A0o%C3%83%C2%B9.</s>
4 2.</s>
User:%C4%A0Was%C4%A0ist%C4%A0die%C4%A0UNO?%C4%A0%C4%8AAssistant:%C4%A0Staatenbund.%C4%A0 Arbeitet%C4%A0f%C3%83%C2%BCr%C4%A0Frieden.</s>
Wahl rech
Bl um
ung .%C4%A0Dann%C4%A0pr%C3%83%C2%BCfst%C4%A0du%C4%A0
e -
User:%C4%A0Fasse%C4%A0zusammen:%C4%A0Das%C4%A0Zimmer%C4%A0ist%C4%A0 laut.%C4%A0Ich%C4%A0setze%C4%A0Kopfh%C3%83%C2%B6rer%C4%A0auf.%C4%A0%C4%8AAssistant:%C4%A0L%C3%83%C2%A4rm%C4%A0mit%C4%A0Kopfh%C3%83%C2%B6rern%C4%A0gel%C3%83%C2%B6st.</s>
St %C3%83%C2%BCtz
starke%C4%A0 Verb
%C3%83%C2%A4 uben%C4%A0
niss e?%C4%A0%C4%8AAssistant:%C4%A0
Kol on
p unkt
De%C4%A0ri en.</s>
Bur g
Physik.%C4%A0Morgen%C4%A0ist%C4%A0Test.%C4%A0%C4%8AAssistant:%C4%A0Physiklernen%C4%A0vor%C4%A0dem%C4%A0Te st.</s>
ti tle
Masch in
User:%C4%A0%C3%83%C4%BEbersetze%C4%A0ins%C4%A0Franz%C3%83%C2%B6sische:%C4%A0Wo%C4%A0ist%C4%A0die%C4%A0Schule .%C4%A0%C4%8AAssistant:%C4%A0O%C3%83%C2%B9%C4%A0est%C4%A0
no ch%C4%A0schnell.%C4%A0%C4%8AAssistant:%C4%A0Alter%C4%A0Laptop,%C4%A0
User:%C4%A0Fasse%C4%A0zusammen:%C4%A0Auf%C4%A0dem%C4%A0Markt%C4%A0gibt%C4%A0es%C4%A0Obst.%C4%A0Die%C4%A0Preise%C4%A0sind%C4%A0gut.%C4%A0%C4%8AAssistant:%C4%A0Obstmark t%C4%A0mit%C4%A0guten%C4%A0Preisen.</s>
Akzeptanz kriteri
Rei se%C4%A0
User:%C4%A0%C3%83%C4%BEbersetze%C4%A0ins%C4%A0Franz%C3%83%C2%B6sische:%C4%A0Wir%C4%A0kochen%C4%A0heu te.%C4%A0%C4%8AAssistant:%C4%A0Nous%C4%A0cuisinons%C4%A0au
wach sen%C4%A0
Wasser%C4%A0 schnell
er moeg
bo x');</s>
User:%C4%A0Fasse%C4%A0zusammen:%C4%A0Die%C4%A0 Pr%C3%83%C2%BCfung%C4%A0ist%C4%A0bald.%C4%A0Ich%C4%A0wiederhole%C4%A0
User:%C4%A0%C3%83%C4%BEbersetze%C4%A0ins%C4%A0Englische:%C4%A0Bis%C4%A0sp%C3%83%C2%A4ter.%C4%A0%C4%8AAssistant:%C4%A0See%C4%A0you%C4%A0 later.</s>
nutzt%C4%A0du%C4%A0 sie%C4%A0
User:%C4%A0G ilt%C4%A0
enziel e?%C4%A0%C4%8AAssistant:%C4%A0Was%C4%A0
trenn en.%C4%A0
User:%C4%A0%C3%83%C4%BEbersetze%C4%A0ins%C4%A0Englische:%C4%A0Ich%C4%A0bin%C4%A0bereit .%C4%A0%C4%8AAssistant:%C4%A0I%C4%A0am%C4%A0ready.</s>
User:%C4%A0Wie%C4%A0schreibe%C4%A0ich%C4%A0 im%C4%A0
l %C4%A0%C4%8AAssistant:%C4%A0
.%C4%A0Add iere%C4%A0die%C4%A0
ar?%C4%A0%C4%8AAssistant:%C4%A0Ein%C4%A0r%C3%83%C2%B6misch er%C4%A0
Def ault
User:%C4%A0Wie%C4%A0schreibe%C4%A0ich%C4%A0H umor
User:%C4%A0Wie%C4%A0 wirkt%C4%A0
Fazi t.</s>
toi%C4%A0 bien.</s>
t%C4%A0 s
r el
User:%C4%A0 Mittelwert%C4%A0von%C4%A0
e?%C4%A0%C4%8AAssistant:%C4%A0Du%C4%A0 setzt%C4%A0
Abl auf%C4%A0
Such e%C4%A0
s crip
Koordin at
User:%C4%A0Was%C4%A0machst%C4%A0du%C4%A0bei%C4%A0 0
' est%C4%A0
Weg .</s>
Schnitt stelle%C4%A0
Vokabeln%C4%A0 mit%C4%A0Karteikart
entscheidest%C4%A0du%C4%A0j a%C4%A0oder%C4%A0n
entscheidest%C4%A0du%C4%A0ja%C4%A0oder%C4%A0n ein.</s>
jourd' hui
begr %C3%83%C2%BCndet.</s>
Ergebnis:%C4%A0 5.</s>
schreiben%C4%A0einen%C4%A0 Test
Unter brech
Obje kt%C4%A0
.%C4%A0%C4%8AAssistant:%C4%A0%C3%83%C4%A9a%C4%A0co%C3%83%C2%BBte%C4%A0 combien.</s>
User:%C4%A0Fasse%C4%A0zusammen:%C4%A0Wir%C4%A0machen%C4%A0Sport .%C4%A0Danach%C4%A0trink
en.%C4%A0%C4%8AAssistant:%C4%A0T%C3%83%C2%A4gliches%C4%A0Gitarr en%C3%83%C2%BCb
Salz %C4%A0s
in .%C4%A0
Team%C4%A0 gewinn
User:%C4%A0Wer%C4%A0war%C4%A0Gandhi?%C4%A0%C4%8AAssistant:%C4%A0Ein%C4%A0Anf%C3%83%C2%BChrer%C4%A0aus%C4%A0In di
User:%C4%A0%C3%83%C4%BEbersetze%C4%A0ins%C4%A0Franz%C3%83%C2%B6sische:%C4%A0Wir%C4%A0 haben%C4%A0Zeit.%C4%A0%C4%8AAssistant:%C4%A0Nous%C4%A0avons%C4%A0du%C4%A0temps.</s>
for%C4%A0the%C4%A0exam .</s>
sch%C3%83%C2%BCtzen%C4%A0 Menschen.</s>
eu x%C4%A0tu%C4%A0
zerleg st%C4%A0in%C4%A0
wechsel?%C4%A0%C4%8AAssistant:%C4%A0 Klar%C4%A0
User:%C4%A0%C3%83%C4%BEbersetze%C4%A0ins%C4%A0Englische:%C4%A0Entschuldigung.%C4%A0%C4%8AAssistant:%C4%A0 Excuse%C4%A0me.</s>
Pf eil
wichtig ?%C4%A0%C4%8AAssistant:%C4%A0Sie%C4%A0
,%C4%A0wir%C4%A0bleiben%C4%A0dahei m.</s>
Miss brauch.</s>
?%C4%A0%C4%8AAssistant:%C4%A0Die%C4%A0 Lehre%C4%A0von%C4%A0
arri ve%C4%A0
gen utz
%C3%83%C2%A4ch tige%C4%A0
User:%C4%A0%C3%83%C4%BEbersetze%C4%A0ins%C4%A0Englische:%C4%A0 Gute%C4%A0Nacht.%C4%A0%C4%8AAssistant:%C4%A0Good%C4%A0night.</s>
erneuer bare%C4%A0
Schutz %C4%A0vor%C4%A0
bin%C4%A0unterweg s
erlau bt.</s>
%C4%A0ein%C4%A0bi ssch
B all
w enden.</s>
zerlegst%C4%A0in%C4%A0 Teile.%C4%A0Dann%C4%A0
Z%C3%83%C2%A4h ne
Entw icklung%C4%A0
Se tz%C4%A0dich%C4%A0bitte.%C4%A0%C4%8AAssistant:%C4%A0
iskuss ion
.%C4%A0%C4%8AAssistant:%C4%A0H artes%C4%A0
User:%C4%A0%C3%83%C4%BEbersetze%C4%A0ins%C4%A0Englische:%C4%A0Wir%C4%A0spielen%C4%A0Fu%C3%83%C5%81ball.%C4%A0%C4%8AAssistant:%C4%A0We%C4%A0 play%C4%A0soccer.</s>
User:%C4%A0Fasse%C4%A0zusammen:%C4%A0Ich%C4%A0schreibe%C4%A0eine%C4%A0E%C4%A0Mail.%C4%A0Die%C4%A0Antwort%C4%A0 kommt%C4%A0sp%C3%83%C2%A4ter.%C4%A0%C4%8AAssistant:%C4%A0E%C4%A0Mail%C4%A0geschrieben,%C4%A0Antwort%C4%A0sp%C3%83%C2%A4ter.</s>
.%C4%A0Sie%C4%A0 sch%C3%83%C2%BCtzen%C4%A0Menschen.</s>
at men%C4%A0
.%C4%A0Dann%C4%A0 teilst%C4%A0du%C4%A0
K ann%C4%A0ich%C4%A0gehen.%C4%A0%C4%8AAssistant:%C4%A0
best%C3%83%C2%A4tig st%C4%A0du%C4%A0
N ur%C4%A0
User:%C4%A0Wie%C4%A0schreibe%C4%A0ich%C4%A0Wett bewerb
ar en%C4%A0
Reihen folg
st es%C4%A0
Ein%C4%A0 In
?%C4%A0%C4%8AAssistant:%C4%A0Ja.%C4%A0 Ach
europ %C3%83%C2%A4ischer%C4%A0
il l
,%C4%A0wenn%C4%A0 es%C4%A0
hand l
steh en.</s>
Trig g
P eux%C4%A0tu%C4%A0
User:%C4%A0Fasse%C4%A0zusammen:%C4%A0Wir%C4%A0h%C3%83%C2%B6ren%C4%A0leise%C4%A0Musik .%C4%A0Wir%C4%A0lesen%C4%A0dazu.%C4%A0%C4%8AAssistant:%C4%A0Leise%C4%A0Musik%C4%A0beim%C4%A0Lesen.</s>
fasst%C4%A0du%C4%A0 zusammen.</s>
m ein%C4%A0Buch
