e r
s t
: %C4%A0
e %C4%A0
a n
c h
e n
i st
s s
%C4%A0 A
e i
. </s>
an t
s er
ant :%C4%A0
ss ist
ssist ant:%C4%A0
ser :%C4%A0
U ser:%C4%A0
%C4%A0A ssistant:%C4%A0
%C4%A0 d
. %C4%A0
? %C4%A0Assistant:%C4%A0
i n
u %C4%A0
i e%C4%A0
s %C4%A0
User:%C4%A0 W
t %C4%A0
s ch
n %C4%A0
st %C4%A0d
en %C4%A0
User:%C4%A0W ie%C4%A0
u n
e l
st%C4%A0d u%C4%A0
i ch
t z
.%C4%A0 D
ei n
er %C4%A0
a r
%C3%83 %C2%A4
%C3%83 %C2%BC
?%C4%A0Assistant:%C4%A0 D
. %C4%A0Assistant:%C4%A0
an n%C4%A0
r ei
s e
.%C4%A0D ann%C4%A0
st %C4%A0
t i
l i
t e
en .</s>
?%C4%A0Assistant:%C4%A0D u%C4%A0
g e
a s%C4%A0
o r
a u
d %C4%A0
b er
ist %C4%A0
un g
E in
o n
tz e%C4%A0
ich %C4%A0
rei b
a l
sch reib
%C3%83 %C2%B6
u r
, %C4%A0
%C3%83 %C4%BE
m m
%C3%83%C4%BE ber
s i
ein e%C4%A0
sch e
a ss
se tze%C4%A0
in s%C4%A0
User:%C4%A0 %C3%83%C4%BEber
setze%C4%A0 ins%C4%A0
a ch
sche :%C4%A0
User:%C4%A0%C3%83%C4%BEber setze%C4%A0ins%C4%A0
e%C4%A0 ich%C4%A0
m %C4%A0
User:%C4%A0Wie%C4%A0 schreib
e h
i er
User:%C4%A0W as%C4%A0
User:%C4%A0Wie%C4%A0schreib e%C4%A0ich%C4%A0
l e
i el
t .</s>
s a
E r
un d%C4%A0
p r
ei n%C4%A0
i t
ch %C4%A0
E n
a t
z u
F r
d e
l an
b e
o l
en .%C4%A0
Ein %C4%A0
d er
t e%C4%A0
i r
c k
a b
User:%C4%A0Was%C4%A0 ist%C4%A0
sa mm
e g
S ch
e .</s>
i l
an z
i g
v er
I ch%C4%A0
in %C4%A0
m i
t r
En g
zu samm
i e
ass e%C4%A0
Eng li
t %C4%A0d
%C3%83%C2%B6 si
l ei
anz %C3%83%C2%B6si
zusamm en
Fr anz%C3%83%C2%B6si
User:%C4%A0 F
User:%C4%A0%C3%83%C4%BEbersetze%C4%A0ins%C4%A0 Engli
User:%C4%A0%C3%83%C4%BEbersetze%C4%A0ins%C4%A0Engli sche:%C4%A0
Franz%C3%83%C2%B6si sche:%C4%A0
User:%C4%A0%C3%83%C4%BEbersetze%C4%A0ins%C4%A0 Franz%C3%83%C2%B6sische:%C4%A0
%C3%83%C2%BC f
t er
User:%C4%A0F asse%C4%A0
zusammen :%C4%A0
a g
n i
r e
r o
a h
s p
el l
%C4%A0 %C3%83
ei t
k l
mi t%C4%A0
p lan
u f
S t
pr %C3%83%C2%BCf
%C3%83 %C5%81
ge b
ur z
e u
u m
o n%C4%A0
s ?%C4%A0Assistant:%C4%A0
er n
au f
e t
st%C4%A0d u
en t
in g
Ein e%C4%A0
%C4%A0d ie%C4%A0
R e
+ %C4%A0
%C4%A0 +%C4%A0
User:%C4%A0Fasse%C4%A0 zusammen:%C4%A0
ung %C4%A0
v iel
b ei
s .</s>
an d
,%C4%A0 w
geb ni
ei l
plan st%C4%A0du%C4%A0
ti on
Er gebni
u tz
V er
u t
r %C4%A0
r a
h l
f %C3%83%C2%BC
User:%C4%A0Was%C4%A0ist%C4%A0 ein%C4%A0
T e
k t
e s%C4%A0
%C3%83%C2%A4 n
en ?%C4%A0Assistant:%C4%A0
o %C4%A0
en .%C4%A0Dann%C4%A0
r it
.%C4%A0 S
k urz
ge h
k o
User:%C4%A0Wie%C4%A0 planst%C4%A0du%C4%A0
er .</s>
en d
r u
h e
n e
ir %C4%A0
f f
p p
m ach
w er
- %C4%A0
en ?%C4%A0Assistant:%C4%A0Du%C4%A0
%C4%A0 -%C4%A0
l %C4%A0
v or
st e
l ich
= %C4%A0
w ei
ie%C4%A0 viel
en n
g i
lei ch
i m%C4%A0
m a
I n
%C3%83%C2%A4 hl
P ro
G e
e ?%C4%A0Assistant:%C4%A0
u ch
%C4%B9 %C4%A0
ti er
%C4%A0%C3%83 %C4%B9%C4%A0
%C3%83%C2%B6 r
ein en%C4%A0
h a
r i
l u
D at
B e
,%C4%A0 Ergebni
W ass
a s
u m%C4%A0
w ir
E s%C4%A0
%C4%A0 =%C4%A0
li e
,%C4%A0Ergebni s?%C4%A0Assistant:%C4%A0
,%C4%A0w ie%C4%A0viel
ier st%C4%A0du%C4%A0
%C4%A0d er%C4%A0
n ach
g e%C4%A0
,%C4%A0wie%C4%A0viel ?%C4%A0Assistant:%C4%A0
?%C4%A0Assistant:%C4%A0 Ein%C4%A0
m p
W ir%C4%A0
un d
User:%C4%A0 1
o k
a d
.%C4%A0Assistant:%C4%A0 I
se tz
Sch rit
K on
Er %C4%A0
st eh
pr%C3%83%C2%BCf st%C4%A0du%C4%A0
l o
n utz
t eil
te .</s>
User:%C4%A0Wie%C4%A0schreibe%C4%A0ich%C4%A0 eine%C4%A0
o d
e%C4%A0 d
i m
s in
g ab
u l
v on%C4%A0
un k
%C4%A0 und%C4%A0
f in
i s%C4%A0
u s
ei g
S S
.%C4%A0Assistant:%C4%A0 J
%C2%B7 %C4%A0
%C4%A0%C3%83 %C2%B7%C4%A0
%C4%A0d e
al l
ich t%C4%A0
Z iel
%C3%83%C2%BC b
ie der
bei %C4%A0
t%C4%A0d u%C4%A0
t .%C4%A0
User:%C4%A0%C3%83%C4%BEbersetze%C4%A0ins%C4%A0Englische:%C4%A0 Ich%C4%A0
User:%C4%A0%C3%83%C4%BEbersetze%C4%A0ins%C4%A0Franz%C3%83%C2%B6sische:%C4%A0 Ich%C4%A0
S p
%C4%A0A b
ti g
e .%C4%A0
%C3%83%C2%A4 r
a %C4%A0
K o
W I
WI SS
w ar
Z eit
e s
geh st%C4%A0du%C4%A0
N :%C4%A0
E N:%C4%A0
z en
ar k
WISS EN:%C4%A0
g leich
kurz %C4%A0
sp iel
b t%C4%A0
User:%C4%A0Wie%C4%A0 gehst%C4%A0du%C4%A0
R eg
ar e%C4%A0
w %C3%83%C2%A4hl
ich t
eh l
er st%C4%A0du%C4%A0
f or
2 0
f%C3%83%C2%BC r%C4%A0
an n
ar um%C4%A0
au s
d en%C4%A0
.%C4%A0Assistant:%C4%A0I %C4%A0
z i
f ol
h ol
User:%C4%A0Was%C4%A0 ist
n e%C4%A0
st%C4%A0du%C4%A0 eine%C4%A0
K l
a m
u s%C4%A0
er k
. %C4%A0A
?%C4%A0Assistant:%C4%A0 Eine%C4%A0
t sch
%C4%A0 ist%C4%A0
P r
b lei
ti v
m al
s uch
sin d%C4%A0
l l
ah r
d e%C4%A0
kurz%C4%A0 zusammen:%C4%A0
ieder hol
w eg
User:%C4%A0W arum%C4%A0
e ss
User:%C4%A0Fasse%C4%A0 kurz%C4%A0zusammen:%C4%A0
f r
nach %C4%A0
t en%C4%A0
te ste
l ern
eh r
o m
ol l
e .%C4%A0Dann%C4%A0
j e
u tze%C4%A0
1 0
B er
User:%C4%A0Was%C4%A0ist%C4%A0 eine%C4%A0
ier t%C4%A0
t er%C4%A0
s ie%C4%A0
a li
ung .</s>
l %C3%83%C2%A4
en sch
e ?%C4%A0Assistant:%C4%A0Du%C4%A0
%C3%83%C2%BC n
a ck
%C3%83%C2%BCb er%C4%A0
R ei
e%C4%A0 A
sch n
a k
i mm
b r
User:%C4%A0Fasse%C4%A0zusammen:%C4%A0 D
f t%C4%A0
e st
h ab
en .%C4%A0Assistant:%C4%A0
ier st%C4%A0
s ich
wir d%C4%A0
ur %C4%A0
User:%C4%A0Wie%C4%A0 st
a m%C4%A0
ung en%C4%A0
B ei
st%C4%A0du %C4%A0d
G r
.%C4%A0 N
a i
t h
B il
ei ch
an %C4%A0
ko mm
le m
a il
w or
User:%C4%A0Fasse%C4%A0zusammen:%C4%A0 Ich%C4%A0
.%C4%A0 Es%C4%A0
i sch
%C4%A0A uf
%C4%A0A n
te ?%C4%A0Assistant:%C4%A0
ar t
o ff
auf %C4%A0
el n
er st
o b
ei t%C4%A0
s e%C4%A0
h r
el %C4%A0
ent steh
J S
or d
.%C4%A0D u%C4%A0
e ch
k %C4%A0
Wass er%C4%A0
ah l
vor ?%C4%A0Assistant:%C4%A0Du%C4%A0
u d
o t
User:%C4%A0Wie%C4%A0 pr%C3%83%C2%BCfst%C4%A0du%C4%A0
L ern
W er
Te x
Q u
U n
o h
i si
o p
q u
ge .</s>
schn ell
F ehl
h el
User:%C4%A0 2
zi eh
or g
T he
L o
kl %C3%83%C2%A4r
%C3%83%C2%A4n der
%C3%83%C2%A4 l
P er
.%C4%A0 Z
1 2
y %C4%A0
ur ch%C4%A0
H and
%C4%A0A r
sp %C3%83%C2%A4
b en
ver gleich
b au
p f
%C4%A0de fin
a p
ar te
N utze%C4%A0
M ensch
t ?%C4%A0Assistant:%C4%A0
L e
k on
ing %C4%A0
Pr %C3%83%C2%BCf
en z
an g
gi b
el n%C4%A0
K urz
i s
St a
unk tion
Re ch
User:%C4%A0Wie%C4%A0gehst%C4%A0du%C4%A0 bei%C4%A0
h er
P lan
b ar
e st%C4%A0
en%C4%A0 und%C4%A0
%C4%A0d as%C4%A0
au s%C4%A0
.%C4%A0Assistant:%C4%A0 W
.%C4%A0 Er%C4%A0
User:%C4%A0Fasse%C4%A0kurz%C4%A0zusammen:%C4%A0 Ein%C4%A0
t en.</s>
z eig
ru pp
n o
b en%C4%A0
.%C4%A0Assistant:%C4%A0J e%C4%A0
t%C4%A0d ie%C4%A0
.%C4%A0S ie%C4%A0
k t%C4%A0
S tr
a tion
Bei spiel
l in
ha t%C4%A0
Z u
t .%C4%A0Dann%C4%A0
l au
s ich%C4%A0
O r
fol g
be ss
re ch
ung ?%C4%A0Assistant:%C4%A0
L uf
S zen
M on
y .</s>
; </s>
g ut
.%C4%A0Assistant:%C4%A0 T
S ie%C4%A0
s el
w iederhol
D as%C4%A0
an .</s>
V iel
en t%C4%A0
teste st%C4%A0du%C4%A0
st%C4%A0d ie%C4%A0
User:%C4%A0Was%C4%A0ist %C4%A0die%C4%A0
%C3%83%C2%BC r
de .</s>
te t%C4%A0
%C4%A0Auf gab
1 5
%C3%83%C2%BC ck
od er%C4%A0
a ge
ti on%C4%A0
z u%C4%A0
nutz t%C4%A0
F ig
h al
n ah
f a
?%C4%A0Assistant:%C4%A0D u
se h
%C3%83%C2%BC ber
ich tig
JS .%C4%A0Assistant:%C4%A0
lu ss
schreib st%C4%A0
pr%C3%83%C2%BCf st%C4%A0
kl are%C4%A0
T eil
.%C4%A0D ie%C4%A0
.%C4%A0 M
F or
kt ur
k e%C4%A0
wei %C4%A0
ell e%C4%A0
en st
le x
m in
Z ei
d er%C4%A0
kl ar
%C4%A0A us
ein f
0 %C4%A0
Rei h
Wass er
g ro
i k
erk enn
te .%C4%A0Dann%C4%A0
D e
re d
r eg
Per s
sa m
lan g
ein .</s>
ier e%C4%A0
fr ag
hel f
d ing
setz t%C4%A0du%C4%A0
ti k
ein er%C4%A0
%C3%83%C2%A4 g
L ist
l a
mal %C4%A0
ei d
M e
J a
e k
b in
st .</s>
.%C4%A0Assistant:%C4%A0I%C4%A0 am%C4%A0
e%C4%A0 eine%C4%A0
p as
t ,%C4%A0
Tex t%C4%A0
%C3%83%C2%B6r ter
te ?%C4%A0Assistant:%C4%A0Du%C4%A0
le g
pr o%C4%A0
y o
wer den%C4%A0
WISSEN:%C4%A0 Eine%C4%A0
s o
u z
S pr
au ch
?%C4%A0Assistant:%C4%A0Du %C4%A0defin
%C3%83%C2%BC tz
f li
m u
gi bt%C4%A0
ung en.</s>
N o
n eu
lie %C3%83%C5%81
z %C3%83%C2%A4hl
en %C4%A0d
Sta at
br auch
o pp
ord ne
G rupp
te st%C4%A0du%C4%A0
Fig ur
N ach
in n
%C3%83%C2%A4 tz
in%C4%A0 JS.%C4%A0Assistant:%C4%A0
ge sch
ru ktur
um ?%C4%A0Assistant:%C4%A0Du%C4%A0
o ur
D i
User:%C4%A0Wie%C4%A0 mach
g r
el d
l auf
ar i
blei bt%C4%A0
A n
st ark
er t%C4%A0
e%C4%A0d ie%C4%A0
li ck
rei ch
%C4%A0 M
ko ch
de st%C4%A0du%C4%A0
En tsch
setz t%C4%A0
User:%C4%A0Wie%C4%A0 f
2 5
?%C4%A0Assistant:%C4%A0 Ja
Reih en
?%C4%A0Assistant:%C4%A0Du%C4%A0defin ierst%C4%A0
User:%C4%A0Wie%C4%A0st ruktur
3 0
S on
t%C4%A0 m
g u
te .%C4%A0Assistant:%C4%A0
b i
er n%C4%A0
eh n
mach st%C4%A0
au p
p er
%C4%A0d en%C4%A0
User:%C4%A0Fasse%C4%A0zusammen:%C4%A0 Wir%C4%A0
er ?%C4%A0Assistant:%C4%A0Du%C4%A0
ig k
le s%C4%A0
z w
T ag
er i
b eit
t .%C4%A0Assistant:%C4%A0
be schreib
ig .</s>
st eig
Mensch en%C4%A0
t o
nah m
t%C4%A0 ist%C4%A0
P f
lu s%C4%A0
m e%C4%A0
le .</s>
l ist
?%C4%A0Assistant:%C4%A0 W
ung s
p ass
Kon fli
%C4%A0de m%C4%A0
User:%C4%A0Wie%C4%A0struktur ierst%C4%A0du%C4%A0
h ei
d .</s>
User:%C4%A0Wie%C4%A0 setzt%C4%A0du%C4%A0
samm el
Dat en
User:%C4%A0W er%C4%A0
) ;</s>
User:%C4%A0 3
li eg
e%C4%A0 und%C4%A0
ein es%C4%A0
.%C4%A0 W
oh ne%C4%A0
f %C4%A0
y ste
st imm
en de
h o
st and
for m
s au
w e
st ell
%C4%A0+%C4%A0 1
Un ter
WISSEN:%C4%A0 Ein%C4%A0
ter .</s>
en .%C4%A0D
p lus%C4%A0
Reihen fol
a be
User:%C4%A0Fasse%C4%A0zusammen:%C4%A0D er%C4%A0
User:%C4%A0Wie%C4%A0f unktion
gro %C3%83%C5%81
en ig
S a
User:%C4%A0Wer%C4%A0 war
einf ach
st%C4%A0du %C4%A0die%C4%A0
ung ?%C4%A0Assistant:%C4%A0Du%C4%A0
on .</s>
p er%C4%A0
f o
e%C4%A0 H
z eich
s u
User:%C4%A0Wie%C4%A0 erkenn
eh r%C4%A0
F ahr
S u
al s%C4%A0
an k
or t
h in
o g
blei b
G er
si e.</s>
te .%C4%A0
m ark
b ack
D ie%C4%A0
l %C3%83%C2%B6
a %C3%83%C5%81
f est
et ail
%C3%83%C2%B6 n
zu .</s>
si er
o w
lern e%C4%A0
g abe
nutz t%C4%A0du%C4%A0
t a
ist%C4%A0 eine%C4%A0
d en.</s>
E x
i z
.%C4%A0Assistant:%C4%A0 H
W o%C4%A0
User:%C4%A0Wie%C4%A0schreibe%C4%A0ich%C4%A0 mit%C4%A0
t%C4%A0 und%C4%A0
E ur
en tier
M it
gib st%C4%A0du%C4%A0
h %C3%83%C2%B6r
Z ahl
st arte
ar bei
en%C4%A0 im%C4%A0
lan z
%C3%83%C2%A4n g
u e
E lem
H in
en ,%C4%A0
Fr age
st e%C4%A0
an ach
Pro z
Sch reib
Te st
an der
Be ding
red uz
K eine%C4%A0
ti z
ist %C4%A0die%C4%A0
el t%C4%A0
User:%C4%A0 5
M u
t%C4%A0 von%C4%A0
in d
S e
%C3%83 %C4%A6
Fr ag
k re
%C4%A0d a
il f
komm t%C4%A0
User:%C4%A0Wie%C4%A0 ver
L icht%C4%A0
m it
de u
i b
t ag
User:%C4%A0Wie%C4%A0planst%C4%A0du%C4%A0 eine%C4%A0
D etail
st%C4%A0du%C4%A0 einen%C4%A0
%C3%83%C2%A4 ch
N eu
seh r%C4%A0
.%C4%A0Assistant:%C4%A0 O
User:%C4%A0Was%C4%A0ist %C4%A0der%C4%A0
kl eine%C4%A0
lich .</s>
Sa tz
h y
H al
v e%C4%A0
th e%C4%A0
%C4%A0 f%C3%83%C2%BCr%C4%A0
%C3%83 %C2%A9
%C3%83%C2%A4 t
%C3%83%C2%BC h
vergleich st%C4%A0du%C4%A0
te s%C4%A0
%C4%A0Assistant:%C4%A0 1
lich e%C4%A0
The ma
hab en%C4%A0
sch ie
W et
mi s
l a%C4%A0
un ter
c o
.%C4%A0Assistant:%C4%A0J %C4%A0
3 ,%C4%A0Ergebnis?%C4%A0Assistant:%C4%A0
ung .%C4%A0
s pr
s or
?%C4%A0Assistant:%C4%A0Ja .%C4%A0
st %C3%83%C2%A4n
ok um
h e%C4%A0
m e.</s>
7 %C4%A0+%C4%A0
te x
ll e%C4%A0
u p
b il
er e%C4%A0
se .</s>
P unk
e%C4%A0 W
P ass
Pro b
at ur
ung en?%C4%A0Assistant:%C4%A0Du%C4%A0
ich te?%C4%A0Assistant:%C4%A0
c i
User:%C4%A0Wer%C4%A0war %C4%A0
A uf
ru ck
Fehl er
User:%C4%A0 4
M ach
User:%C4%A0Wie%C4%A0gehst%C4%A0du%C4%A0 mit%C4%A0
rei s
h %C3%83%C2%A4l
b it
n icht
n der
b o
w ichtig
%C3%83%C2%B6 %C3%83%C5%81
e f
el .</s>
,%C4%A0w as%C4%A0
l ass
W iederhol
l ag
v oll
en.%C4%A0 Sie%C4%A0
en der
%C3%83%C2%A4 h
%C3%83%C2%A4 tze%C4%A0
5 </s>
( '
Luf t%C4%A0
S ei
isch en%C4%A0
e x
I n%C4%A0
sch au
Te mp
ot he
ah l%C4%A0
yo u%C4%A0
V or
le .%C4%A0Dann%C4%A0
P ar
an c
t%C4%A0d er%C4%A0
f%C3%83%C2%BC r
k ann%C4%A0
tr ag
B ro
g el
f%C3%83%C2%BC hr
ab .</s>
C he
vor %C4%A0
a .</s>
sau ber
, %C4%A0d
User:%C4%A0Wie%C4%A0erkenn st%C4%A0du%C4%A0
st%C4%A0du%C4%A0d en%C4%A0
en%C4%A0 in%C4%A0
Ber icht%C4%A0
s .%C4%A0Dann%C4%A0
n enn
w a
s ?%C4%A0Assistant:%C4%A0Du%C4%A0
Zei t.</s>
W ie%C4%A0
le t%C4%A0
no tier
I de
t%C4%A0d urch%C4%A0
isi erst%C4%A0du%C4%A0
.%C4%A0D rei
e ,%C4%A0
n .</s>
< /
rit eri
g en
tr o
starte st%C4%A0
%C4%A0 in%C4%A0
er kl%C3%83%C2%A4r
h eit
S ti
t%C4%A0 sich%C4%A0
3 %C4%A0
au s.</s>
Viel e%C4%A0
k ehr
u ss
o o
z eit
w%C3%83%C2%A4hl st%C4%A0
b je
Pf lanz
%C3%83%C2%BC ch
en k
en e%C4%A0
b in%C4%A0
M at
6 %C4%A0
Prob lem
ra mm
sp ar
weg .</s>
l%C3%83%C2%A4 uf
User:%C4%A0Fasse%C4%A0kurz%C4%A0zusammen:%C4%A0Ein%C4%A0 Text%C4%A0
Er de%C4%A0
w ach
User:%C4%A0Wie%C4%A0 nutzt%C4%A0du%C4%A0
lie st%C4%A0
ur ch
st%C4%A0du .</s>
i ss
.%C4%A0Dann%C4%A0 pr%C3%83%C2%BCfst%C4%A0du%C4%A0
In fo
Ergebni ss
5 %C4%A0
K %C3%83%C2%B6r
k n
%C4%A0A l
C o
r ie
en%C4%A0 vor?%C4%A0Assistant:%C4%A0Du%C4%A0
T r
er g
zu erst
Er folg
Ge sch
f %C3%83%C2%A4
m o
Qu ell
Pr %C3%83%C2%A4
entsteh t%C4%A0
User:%C4%A0Wie%C4%A0funktion iert%C4%A0
In ter
z e
0 .
l e%C4%A0
K art
%C4%A0A k
ti sch
R o
lo ck
sammel st%C4%A0
j our
Spr ach
w %C3%83%C2%B6rter
f ehl
oo d%C4%A0
.%C4%A0 G
b st
sp eich
h%C3%83%C2%A4l t
User:%C4%A0Fasse%C4%A0kurz%C4%A0zusammen:%C4%A0Ein%C4%A0 Bericht%C4%A0
en en%C4%A0
H eu
N utz
s ach
t st
User:%C4%A0Fasse%C4%A0kurz%C4%A0zusammen:%C4%A0Ein%C4%A0Text%C4%A0 %C3%83%C2%BCber%C4%A0
hei %C3%83%C5%81
im al
sa tz
ist %C4%A0der%C4%A0
Ger %C3%83%C2%A4
%C4%A0+%C4%A0 5
be st
D er%C4%A0
e%C4%A0 ich
a pp
z iel
ol li
e s.</s>
St ar
User:%C4%A0W o%C4%A0
es e%C4%A0
t wor
a tion%C4%A0
S %C3%83%C2%A4tz
.%C4%A0Assistant:%C4%A0J '
M et
ein%C4%A0 B
F %C3%83%C2%BCn
le k
1 8
ung%C4%A0 ist%C4%A0
ol k
4 %C4%A0
%C3%83%C2%B6 s
H T
L %C3%83%C2%A4n
User:%C4%A0Wo%C4%A0 lieg
u i
U r
User:%C4%A0Was%C4%A0ist%C4%A0 ein
t en.%C4%A0
z eu
Gr enz
t%C4%A0 f%C3%83%C2%BCr%C4%A0
tr a
ar beit
Hin wei
User:%C4%A0Wie%C4%A0 lern
Ver b
tr enn
en s
Schrit te.</s>
end e%C4%A0
Bil d
d i
ob ach
Che ck
komm e%C4%A0
g en%C4%A0
geh t%C4%A0
rech ne
M ag
st%C4%A0d en%C4%A0
Ge d
Entsch eid
No tiz
ant wor
The m
f al
Ko pf
User:%C4%A0 6
tr in
G ood%C4%A0
ver steh
N e
e m%C4%A0
.%C4%A0N eu
der .</s>
tier e%C4%A0
f ass
M org
.%C4%A0Dann%C4%A0 testest%C4%A0du%C4%A0
.%C4%A0Assistant:%C4%A0 A
G ra
.%C4%A0 Wir%C4%A0
be deu
yste m
%C4%A0 be
ei dest%C4%A0du%C4%A0
sch %C3%83%C2%BCtz
%C4%A0Ar tik
L %C3%83%C2%B6s
.%C4%A0D as%C4%A0
%C3%83%C4%BE b
si k
User:%C4%A0 9
e e
1 9
%C4%A0Artik el%C4%A0
%C4%A0%C3%83%C4%B9%C4%A0 2
.%C4%A0 Ich%C4%A0
le s
%C4%A0%C3%83%C4%B9%C4%A0 4
L es
Ein %C4%A0Artikel%C4%A0
er ?%C4%A0Assistant:%C4%A0
Ko mp
User:%C4%A0%C3%83%C4%BEbersetze%C4%A0ins%C4%A0Englische:%C4%A0 Das%C4%A0
User:%C4%A0Wie%C4%A0 d
ad d
2 %C4%A0
HT M
li othe
eln .</s>
n et
No us%C4%A0
t s
st%C4%A0d as%C4%A0
Heu te%C4%A0
er st%C4%A0
t %C3%83%C2%A4g
d ig
R u
T im
a f
HTM L
Reg eln%C4%A0
ich t.</s>
e%C4%A0 in%C4%A0
3 %C4%A0=%C4%A0
pas st%C4%A0
V ari
K ann
?%C4%A0Assistant:%C4%A0Du%C4%A0 nutzt%C4%A0
ehn er%C4%A0
User:%C4%A0Fasse%C4%A0kurz%C4%A0zusammen:%C4%A0 Ein%C4%A0Artikel%C4%A0
Er kl%C3%83%C2%A4r
T i
User:%C4%A0 Lo
e kt
such st%C4%A0du%C4%A0
z ur%C4%A0
K al
K riteri
sp%C3%83%C2%A4 ter
lo gi
H aup
l at
al e%C4%A0
eu tsch
f u
2 </s>
e t%C4%A0
.%C4%A0Z wei%C4%A0
E ig
Kl ar
k al
?%C4%A0Assistant:%C4%A0D ie%C4%A0
User:%C4%A0 8
User:%C4%A0%C3%83%C4%BEbersetze%C4%A0ins%C4%A0Franz%C3%83%C2%B6sische:%C4%A0 Wir%C4%A0
o ch
f er
ti ge%C4%A0
ri ff
au sch
d back
P a
.%C4%A0 Ein%C4%A0
st ud
oh n
User:%C4%A0%C3%83%C4%BEbersetze%C4%A0ins%C4%A0Franz%C3%83%C2%B6sische:%C4%A0 Das%C4%A0
sch wer
for ma
z wei%C4%A0
G eh
%C4%A0 est%C4%A0
er%C4%A0 in%C4%A0
u %C3%83%C5%81
n utze%C4%A0
ee dback
anach %C4%A0
Unter r
sor tier
.%C4%A0Assistant:%C4%A0W e%C4%A0
okum entier
W e
n icht%C4%A0
%C4%A0+%C4%A0 4
un der
.%C4%A0Assistant:%C4%A0 L
0 0
ung .%C4%A0Dann%C4%A0
Sp ann
Viel %C4%A0
lang sam
User:%C4%A0Lo ese%C4%A0
User:%C4%A0%C3%83%C4%BEbersetze%C4%A0ins%C4%A0Englische:%C4%A0 Wir%C4%A0
1 1
L a
w and
M in
a kt
.%C4%A0Assistant:%C4%A0 P
ok ab
gesch ichte?%C4%A0Assistant:%C4%A0
Kon t
ut en%C4%A0
%C4%A0 mit%C4%A0
z wei
at t%C4%A0
{ %C4%A0
User:%C4%A0Fasse%C4%A0zusammen:%C4%A0D ie%C4%A0
en?%C4%A0Assistant:%C4%A0 W
on s%C4%A0
S el
an d%C4%A0
B ib
Bil d%C4%A0
B r
%C4%A0%C3%83%C2%B7%C4%A0 2
.%C4%A0Z ehner%C4%A0
s .%C4%A0
Bib liothe
3 6
%C3%83%C4%A6 nder
2 .</s>
viel e%C4%A0
%C4%A0 }
si on
Ur sach
h %C3%83%C2%A4ng
l%C3%83%C2%A4 d
St %C3%83%C2%A4
zu m%C4%A0
h and
au erst
R isi
ul l%C4%A0
al y
lan d
User:%C4%A0Wie%C4%A0 testest%C4%A0du%C4%A0
S y
ist%C4%A0 ein%C4%A0
t%C4%A0 in%C4%A0
Schrit t.</s>
w as%C4%A0
> .</s>
.%C4%A0S ech
geb en.</s>
L and
eh m
Proz ess
ier t.</s>
F eedback
en.%C4%A0 K
User:%C4%A0%C3%83%C4%BEbersetze%C4%A0ins%C4%A0Franz%C3%83%C2%B6sische:%C4%A0Ich%C4%A0 hab
St%C3%83%C2%A4 d
auerst off
6 ,%C4%A0Ergebnis?%C4%A0Assistant:%C4%A0
%C4%A0Aufgab en.</s>
.%C4%A0A lle%C4%A0
ie ?%C4%A0Assistant:%C4%A0
t ur
zw ischen%C4%A0
Lo gi
?%C4%A0Assistant:%C4%A0Du%C4%A0 schreibst%C4%A0
%C4%A0Ab lauf
Nutze%C4%A0 <
User:%C4%A0Wie%C4%A0schreib e%C4%A0ich
be g
ni ss
ver teil
such st%C4%A0
V okab
H %C3%83%C2%B6
User:%C4%A0Wie%C4%A0mach st%C4%A0du%C4%A0eine%C4%A0
H er
e%C4%A0A lex
ri eg
B u
zeig t%C4%A0
%C4%A0+%C4%A0 2
Fahr ra
mp f
ri k
en d%C4%A0
lich k
l %C3%83%C2%BC
En erg
en.%C4%A0 Es%C4%A0
K a
vergleich st%C4%A0
F enst
U m
Sp a%C3%83%C5%81
kl ein
In hal
Hand l
ge w
il l%C4%A0
%C4%A0d ir
En de.</s>
fest .</s>
Wass er.</s>
f ern
.%C4%A0S ehr%C4%A0
%C3%83%C2%A4 tig
st ab
T o
be weg
de t%C4%A0
S al
5 .</s>
R oll
lie f
E U
igk eit
.%C4%A0Assistant:%C4%A0T he%C4%A0
F %C3%83%C2%BC
v o
ge .%C4%A0Dann%C4%A0
ll tag
F u%C3%83%C5%81
p o
f lie%C3%83%C5%81
B on
st%C3%83%C2%A4n d
ge teil
h eit%C4%A0
bei m%C4%A0
auf gab
ge m
User:%C4%A0Fasse%C4%A0zusammen:%C4%A0D as%C4%A0
sch e%C4%A0
%C4%A0d u%C4%A0
wer den.</s>
.%C4%A0Assistant:%C4%A0J%C4%A0 ai
in%C4%A0JS.%C4%A0Assistant:%C4%A0 let%C4%A0
t%C4%A0 mit%C4%A0
User:%C4%A0Wie%C4%A0 plan
be gr
.%C4%A0 Viele%C4%A0
st%C4%A0du %C4%A0Ab
ul l
.%C4%A0 O
%C3%83%C2%BCn d
erst ell
,%C4%A0 passt%C4%A0
G uten%C4%A0
User:%C4%A0Wie%C4%A0schreibe%C4%A0ich%C4%A0 einen%C4%A0
und%C4%A0 W
or it
en n%C4%A0
ch e%C4%A0
bi en.</s>
end s%C4%A0
st%C4%A0du%C4%A0 sie%C4%A0
User:%C4%A0%C3%83%C4%BEbersetze%C4%A0ins%C4%A0Englische:%C4%A0Ich%C4%A0 hab
User:%C4%A0%C3%83%C4%BEbersetze%C4%A0ins%C4%A0Franz%C3%83%C2%B6sische:%C4%A0 Wo%C4%A0
lei f
3 %C4%A0-%C4%A0
User:%C4%A0Wie%C4%A0 nutze%C4%A0
en%C4%A0 sind%C4%A0
i or
ver bin
s k
t.%C4%A0 Ich%C4%A0
.%C4%A0Assistant:%C4%A0 Nutze%C4%A0<
m erk
ha ve%C4%A0
Elem en
ist .</s>
Wet ter%C4%A0
ab zieh
User:%C4%A0%C3%83%C4%BEbersetze%C4%A0ins%C4%A0Englische:%C4%A0 Wo%C4%A0
b is%C4%A0
,%C4%A0d ann%C4%A0
ak tiv
de ?%C4%A0Assistant:%C4%A0
.%C4%A0Assistant:%C4%A0Je%C4%A0 su
sp ek
Kl eine%C4%A0
bit te.%C4%A0Assistant:%C4%A0
schie d
Auf gabe
%C4%A0 ein
t ausch
e%C4%A0 M
?%C4%A0Assistant:%C4%A0Du%C4%A0 teil
ent fern
u mm
il %C4%A0
trin ke%C4%A0
Lo g
kon tr
S %C3%83%C2%A4tze%C4%A0
Mu st
Eur op
all e%C4%A0
Be weg
Zu g
W el
User:%C4%A01 8
* %C4%A0
e%C4%A0d as%C4%A0
ordne st%C4%A0du%C4%A0
User:%C4%A0 Kon
t%C4%A0d en%C4%A0
%C4%A0A ut
e%C4%A0A uf
.%C4%A0Assistant:%C4%A0 C
?%C4%A0Assistant:%C4%A0D as%C4%A0
f re
D eutsch
ali ta
Dat en%C4%A0
bleib t.</s>
sch %C3%83%C2%B6n
,%C4%A0wie%C4%A0viel?%C4%A0Assistant:%C4%A0 2
,%C4%A0w enn%C4%A0
bess er
w enig
w ill%C4%A0
el ?%C4%A0Assistant:%C4%A0
sch ein
.%C4%A0 F%C3%83%C2%BCn
leg st%C4%A0du%C4%A0
k tion
pr ior
F ar
r au
eln .%C4%A0
ein en
E is
ni mm
abzieh en.</s>
best %C3%83%C2%A4tig
W eg
a ?%C4%A0Assistant:%C4%A0
Ex per
M o
ist%C4%A0 sehr%C4%A0
Kann st%C4%A0du%C4%A0
Be schreib
st%C4%A0 nach%C4%A0
gu te%C4%A0
ent sch
Pro zen
.%C4%A0Assistant:%C4%A0 M
; %C4%A0}
t u
Grupp en
Pers on%C4%A0
re f
Son n
k art
Pers on
c om
User:%C4%A0Fasse%C4%A0kurz%C4%A0zusammen:%C4%A0Ein%C4%A0Artikel%C4%A0 %C3%83%C2%BCber%C4%A0
t%C4%A0 nicht
E %C4%A0M
9 %C4%A0-%C4%A0
User:%C4%A0Wie%C4%A0ver m
kurz e%C4%A0
as e%C4%A0
i de
?%C4%A0Assistant:%C4%A0 A
l les%C4%A0
n ehm
am er
i er%C4%A0
st%C4%A0 in%C4%A0
Exper im
S in
f all
m .</s>
User:%C4%A0Fasse%C4%A0kurz%C4%A0zusammen:%C4%A0Ein%C4%A0Bericht%C4%A0 %C3%83%C2%BCber%C4%A0
p la
Gr und
E%C4%A0M ail
? </s>
auf .</s>
te%C4%A0 d
%C4%A0d urch%C4%A0
.%C4%A0Assistant:%C4%A0W her
W ir
W as%C4%A0
%C3%83 %C4%B8
%C4%A0da zu.</s>
Er d
User:%C4%A0Kon ver
User:%C4%A0Konver tiere%C4%A0
l ich%C4%A0
gib st%C4%A0
B eg
i h
g ang
G ro
um .%C4%A0Dann%C4%A0
lo g
%C4%A0Assistant:%C4%A0 4
Guten%C4%A0 Morg
ru h
ni s%C4%A0
tier t%C4%A0
je kt
W olk
Ge w
reduz ierst%C4%A0du%C4%A0
okumentier st%C4%A0du%C4%A0
ung ,%C4%A0
?%C4%A0Assistant:%C4%A0 Nutze%C4%A0
.%C4%A0Assistant:%C4%A0 Nous%C4%A0
d n
mach en%C4%A0
F luss
l%C3%83%C2%BC ss
%C4%A0d e%C4%A0
m %C3%83%C2%BC
%C4%A0%C3%83%C4%B9%C4%A0 5
%C4%A0%C3%83%C2%B7%C4%A0 5
ze p
an isierst%C4%A0du%C4%A0
mis st%C4%A0
Geh ir
de fin
bess er.</s>
Be obach
br ing
Dat en?%C4%A0Assistant:%C4%A0Du%C4%A0
?%C4%A0Assistant:%C4%A0 Er%C4%A0
.%C4%A0 Eine%C4%A0
?%C4%A0Assistant:%C4%A0 Kurz
qu est
st att%C4%A0
K rieg
S auerstoff
Ziel ,%C4%A0
e ff
) {%C4%A0
Thema %C4%A0
L ehr
h eu
J ahr
m ok
/ %C4%A0
W ahl
sp%C3%83%C2%A4ter .%C4%A0Assistant:%C4%A0
en%C4%A0 mit%C4%A0
User:%C4%A0Wie%C4%A0schreibe%C4%A0ich%C4%A0 H
p unk
2 %C4%A0-%C4%A0
P o
b e%C4%A0
en g
! %C4%A0Assistant:%C4%A0
Pflanz en%C4%A0
Kont in
s en
s en.</s>
le .
fr %C3%83%C2%BCh
i t%C4%A0
h ilf
f ang
?%C4%A0Assistant:%C4%A0 P
ot o
bar .</s>
Konfli k
p ack
N am
K%C3%83%C2%B6r per%C4%A0
sch er
t%C4%A0d as%C4%A0
b all
ung en.%C4%A0Dann%C4%A0
) ;%C4%A0}
sa g
Mit t
n ur%C4%A0
Son ne%C4%A0
User:%C4%A0 7
gr %C3%83%C2%B6%C3%83%C5%81
?%C4%A0Assistant:%C4%A0 M
Dat ei
w ech
9 ,%C4%A0wie%C4%A0viel?%C4%A0Assistant:%C4%A0
De mok
st%C4%A0du%C4%A0 auf%C4%A0
wir kt%C4%A0
Di al
in %C4%A0der%C4%A0
ber eit
Heute%C4%A0 ist%C4%A0
%C3%83 %C2%B9
r ichtig
der t%C4%A0
Z imm
.%C4%A0D er%C4%A0
G eld
Fr ie
K ein%C4%A0
st%C4%A0 auf%C4%A0
ing .</s>
I %C4%A0
mu s?%C4%A0Assistant:%C4%A0
ss ch
User:%C4%A0Wie%C4%A0 entsteht%C4%A0
User:%C4%A0Wie%C4%A0 fin
Ber lin
eine%C4%A0 A
stark e%C4%A0
2 7
m ag
o ft%C4%A0
e%C4%A0 is%C4%A0
pas st%C4%A0du%C4%A0
User:%C4%A0Wie%C4%A0 org
de ut
Schrit te%C4%A0
Re v
plan st%C4%A0
war te
Kriteri en.%C4%A0Dann%C4%A0
Wir k
%C4%A0%C3%83%C2%B7%C4%A0 4
m eld
2 4
Beispiel e%C4%A0
te ,%C4%A0
x %C4%A0
setz en.</s>
r %C3%83%C2%A4
Gr %C3%83%C2%B6%C3%83%C5%81
K %C3%83%C2%B6n
spek tiv
k %C3%83%C2%BC
ul dig
rei %C4%A0
' );</s>
Reihenfol ge%C4%A0
ge s%C4%A0
iz z
t%C4%A0 gut
E -
p l
Sal z
k%C3%83%C2%BC hl
Or dn
10 %C4%A0
ruck %C4%A0
i ff
ung%C4%A0 von%C4%A0
S%C3%83%C2%A4tz e.</s>
er .%C4%A0Dann%C4%A0
e%C4%A0 Zeit
m ehr
Konfli kt
eu ch
K li
u s.</s>
Ziel e.%C4%A0Dann%C4%A0
si erst%C4%A0du%C4%A0
ier en.%C4%A0
ali d
al l%C4%A0
8 </s>
beg inn
a u%C4%A0
Ko mm
Bibliothe k
ein%C4%A0B uch
Sei te%C4%A0
il .</s>
ti ef
y p
i %C4%A0
User:%C4%A0Wie%C4%A0st arte
Entsch uldig
gro%C3%83%C5%81 e%C4%A0
L in
r aus
p utz
Str u
Ziel .%C4%A0Dann%C4%A0
Mon d
pr ob
User:%C4%A0Wie%C4%A0org anisierst%C4%A0du%C4%A0
Qu elle%C4%A0
St ad
yo u
l l%C4%A0
flie%C3%83%C5%81 t%C4%A0
ig er%C4%A0
c tion
ier en%C4%A0
! %C4%A0
le t
Hal te%C4%A0
en b
User:%C4%A0%C3%83%C4%BEbersetze%C4%A0ins%C4%A0Englische:%C4%A0Ich%C4%A0 bin%C4%A0
so le.
ar d.</s>
B lu
f ik
In forma
Erfolg .%C4%A0Assistant:%C4%A0
Zei ge%C4%A0
schreib e%C4%A0eine%C4%A0
en%C4%A0 sich%C4%A0
Ergebni s
on lin
rik a
Sch lie%C3%83%C5%81
ig n
gleich .</s>
imal a
e m
Rei se
e?%C4%A0Assistant:%C4%A0 Ein%C4%A0
Te am
%C4%A0An nahm
Punk te.</s>
Wie%C4%A0 geht%C4%A0
Beobach t
anc e.</s>
B us%C4%A0
te t.</s>
t.%C4%A0 Wir%C4%A0
User:%C4%A0Wie%C4%A0d okumentierst%C4%A0du%C4%A0
e ck
isch e%C4%A0
si on%C4%A0
K ul
en%C4%A0 haben%C4%A0
h ui
um ent
st%C4%A0du%C4%A0d ich%C4%A0
lek tr
an k%C4%A0
N or
%C4%A0=%C4%A0 8
h il
,%C4%A0was%C4%A0 kommt%C4%A0
ben o
H imala
%C4%A0-%C4%A0 6
R hy
er lau
qu e.</s>
Ge f%C3%83%C2%BC
st%C4%A0du%C4%A0d as%C4%A0
1 6
lie st%C4%A0die%C4%A0
G eg
zi fik
%C4%A0 bit
Mitt el
A r
Ergebniss e.</s>
prior isierst%C4%A0du%C4%A0
F %C3%83%C2%A4l
our c
R el
Ein f
nutz en.%C4%A0
wer k
od a
Prozen t%C4%A0von%C4%A0
?%C4%A0Assistant:%C4%A0Du%C4%A0 sammelst%C4%A0
Fu%C3%83%C5%81 ball
ra ti
helf en.%C4%A0Assistant:%C4%A0
Wie%C4%A0geht%C4%A0 es
Pro jekt
User:%C4%A0Wie%C4%A0nutze%C4%A0 ich%C4%A0
%C4%A0%C3%83%C4%B9%C4%A0 3,%C4%A0Ergebnis?%C4%A0Assistant:%C4%A0
p .</s>
er warte
- D
f i
ow %C4%A0
F ok
h %C3%83%C2%B6
Schrit te?%C4%A0Assistant:%C4%A0Du%C4%A0
it el
ung er
Wer t.</s>
ess en%C4%A0
wir d
samm en
au to
logi sch
w ind
L it
e%C4%A0H ilf
s ist
.%C4%A0 V
Energ ie%C4%A0
ation .</s>
m us
,%C4%A0was%C4%A0kommt%C4%A0 rau
Check list
3 ,%C4%A0wie%C4%A0viel?%C4%A0Assistant:%C4%A0
ge ?%C4%A0Assistant:%C4%A0Du%C4%A0
versteh e%C4%A0
t%C4%A0 be
en%C4%A0 w
3 .%C4%A0
For m
ar ten%C4%A0
Pro g
de .%C4%A0Dann%C4%A0
sole. log
g rupp
%C4%A0An twor
Ver ben%C4%A0
ch i
war t
ud ge
9 </s>
e%C4%A0Hilf e
ol l%C4%A0
b rei
%C3%83%C2%BC st
hil ft%C4%A0
in form
pr o
H imm
lei t
m or
un kt
User:%C4%A0Was%C4%A0 bedeu
er zeu
schn it
tsch rit
r eh
c ri
Plan et
.%C4%A0Assistant:%C4%A0Wher e%C4%A0is%C4%A0
d en
f ahr
User:%C4%A01 0
Beg riff
i f
1 %C4%A0
ss ourc
aus aufgab
sich erst%C4%A0du%C4%A0
?%C4%A0Assistant:%C4%A0Du%C4%A0 machst%C4%A0
h i
.%C4%A0Sech ser
quest i
R %C3%83%C2%BCck
entsteh t%C4%A0durch%C4%A0
m el
Ge b
Kon tex
li t
Viel%C4%A0 Erfolg.%C4%A0Assistant:%C4%A0
A b
9 %C4%A0Assistant:%C4%A0
HTML .%C4%A0Assistant:%C4%A0Nutze%C4%A0<
f%C3%83%C2%A4 ll
g %C3%83%C2%A4n
min im
.%C4%A0 E
e%C4%A0H unger
= '
Sch w
I m%C4%A0
r e%C4%A0
,%C4%A0was%C4%A0kommt%C4%A0rau s?%C4%A0Assistant:%C4%A0
Prog ramm
auto ma
spiel en%C4%A0
verstehe%C4%A0 nicht
gab en%C4%A0
l ad
For tschrit
User:%C4%A0Wie%C4%A0lern st%C4%A0du%C4%A0
.%C4%A0Assistant:%C4%A0I %C4%A0d
%C4%A0 s
f t
p a
at or
Guten%C4%A0Morg en.%C4%A0Assistant:%C4%A0
Schlie%C3%83%C5%81 e%C4%A0die%C4%A0
hei%C3%83%C5%81 e%C4%A0Alex
sch lag
Fehl er.</s>
mach st%C4%A0du%C4%A0
e tig
.%C4%A0 Kurz
be wer
brauch e%C4%A0Hilfe
P aus
w%C3%83%C2%A4hl st%C4%A0du%C4%A0
ent ?%C4%A0Assistant:%C4%A0
Rhy th
Szen en
User:%C4%A0%C3%83%C4%BEbersetze%C4%A0ins%C4%A0Franz%C3%83%C2%B6sische:%C4%A0Ich%C4%A0 bin%C4%A0
Frag e%C4%A0
schreibe%C4%A0eine%C4%A0 E%C4%A0Mail
B is%C4%A0
en c
ei t.</s>
Zeit .%C4%A0Dann%C4%A0
.%C4%A0S o%C4%A0
%C3%83%C2%A4r m
i o
sch w
e%C4%A0eine%C4%A0 Frage
beno etig
hel p.</s>
Demok rati
User:%C4%A0Was%C4%A0 war
.%C4%A0A lles%C4%A0
.%C4%A0 B
min us%C4%A0
wiederhol st%C4%A0du%C4%A0
D u%C4%A0
User:%C4%A0Wie%C4%A0 %C3%83%C2%BCb
k tiv
mach en.</s>
en%C4%A0 vor
t%C4%A0f%C3%83%C2%BCr%C4%A0 Schritt.</s>
lass en.</s>
e un
od ell
Proz ent
je den%C4%A0
9 ,%C4%A0Ergebnis?%C4%A0Assistant:%C4%A0
Sch ul
User:%C4%A0Wie%C4%A0 bau
> <
stell st%C4%A0
kontr olli
.%C4%A0N eun
nutz en.</s>
entsteh t.</s>
20 .</s>
O bje
f as
arbei test%C4%A0du%C4%A0
m%C3%83%C2%BC de
Ged ank
wichtig .</s>
koch st%C4%A0du%C4%A0
gibt%C4%A0 es%C4%A0
opp el
f un
Kl are%C4%A0
t%C4%A0m an%C4%A0
Str om
el m
Deutsch land
Kul tur
wer t
ein em%C4%A0
u ali
Z eit%C4%A0
%C4%A0A f
on sole.log
H und%C4%A0
s icht
C an%C4%A0
V ol
Zu sammen
ar r
Er st%C4%A0
mi sch
%C3%83%C2%BCr z
.%C4%A0Assistant:%C4%A0I l%C4%A0
questi on.</s>
Sch leif
.%C4%A0A d
Kannst%C4%A0du%C4%A0 helfen.%C4%A0Assistant:%C4%A0
Wetter%C4%A0 ist%C4%A0
si e
User:%C4%A0 (
tra in
B udge
st%C4%A0 von%C4%A0
ben enn
ha elt%C4%A0
ha eng
Pr%C3%83%C2%BCf ungs
ich te%C4%A0
.%C4%A0Ad d
User:%C4%A0 7%C4%A0+%C4%A0
ah ar
Me er
* x
u te%C4%A0
bar %C4%A0
pr ends%C4%A0
hal ten.</s>
%C4%A0Aufgab en.%C4%A0Dann%C4%A0
it a
sp ann
Re ssourc
st or
b lock
b are%C4%A0
eh n%C4%A0
E lektr
.%C4%A0Assistant:%C4%A0Je%C4%A0su is%C4%A0
Sch utz
Wie%C4%A0geht%C4%A0es %C4%A0dir
c onsole.log
Schrit t%C4%A0f%C3%83%C2%BCr%C4%A0Schritt.</s>
g er
En t
pr%C3%83%C2%BCf st%C4%A0du
ue tz
.%C4%A0D anach%C4%A0
Wetter%C4%A0ist%C4%A0 sch%C3%83%C2%B6n
sch %C3%83%C2%A4tz
Plan %C4%A0
Re ak
ar d
Himala y
.%C4%A0Assistant:%C4%A0Where%C4%A0is%C4%A0 the%C4%A0
S ahar
F unktion
%C3%83%C2%B6 ff
?%C4%A0Assistant:%C4%A0 N
%C3%83%C2%A4h n
Vari ab
St und
fu er%C4%A0
am%C4%A0 Ende.</s>
Schlie%C3%83%C5%81e%C4%A0die%C4%A0 T
User:%C4%A0 Du%C4%A0
Schlie%C3%83%C5%81e%C4%A0die%C4%A0T %C3%83%C2%BCr
User:%C4%A0Was%C4%A0bedeu tet%C4%A0
au .</s>
Can%C4%A0 you%C4%A0
ei kart
Gra p
de ck
w%C3%83%C2%A4hl en.</s>
ei le.%C4%A0Dann%C4%A0
User:%C4%A0Wie%C4%A0planst%C4%A0du%C4%A0 einen%C4%A0
.%C4%A0Assistant:%C4%A0H ow%C4%A0
Temp er
yste m%C4%A0
ber ei
w el
Sch n
ieder kehr
E- M
,%C4%A0 stimm
zuerst .%C4%A0Dann%C4%A0
sch le
L ei
u n%C4%A0
.%C4%A0Drei mal%C4%A0
D ing
Experim ent
.%C4%A0Assistant:%C4%A0 Sp
e%C4%A0A b
v on
en%C4%A0 f%C3%83%C2%BCr%C4%A0
zeich ne
Vokab eln%C4%A0
ck en.</s>
.%C4%A0 Ein
9 .</s>
t%C4%A0 im%C4%A0
Ein heit%C4%A0
a ft%C4%A0
.%C4%A0Assistant:%C4%A0J' ai
anz %C4%A0
Fenst er
geh en%C4%A0
spann end
Mach t%C4%A0
lu g
S ign
%C4%A0-%C4%A0 1
ung en?%C4%A0Assistant:%C4%A0
od e%C4%A0
n %C3%83%C2%B6
2 %C4%A0+%C4%A0
kre te%C4%A0
M en
blei ben%C4%A0
Bon ne%C4%A0
bedeu te
Z wei
.%C4%A0N ull%C4%A0
St at
w%C3%83%C2%A4hl en.%C4%A0
Elektr on
be ding
Gr %C3%83%C2%BCn
,%C4%A0 schnell
un ter%C4%A0
en.%C4%A0 Er%C4%A0
%C4%A0%C3%83%C2%B7%C4%A0 3,%C4%A0Ergebnis?%C4%A0Assistant:%C4%A0
mach t%C4%A0
Detail s%C4%A0
v i
en%C4%A0 Mensch
User:%C4%A0Wie%C4%A0schreibe%C4%A0ich%C4%A0 %C3%83%C2%BCber%C4%A0
R und
e%C4%A0ich%C4%A0 m
ell en%C4%A0
M ess
en%C4%A0 W
1 4
Ver sion
en%C4%A0 sich
Sch ne
N ord
b el
rie ch
de st%C4%A0
Wiederhol ung%C4%A0
nach voll
z ier
be w
el le
viel %C4%A0
Ge setz
ation ?%C4%A0Assistant:%C4%A0Du%C4%A0
Mon ar
amer a%C4%A0
4 0
o u
zeig en.%C4%A0
n t
P reis
ko ste
m org
nachvoll zieh
Detail s.</s>
Per spektiv
m en
v ari
/ 5
li v
ch en%C4%A0
S uch
Min ut
G leich
und %C4%A0Aus
ref lek
tst ad
Be deut
S te
,%C4%A0stimm t%C4%A0
te mp
schein lichk
ach ten.</s>
org en%C4%A0
ent haelt%C4%A0
reg eln%C4%A0
en?%C4%A0Assistant:%C4%A0Du%C4%A0 schreibst%C4%A0
Me di
e%C4%A0 ist%C4%A0
.%C4%A0Es%C4%A0 gibt%C4%A0
B lick
mit %C4%A0dem%C4%A0
E-M ail
pass end
7 %C4%A0
%C4%A0Ak k
%C4%A0 plus%C4%A0
on y
Kl ass
se ch
t%C3%83%C2%A4g lich.</s>
wir k
te s
.%C4%A0O ft%C4%A0
T er
atur .</s>
ende s%C4%A0
User:%C4%A01 2
nenn st%C4%A0
je tz
User:%C4%A0Wie%C4%A0 priorisierst%C4%A0du%C4%A0
rei .</s>
M ig
te m%C4%A0
Kl asse%C4%A0
v al
Kart eikart
Bil der.</s>
de s%C4%A0
ak ter
t%C4%A0 E
%C3%83%C2%B6ff ne
Zusammen fass
Sta a
fal sch
S %C3%83%C2%BC
spielen%C4%A0 Fu%C3%83%C5%81ball
k lick
pr%C3%83%C2%BCf en.</s>
Ber g
p or
Eur o
.%C4%A0Assistant:%C4%A0 Fr
elm %C3%83%C2%A4
helf en.</s>
%C3%83%C2%A4 uf
en%C4%A0 Sch
mu li
%C4%A0+%C4%A0 7
en%C4%A0d urch%C4%A0
Grap h
R om
kn %C3%83%C2%BC
%C4%A0A lltag
User:%C4%A0%C3%83%C4%BEbersetze%C4%A0ins%C4%A0Franz%C3%83%C2%B6sische:%C4%A0Ich%C4%A0 komme%C4%A0
wech sel
?%C4%A0Assistant:%C4%A0 R
Sch u
ti me.</s>
User:%C4%A0Wie%C4%A0 reduzierst%C4%A0du%C4%A0
Himalay a
User:%C4%A0Wie%C4%A0strukturierst%C4%A0du%C4%A0 ein%C4%A0
kurz .</s>
B lock
User:%C4%A0Wie%C4%A0schreibe%C4%A0ich%C4%A0 ein%C4%A0
bau st%C4%A0
C on
s%C4%A0 il%C4%A0
t ard.</s>
h%C3%83%C2%A4lt st%C4%A0du%C4%A0
you .</s>
W och
User:%C4%A0Warum%C4%A0 brauch
Kal ender
%C4%A0ist%C4%A0 eine%C4%A0
User:%C4%A0%C3%83%C4%BEbersetze%C4%A0ins%C4%A0Franz%C3%83%C2%B6sische:%C4%A0Ich%C4%A0 lerne%C4%A0
m an
B ah
.%C4%A0F%C3%83%C2%BCn f
L icht
K amera%C4%A0
Risi k
Kein%C4%A0 Problem
L %C3%83%C2%BCck
al .</s>
mark ierst%C4%A0du%C4%A0
re ad
User:%C4%A0Wo%C4%A0lieg t%C4%A0der%C4%A0
P rei
t or
spar sam
%C3%83%C2%A4 mpf
V ul
li ke%C4%A0
User:%C4%A0Wie%C4%A0 %C3%83%C2%BCber
%C3%83%C2%B6 l
O ze
el in
er p
User:%C4%A0Wie%C4%A0 teil
?%C4%A0Assistant:%C4%A0 Ver
al les%C4%A0
%C4%A0Af rika
en?%C4%A0Assistant:%C4%A0Du%C4%A0 machst%C4%A0
t%C4%A0 ab
St off
st opp
ack up
kt ur%C4%A0
folg t%C4%A0
rechne st%C4%A0du%C4%A0
Bil der
Gehir n%C4%A0
%C3%83%C2%A4t ?%C4%A0Assistant:%C4%A0Du%C4%A0
Hand el
User:%C4%A0 Er
){%C4%A0 console.log
Haup tstad
i on
ar n
User:%C4%A01 4
ver d
t.%C4%A0 Er%C4%A0
an aly
Pass wor
.%C4%A0W ie%C4%A0viel
User:%C4%A0Wie%C4%A0starte st%C4%A0du%C4%A0eine%C4%A0
an ke%C4%A0
oto s
ex am
in d%C4%A0
de m%C4%A0
H %C3%83%C2%B6r
et was%C4%A0
sch luss
User:%C4%A0Fasse%C4%A0zusammen:%C4%A0Ich%C4%A0 lerne%C4%A0
Sel bst
ra tion
F ol
?%C4%A0Assistant:%C4%A0Ja.%C4%A0 1
F akt
k an
klar .</s>
de s
10 ,%C4%A0dann%C4%A0
ar f
ens ystem
ist %C4%A0das%C4%A0
Z ahl%C4%A0
ar te%C4%A0
elm%C3%83%C2%A4 %C3%83%C5%81
%C3%83%C2%BCck .</s>
o c
ha st%C4%A0
%C4%A0-%C4%A0 5
r y.</s>
Pr%C3%83%C2%BCf ung
ich ti
de .%C4%A0
schnell .</s>
V oll
Informa tik
K%C3%83%C2%B6r per
Rech ne%C4%A0
Ergebni s%C4%A0
b eh
1 .</s>
Rech te%C4%A0
ma p
B al
end ig
F all
b %C3%83%C2%BCnd
m an%C4%A0
den%C4%A0 und%C4%A0
.%C4%A0Assistant:%C4%A0I%C4%A0 have%C4%A0
.%C4%A0N icht%C4%A0
sp%C3%83%C2%A4 ter.</s>
h e.</s>
,%C4%A0wie%C4%A0viel?%C4%A0Assistant:%C4%A0 5
koch en%C4%A0
%C4%A0-%C4%A0 7
' );%C4%A0}
mal %C4%A0d
User:%C4%A0Wie%C4%A0funktioniert%C4%A0 ein%C4%A0
User:%C4%A0%C3%83%C4%BEbersetze%C4%A0ins%C4%A0Englische:%C4%A0Ich%C4%A0 lerne%C4%A0
l um
In st
wei ter.</s>
' %C4%A0
ch .</s>
f%C3%83%C2%A4 hr
ag ramm
in %C4%A0den%C4%A0
User:%C4%A0 H
User:%C4%A01 1
.%C4%A0Dann%C4%A0 vergleichst%C4%A0du%C4%A0
Ro ut
Vul kan
startest%C4%A0 mit%C4%A0
T %C3%83%C2%A4g
e%C4%A0das%C4%A0 Fenster
e%C4%A0d en%C4%A0
n e%C4%A0das%C4%A0Fenster
Geg en
ass %C4%A0
schau st%C4%A0auf%C4%A0
schau st%C4%A0du%C4%A0auf%C4%A0
st%C4%A0 nach
ch%C4%A0 mit%C4%A0
temp s.</s>
be steh
Schrit te.%C4%A0Dann%C4%A0
L%C3%83%C2%A4n der%C4%A0
e%C4%A0 pro%C4%A0
Menschen%C4%A0 w%C3%83%C2%A4hl
t op
H au
zusamm en.</s>
Ter min
st ant
User:%C4%A0%C3%83%C4%BEbersetze%C4%A0ins%C4%A0Englische:%C4%A0Ich%C4%A0 komme%C4%A0
3 %C4%A0%C3%83%C4%B9%C4%A04
wei ch
T ra
User:%C4%A0Wie%C4%A0schreibe%C4%A0ich%C4%A0 Figur
S eit
isi er
St and
Zeit d
n icht.</s>
st%C4%A0du%C4%A0 ein%C4%A0
> </
Sch l%C3%83%C2%BCss
te%C4%A0d as%C4%A0
p lo
p li
P uf
j e%C4%A0
Fahrra d%C4%A0
st ra
k or
%C3%83%C4%B8 ff
il ter
e%C4%A0ich%C4%A0 eine%C4%A0
er ci
JS %C4%A0
kurz .%C4%A0Dann%C4%A0
pr e
To ol
Zimm er%C4%A0
Su bje
%C3%83%C2%A9 .</s>
er%C4%A0 und%C4%A0
h at
%C4%A0 eines%C4%A0
V ekt
igk eit%C4%A0
Pro t
F l%C3%83%C2%A4
Sin ne
Pers on.</s>
lan ge%C4%A0
K et
User:%C4%A0Was%C4%A0war %C4%A0die%C4%A0
F el
User:%C4%A0Wie%C4%A0bau st%C4%A0du%C4%A0eine%C4%A0
for %C4%A0
tro tz
en%C4%A0 auf
en %C4%A0die%C4%A0
v alid
Quell en%C4%A0
?%C4%A0Assistant:%C4%A0Du%C4%A0 pr%C3%83%C2%BCf
beschreib t%C4%A0
b uch
t%C4%A0 sich
t%C4%A0d u
bau st%C4%A0du%C4%A0
e%C4%A0 werden%C4%A0
Bah n
K in
ahr scheinlichk
n am
Vekt or
or i
Beispiel e.</s>
Str a%C3%83%C5%81
12 .</s>
sch ri
St elle%C4%A0
Temp o%C4%A0
U N
um %C4%A0die%C4%A0
eu er
3 .</s>
Ti pp
Hinwei se%C4%A0
.%C4%A0Dann%C4%A0 best%C3%83%C2%A4tig
Ver st%C3%83%C2%A4nd
User:%C4%A0Wie%C4%A0schreib st%C4%A0du%C4%A0eine%C4%A0
User:%C4%A0Wie%C4%A0%C3%83%C2%BCb st%C4%A0du%C4%A0
ma li
%C4%A0%C3%83%C2%B7%C4%A0 3%C4%A0=%C4%A0
Einf ach
%C4%A0 pro%C4%A0
kurz .%C4%A0
3 </s>
teste st%C4%A0
B lum
b st.</s>
%C4%A0A t
ier t.%C4%A0
e d%C4%A0
ok oll
lich es%C4%A0
en er%C4%A0
P h
Unterr icht%C4%A0
User:%C4%A0Wie%C4%A0 defin
sp%C3%83%C2%A4 t
ab .%C4%A0Dann%C4%A0
.%C4%A0Er%C4%A0 ist%C4%A0sehr%C4%A0
%C3%83 %C2%A8
zieh en%C4%A0
G ute%C4%A0
t%C4%A0 s
v oll%C4%A0
Vol um
um .</s>
un e%C4%A0
Mat he
.%C4%A0A us%C4%A0
er%C4%A0 aus%C4%A0
orit h
stand .</s>
Pr%C3%83%C2%BCf ung%C4%A0ist%C4%A0
User:%C4%A0Wie%C4%A0st opp
J e
eid e%C4%A0ich%C4%A0
t%C4%A0 zu%C4%A0
Mig ration
%C4%A0%C3%83 %C2%A9
isch er%C4%A0
5 %C4%A0Assistant:%C4%A0
a si
w ohn
Nach r
%C3%83 %C2%AA
sch uetz
er v
mor n
ver schied
einen %C4%A0Ablauf
f lex
ver kn%C3%83%C2%BC
Ein %C4%A0A
Hinwei se
se ?%C4%A0Assistant:%C4%A0
st%C4%A0du %C4%A0Aufgaben.</s>
?%C4%A0Assistant:%C4%A0Die%C4%A0 Erde%C4%A0
%C3%83%C4%B8ff ne%C4%A0das%C4%A0Fenster
end er%C4%A0
re u
Good%C4%A0 morn
Wet ter
G it
%C3%83%C4%B8ffne%C4%A0das%C4%A0Fenster .%C4%A0Assistant:%C4%A0O
%C4%A0+%C4%A05 %C4%A0=%C4%A0
Kli ma
ci le.</s>
%C4%A0%C3%83%C4%B9%C4%A0 (
hei t.</s>
automa tisch
K ern
UN O
k auf
Wasser%C4%A0 und%C4%A0
ull .</s>
ali s
alis mus?%C4%A0Assistant:%C4%A0
Tipp %C4%A0f%C3%83%C2%BCr%C4%A0
haben%C4%A0 Zeit
sch lie%C3%83%C5%81
Mon tag
Zeit en%C4%A0
Tex t
t ud
K ai
un t%C4%A0E
st en%C4%A0
Bil der%C4%A0
%C4%A0Al ar
Er%C4%A0 liest%C4%A0
W ort
zieh t%C4%A0
ein%C4%A0 und%C4%A0
Er z%C3%83%C2%A4hl
en%C4%A0w ir%C4%A0
Stru ktur%C4%A0
%C4%A0Al g
r%C3%83%C2%A4 um
Eig ensch
B it
Ziel e.%C4%A0
mark ierst%C4%A0
nt he
Nachr icht
in ter
wa sch
reflek tiert%C4%A0
0 .%C4%A0Alles%C4%A0
Dial og
pr%C3%83%C2%BCf en.%C4%A0
tiv e%C4%A0
.%C4%A0Assistant:%C4%A0 E
y nthe
Re p
Eigensch af
M odell
w ur
e uf
at h
Them en.</s>
end en%C4%A0
F a
,%C4%A0wie%C4%A0viel?%C4%A0Assistant:%C4%A0 10
trinke%C4%A0 Te
d r
si e.%C4%A0Dann%C4%A0
t anz
b ell
User:%C4%A0Wie%C4%A0schreibe%C4%A0ich%C4%A0 ohne%C4%A0
Europ a.</s>
D in
Logi k%C4%A0
A ktion
,%C4%A0wie%C4%A0viel?%C4%A0Assistant:%C4%A0 20
sam e%C4%A0
EU R
.%C4%A0Assistant:%C4%A0J%C4%A0ai %C4%A0
Lern en?%C4%A0Assistant:%C4%A0Du%C4%A0
benenn st%C4%A0du%C4%A0
niss e%C4%A0
e%C4%A0 fest.</s>
en%C4%A0 von%C4%A0
Ka tze%C4%A0
.%C4%A0Add iere%C4%A0
Pr%C3%83%C2%BCf e%C4%A0
,%C4%A0w ie%C4%A0
F rei
.%C4%A0Assistant:%C4%A0T hat%C4%A0
%C4%A0est%C4%A0 l
Mag net
Me et
Viel%C4%A0 Spa%C3%83%C5%81
d%C4%A0 hui
S ystem%C4%A0
User:%C4%A0W el
ck .</s>
W ahrscheinlichk
reg elm%C3%83%C2%A4%C3%83%C5%81
In f
%C3%83%C2%BC ll%C4%A0
up .</s>
%C4%A0Alg orith
tr eff
%C4%A0Ab schnit
%C4%A0Assistant:%C4%A0 6
30 .%C4%A0Zehner%C4%A0
Re fer
kl%C3%83%C2%A4r st%C4%A0
d oc
erp er.</s>
or t.</s>
%C4%A0Ar bei
Rech te.</s>
pla %C3%83
User:%C4%A0%C3%83%C4%BEbersetze%C4%A0ins%C4%A0Englische:%C4%A0Das%C4%A0 ist%C4%A0
sa b
User:%C4%A0Wie%C4%A0 be
u g
Kal te%C4%A0
Elem ent%C4%A0
t%C4%A0 sie.</s>
ser .</s>
jour d%C4%A0hui
P izz
bei%C4%A0 n
k %C3%83%C2%BCrz
ant .</s>
st%C4%A0du%C4%A0dich%C4%A0 sel
lich ?%C4%A0Assistant:%C4%A0
Spann ung%C4%A0
ar %C4%A0
obach te
%C4%A0A lex
ie ?%C4%A0Assistant:%C4%A0Eine%C4%A0
gu t.</s>
Risi ko
z on
kurz ?%C4%A0Assistant:%C4%A0
sich er?%C4%A0Assistant:%C4%A0Du%C4%A0
Einheit%C4%A0 fuer%C4%A0
?%C4%A0Assistant:%C4%A0D at
er%C4%A0 W
s zen
ungen%C4%A0 um?%C4%A0Assistant:%C4%A0Du%C4%A0
N il
e a
ti ck
a se.</s>
t%C4%A0 aus%C4%A0
ch ni
en ?</s>
Dat um.%C4%A0Dann%C4%A0
e%C4%A0 est%C4%A0
User:%C4%A0Was%C4%A0ist %C4%A0das%C4%A0
Gruppen arbei
ei de%C4%A0
N enn
mal%C4%A0d rei.</s>
m ein
en?%C4%A0Assistant:%C4%A0Du%C4%A0 setzt%C4%A0
Lit er
e?%C4%A0Assistant:%C4%A0Du%C4%A0 pr%C3%83%C2%BCfst%C4%A0
lo ss
Heute%C4%A0ist%C4%A0 Montag
.%C4%A0 Keine%C4%A0
D a
akter i
Bahn ho
.%C4%A0W as%C4%A0
User:%C4%A0Wie%C4%A0defin ierst%C4%A0du%C4%A0
Zug riff
or .</s>
le ase%C4%A0
W %C3%83%C2%BCst
en t.</s>
x i
JS O
ern .</s>
m us%C4%A0
n %C3%83%C2%A4ch
ier st%C4%A0die%C4%A0
an sp
b rech
Ergebnis :%C4%A0
te g
ver m
steig t%C4%A0
B akteri
ap top
,%C4%A0schnell ?%C4%A0Assistant:%C4%A0
Ergebni s.</s>
ul ti
W iss
Ein heit
H o
ver bess
Bis%C4%A0 sp%C3%83%C2%A4ter.%C4%A0Assistant:%C4%A0
8 %C4%A0
.%C4%A0Assistant:%C4%A0O %C3%83%C2%B9
%C4%A0Ab end
Prozess ?%C4%A0Assistant:%C4%A0Du%C4%A0
mu si
o f
Es%C4%A0 gibt%C4%A0
us e%C4%A0
Hal b
B ackup
%C4%A0Assistant:%C4%A0 9</s>
sparsam .</s>
hat%C4%A0 eine%C4%A0
K lick
trinke%C4%A0 Wasser
ab h%C3%83%C2%A4ng
l te%C4%A0
User:%C4%A02 5
tr %C3%83%C2%A4g
kl einen%C4%A0
Se e%C4%A0
sortier st%C4%A0du%C4%A0
Sinne s
Er wart
li k
Reihenfol ge
sich er
ck sa
sp%C3%83%C2%A4 t%C4%A0ist%C4%A0
t%C4%A0 under
%C4%A0M u
f .</s>
Di agramm
inn er
F%C3%83%C2%A4l le.%C4%A0Dann%C4%A0
%C4%A0Aus nahm
e ma
Ru cksa
t%C4%A0d as
%C4%A0die%C4%A0 Pr%C3%83%C2%BCfung
L aptop
User:%C4%A0Was%C4%A0ist%C4%A0ein%C4%A0 Kontin
Pass end%C4%A0
N ull.</s>
t%C4%A0 aus
kl ing
User:%C4%A0 20
Frie den%C4%A0und%C4%A0
er %C4%A0Akk
Staat en.%C4%A0
Sie%C4%A0 f%C3%83%C2%A4hr
Fahr k
b lick
her r
al ten%C4%A0
z ahl
Ex c
a ge.</s>
sich%C4%A0 in%C4%A0
c lass
w al
pr ot
Info s.</s>
User:%C4%A0Wie%C4%A0schreibe%C4%A0ich%C4%A0 T
L%C3%83%C2%A4n ge%C4%A0
.%C4%A0 Klare%C4%A0
%C3%83%C2%BCll%C4%A0 raus
ier ung.</s>
Eine%C4%A0 Fahrk
,%C4%A0Ergebnis?%C4%A0Assistant:%C4%A0 20
Rout in
User:%C4%A0Wie%C4%A0 teste
eu x%C4%A0
Logi k
iere%C4%A0 Informatik
%C4%A0Ab satz
ei m
L A
Seite%C4%A0 l%C3%83%C2%A4d
6 .</s>
ier en.</s>
entsch eidest%C4%A0du%C4%A0
.%C4%A0Assistant:%C4%A0T h
Re c
S ter
ne ed%C4%A0
O ma
um ,%C4%A0
Gute%C4%A0 Nach
helf en%C4%A0
gel %C3%83%C2%B6
en %C4%A0das%C4%A0
J ack
Fr ist
unt%C4%A0E ver
berei test%C4%A0du%C4%A0
11 .</s>
Reg en
v a.</s>
?%C4%A0Assistant:%C4%A0 %C3%83%C4%BEber
er%C4%A0 auf
?%C4%A0Assistant:%C4%A0Du%C4%A0 setzt%C4%A0
ir%C4%A0 lei
b ark
Oze an
e%C4%A0d er%C4%A0
( x
?%C4%A0Assistant:%C4%A0Du%C4%A0teil st%C4%A0in%C4%A0
Wer te.%C4%A0Dann%C4%A0
%C4%A0Mu sik
tr ie
a tiv
Le ben
ier ung%C4%A0
T eile.%C4%A0Dann%C4%A0
%C4%A0%C3%83%C4%B9%C4%A0 7
%C4%A0%C3%83 %C4%A6
st a
En de.%C4%A0Dann%C4%A0
ra f
mag %C4%A0Musik
ig in
Menschen%C4%A0w%C3%83%C2%A4hl en%C4%A0
B und%C4%A0
a s?%C4%A0Assistant:%C4%A0
Su pp
stud iere%C4%A0Informatik
User:%C4%A0%C3%83%C4%BEbersetze%C4%A0ins%C4%A0Franz%C3%83%C2%B6sische:%C4%A0Das%C4%A0 ist%C4%A0
so in
e%C4%A0Auf gab
Wer te%C4%A0
benoetig t%C4%A0
Gesch ichte?%C4%A0Assistant:%C4%A0
List e.%C4%A0Dann%C4%A0
User:%C4%A0Wie%C4%A0st eu
.%C4%A0D ein%C4%A0
?%C4%A0Assistant:%C4%A0 In
Frag en.</s>
l%C3%83%C2%B6 ck
%C4%A0du%C4%A0 temps.</s>
speich erst%C4%A0du%C4%A0
Mag ma
and el
%C4%A0Auf wand
t,%C4%A0 be
lern en%C4%A0
trenn t%C4%A0
P ri
C ode%C4%A0
F unk
User:%C4%A0Wie%C4%A0schreibe%C4%A0ich%C4%A0 Szenen
f%C3%83%C2%BC ll
Gef%C3%83%C2%BC h
Her r
F il
Temper atur.</s>
wiederhol st%C4%A0
arte%C4%A0 bitte.%C4%A0Assistant:%C4%A0
Schl%C3%83%C2%BCss el
sin d
User:%C4%A0Wie%C4%A0 ordnest%C4%A0du%C4%A0
t d
.%C4%A0S ie
Re st%C4%A0
s en%C4%A0
ich te
User:%C4%A0Wie%C4%A0steu erst%C4%A0du%C4%A0
pla%C3%83 %C2%AE
wind ow
er -
Mach %C4%A0bit
M ehr
Di kt
Reak tion
doc ument
D okum
ig it
N om
alita et%C4%A0
otos ynthe
h aup
ut o
stab il
eri al
b t.</s>
Zimmer%C4%A0 ist%C4%A0
Fig ur%C4%A0
Mittel wer
Sti mm
,%C4%A0wie%C4%A0viel?%C4%A0Assistant:%C4%A0 15
S o
Ko m
Rev ie
D anke%C4%A0
Gute%C4%A0Nach t.%C4%A0Assistant:%C4%A0
trag %C4%A0
Neu e%C4%A0
D ar
t%C4%A0m ir%C4%A0lei
?%C4%A0Assistant:%C4%A0Du%C4%A0 vergleichst%C4%A0
M asse%C4%A0
ek te%C4%A0
Te chni
User:%C4%A0Wie%C4%A0schreibe%C4%A0ich%C4%A0 S
Info s%C4%A0
User:%C4%A0Wie%C4%A0verm eide%C4%A0ich%C4%A0
User:%C4%A0Wie%C4%A0planst%C4%A0du%C4%A0 ein%C4%A0
Hin der
g o
Eine%C4%A0Fahrk arte%C4%A0bitte.%C4%A0Assistant:%C4%A0
%C3%83%C2%B6r ter%C4%A0
Pa zifik
be such
?%C4%A0Assistant:%C4%A0Du%C4%A0 list
la tz
einfach e%C4%A0
er me%C4%A0
Sch all
7 .</s>
St ich
ib %C4%A0
User:%C4%A01 5
st reu
zeig en.</s>
User:%C4%A0Wie%C4%A0schreibe%C4%A0ich%C4%A0 P
Ko erper.</s>
um%C4%A0 und%C4%A0
Ko hl
er .%C4%A0
z ehn%C4%A0
ord n
at ?%C4%A0Assistant:%C4%A0
K ap
ali t
tud ie%C4%A0
20 </s>
ck et
User:%C4%A0Wie%C4%A0 lie
fin dest%C4%A0
f lug
en%C4%A0 einen%C4%A0
u st
k ri
eine%C4%A0 Zeit
z ur
zur %C3%83%C2%BCck.</s>
b lau
t en.%C4%A0Dann%C4%A0
%C4%A0Aus flug
koste t%C4%A0das
User:%C4%A0 L
Punk te%C4%A0
%C4%A0-%C4%A0 4
B au
Mo unt%C4%A0Ever
o ut
e%C4%A0 ein%C4%A0
0 %C4%A0%C3%83%C2%B7%C4%A0
erkl%C3%83%C2%A4r t%C4%A0
User:%C4%A0Wie%C4%A0 train
Inter net
Te am%C4%A0
.%C4%A0Assistant:%C4%A0That%C4%A0 is%C4%A0
Su mm
w %C3%83%C2%A4ch
fre und
%C4%A0=%C4%A08 .</s>
Entschuldig ung
User:%C4%A0Wie%C4%A0planst%C4%A0du%C4%A0 Lern
a im
Re de%C4%A0
ist%C4%A0der%C4%A0 Bahnho
twor t%C4%A0
en.%C4%A0 Ein%C4%A0
Leben s
st off
ber haup
zeu ge%C4%A0
L %C3%83%C2%A4nder
In sel
%C4%A0be soin
st%C4%A0du%C4%A0 nach%C4%A0
t,%C4%A0be vor%C4%A0
R %C3%83%C2%A4
.%C4%A0Dann%C4%A0 gibst%C4%A0du%C4%A0
User:%C4%A0Wie%C4%A0schreibe%C4%A0ich%C4%A0eine%C4%A0 Szen
t%C4%A0mir%C4%A0lei d
l ung%C4%A0
%C3%83%C2%BCn st
User:%C4%A0Wie%C4%A0be ende
User:%C4%A0Wie%C4%A0verm eidest%C4%A0du%C4%A0
Ver gleich
ie tsch
at m
en te%C4%A0
er z%C3%83%C2%A4hl
B el
li g
f rei
s%C4%A0 und%C4%A0
si eh
Mach%C4%A0bit te%C4%A0das%C4%A0
document .
Hauptstad t%C4%A0von%C4%A0
.%C4%A0M orgen%C4%A0
im%C4%A0 Kopf
Funk tion%C4%A0
Sp ort
ist%C4%A0der%C4%A0Bahnho f
ser %C4%A0
igk eit.</s>
Ru he
antwor t
, %C4%A0die%C4%A0
erzeu g
Hand y%C4%A0
4 .</s>
sp%C3%83%C2%A4t%C4%A0ist%C4%A0 es
ulti pli
en%C4%A0Mensch en.</s>
end en.</s>
){%C4%A0console.log ('
r bei
wenig er.</s>
Pro d
lief ert%C4%A0
est e%C4%A0
H%C3%83%C2%B6 ch
.%C4%A0S p
einf luss
Es%C4%A0 tu
B us
sch in
Rucksa ck
Wie%C4%A0 sp%C3%83%C2%A4t%C4%A0ist%C4%A0es
wir d.</s>
JSO N
be obachte
gen au
Es%C4%A0tu t%C4%A0mir%C4%A0leid
schle ch
%C4%A0ist%C4%A0 30
geh st%C4%A0
> %C4%A0
gro%C3%83%C5%81 er%C4%A0
reduz iert%C4%A0
b en.</s>
User:%C4%A0Wie%C4%A0 sicherst%C4%A0du%C4%A0
%C4%A0An fang
kochen%C4%A0 heu
%C4%A0Aut o%C4%A0
Beding ungen%C4%A0
User:%C4%A0%C3%83%C4%BEbersetze%C4%A0ins%C4%A0Franz%C3%83%C2%B6sische:%C4%A0Wo%C4%A0 ist%C4%A0die%C4%A0
Konflik te%C4%A0
ab er%C4%A0
Revie w
s%C4%A0il%C4%A0 te%C4%A0
%C3%83%C2%A4nder n%C4%A0
B un
nenn en.</s>
Exc use%C4%A0
Ti cket
mi t.</s>
spr ech
Bu ch%C4%A0
tr i
%C3%83%C2%A4nder t%C4%A0nicht
wur de%C4%A0
Kopf h%C3%83%C2%B6r
User:%C4%A0Wie%C4%A0gehst%C4%A0du%C4%A0 bei
.%C4%A0Assistant:%C4%A0I%C4%A0 need%C4%A0
se%C4%A0 Mu
bil d
pla%C3%83%C2%AE t.</s>
Gro %C3%83%C5%81
Dar stell
.%C4%A0 Wasser%C4%A0
i der
to i%C4%A0
.%C4%A0Assistant:%C4%A0C %C4%A0est%C4%A0
Schu le
Sy m
Reihenfol ge.</s>
Entschuldigung .%C4%A0Assistant:%C4%A0
%C3%83%C2%A4nder st%C4%A0
le b
User:%C4%A0Wie%C4%A0schreib st%C4%A0du%C4%A0
f%C3%83%C2%BCr %C4%A0die%C4%A0Pr%C3%83%C2%BCfung
Co mm
wenig %C4%A0
be komm
for dert%C4%A0
le ?%C4%A0Assistant:%C4%A0Du%C4%A0
Team .</s>
scher .%C4%A0Er%C4%A0
leg st%C4%A0
Sch wei
Engli sch
User:%C4%A0Was%C4%A0ist%C4%A0die%C4%A0 UNO
ander es%C4%A0
stand .%C4%A0Dann%C4%A0
?%C4%A0Assistant:%C4%A0Du%C4%A0list est
Sp iel
Re flex
ie %C3%83%C5%81
20 0
Le er
m ess
en%C4%A0 lei
ver st%C3%83%C2%A4nd
il li
?%C4%A0Assistant:%C4%A0 K
10,%C4%A0dann%C4%A0 +
kommt%C4%A0 nach%C4%A0
ti me%C4%A0
%C4%A0d ank
0%C4%A0 Prozent%C4%A0von%C4%A0
H yp
ai ss
Fortschrit t%C4%A0
User:%C4%A0Wie%C4%A0 merk
o t.</s>
ne t%C4%A0
10 %C4%A0=%C4%A0
f%C3%83%C2%BCr %C4%A0d
St%C3%83%C2%A4d te
nehm en%C4%A0
a y.</s>
e?%C4%A0Assistant:%C4%A0 Sie%C4%A0
is %C4%A0de%C4%A0
e.%C4%A0Dann%C4%A0 pr%C3%83%C2%BCfst%C4%A0du%C4%A0
zon as?%C4%A0Assistant:%C4%A0
e .%C4%A0Assistant:%C4%A0
See%C4%A0 you%C4%A0
,%C4%A0Ergebnis?%C4%A0Assistant:%C4%A0 8
Feedback %C4%A0
nach%C4%A0 Nord
lich er%C4%A0
i p
weg en%C4%A0
arbeit en%C4%A0
st %C4%A0Ab
t%C4%A0 L
l %C3%83%C2%A4ng
B i
eine%C4%A0 klare%C4%A0
User:%C4%A0Warum%C4%A0 ist%C4%A0
.%C4%A0Dann%C4%A0 suchst%C4%A0du%C4%A0
!%C4%A0 Wie%C4%A0
brei tet%C4%A0
ter min
Bu g
Ver antwort
User:%C4%A0Wie%C4%A0funktion ier
ari en.</s>
Frieden%C4%A0und%C4%A0 Hand
ra ft%C4%A0
Schw ier
Ursach e%C4%A0und%C4%A0
f%C4%A0 abziehen.</s>
ier e%C4%A0die%C4%A0
gesch icht
f ilter
at er.</s>
p ar
en.%C4%A0 W
berhaup t?%C4%A0Assistant:%C4%A0
e%C4%A0H ausaufgab
sch ei
zw anz
Klasse%C4%A0 per%C4%A0
Tim e
en %C4%A0Aufgaben.</s>
Frie den.</s>
.%C4%A0D opp
ea se
/ /
morg en.%C4%A0Assistant:%C4%A0
?%C4%A0Assistant:%C4%A0Du%C4%A0 w%C3%83%C2%A4hlst%C4%A0
I D
Po li
an pass
Prot okoll
o ge
/ 2</s>
Haup t
ell e%C4%A0Alex
.%C4%A0A ch
en%C4%A0 the%C4%A0
en%C4%A0sich .%C4%A0
bar ,%C4%A0wenn%C4%A0
.%C4%A0Assistant:%C4%A0I%C4%A0 stud
F%C3%83%C2%BC ll
Aktion .</s>
cri s%C4%A0
eine%C4%A0A uss
Hyp othe
Wahrscheinlichk eit%C4%A0
la%C4%A0 f
ang st
.%C4%A0Assistant:%C4%A0Nous%C4%A0 a
auf .%C4%A0Dann%C4%A0
Or te%C4%A0
Auf gab
P ap
Ide en%C4%A0
User:%C4%A0Loese%C4%A0 x
l%C3%83%C2%A4 tz
er t
ig .%C4%A0Dann%C4%A0
gro%C3%83%C5%81e%C4%A0 Land
.%C4%A0Assistant:%C4%A0I%C4%A0need%C4%A0 help.</s>
ony m
erwarte te%C4%A0
,%C4%A0Ergebnis?%C4%A0Assistant:%C4%A0 6
.%C4%A0Assistant:%C4%A0Je%C4%A0suis%C4%A0 fa
S ystem
gi e.</s>
Luf t%C4%A0ist%C4%A0
ip elin
?%C4%A0Assistant:%C4%A0 Im%C4%A0
Ding e%C4%A0
.%C4%A0 Klar
ung ry.</s>
ation%C4%A0 wird%C4%A0
mehr ere%C4%A0
Entschuldig ung%C4%A0
User:%C4%A0Wie%C4%A0pr%C3%83%C2%BCfst%C4%A0du%C4%A0 Verst%C3%83%C2%A4nd
W ichti
eit en.</s>
ie%C4%A0 ge
lit %C3%83%C2%A4t?%C4%A0Assistant:%C4%A0Du%C4%A0
ing%C4%A0 for%C4%A0
%C3%83%C2%A4 t?%C4%A0Assistant:%C4%A0
e .%C4%A0Die%C4%A0
s ystem
ti t
O ft%C4%A0
.%C4%A0 Er
ul ar
fr iert%C4%A0
Begriff e%C4%A0
M ehr%C4%A0
en.%C4%A0D ann
e ter
L%C3%83%C2%B6s ung.</s>
User:%C4%A0Was%C4%A0ist%C4%A0ein%C4%A0 Par
en.%C4%A0 Wiederhol
so berhaupt?%C4%A0Assistant:%C4%A0
er es%C4%A0
User:%C4%A0%C3%83%C4%BEbersetze%C4%A0ins%C4%A0Englische:%C4%A0Ich%C4%A0hab e%C4%A0Hunger
er ch
d at
L an
.%C4%A0Du%C4%A0 pr%C3%83%C2%BCfst%C4%A0
b un
lich%C4%A0 bleib
te st
ss er%C4%A0
t .%C4%A0D
%C3%83%C2%BCck e.%C4%A0
el t
ch%C4%A0 bei%C4%A0
startest%C4%A0 bei%C4%A0n
re al
.%C4%A0Assistant:%C4%A0 F
%C4%A0Assistant:%C4%A01 /2</s>
ter n
form en.%C4%A0
%C4%A0der%C4%A0 Mit
urch %C4%A0die%C4%A0
D ur
op ti
in k%C4%A0
Kin o
lu ck.</s>
w ater.</s>
25 %C4%A0
N erv
User:%C4%A0Was%C4%A0ist%C4%A0ein %C4%A0Ar
st%C4%A0du%C4%A0dich%C4%A0sel bst.</s>
.%C4%A0Assistant:%C4%A0J'ai %C4%A0
eig en
ok .</s>
User:%C4%A01 9%C4%A0-%C4%A0
se ud
.%C4%A0Assistant:%C4%A0J' %C3%83%C2%A9
%C4%A0defin iert%C4%A0
st%C4%A0d ich%C4%A0
User:%C4%A0Wie%C4%A0 sortierst%C4%A0du%C4%A0
mali sier
ss en%C4%A0
ch -
si b
User:%C4%A0Wie%C4%A0mach t%C4%A0man%C4%A0
ich%C4%A0 langsam
ich t.%C4%A0
Geh eim
si g
G as
mp ut
e und
en.%C4%A0Dann%C4%A0 suchst%C4%A0du%C4%A0
w %C3%83%C2%BCr
Pr%C3%83%C2%A4 d
valid ierst%C4%A0du%C4%A0
Konfli kt%C4%A0
t ,%C4%A0d
Wel t
I ch-
e%C4%A0 is
Met all
User:%C4%A03 %C4%A0%C3%83%C4%B9%C4%A0
.%C4%A0M al
F ab
User:%C4%A0Wie%C4%A0 setze%C4%A0
?%C4%A0Assistant:%C4%A0 Bei
e au.</s>
us k
vor n.</s>
7 %C4%A0%C3%83%C2%B7%C4%A0
t%C4%A0under stand.</s>
Monar ch
User:%C4%A0Was%C4%A0ist%C4%A0die%C4%A0 EU
%C4%A0Ab l
f ai
ach t
Sonn en
?%C4%A0Assistant:%C4%A0 Sie%C4%A0
c e.</s>
?%C4%A0Assistant:%C4%A0Du%C4%A0 testest%C4%A0
Meer es
We ge.</s>
e%C4%A0d ich
st and%C4%A0
. class
st%C4%A0 Them
arn ing%C4%A0
el .class
Er inner
e?%C4%A0Assistant:%C4%A0 Eine%C4%A0
en %C4%A0Aufgab
y%C4%A0 is%C4%A0
Good%C4%A0morn ing.</s>
zu .%C4%A0Assistant:%C4%A0
m at
Spa%C3%83%C5%81 .</s>
Ver d
User:%C4%A0 Ver
a%C4%A0 va.</s>
Himm el%C4%A0
iss verst%C3%83%C2%A4nd
und%C4%A0Aus gab
ko mp
soberhaupt?%C4%A0Assistant:%C4%A0 H%C3%83%C2%B6ch
0. 7
mo tiv
User:%C4%A0Fasse%C4%A0zusammen:%C4%A0Wir%C4%A0 machen%C4%A0
um%C4%A0 Beispiel
all gem
Frieden%C4%A0und%C4%A0Hand el.</s>
Vokab eln
Fehl er?%C4%A0Assistant:%C4%A0Du%C4%A0
Wetter%C4%A0ist%C4%A0sch%C3%83%C2%B6n .%C4%A0Assistant:%C4%A0Il%C4%A0
p ut
User:%C4%A0Was%C4%A0 tu
verstehe%C4%A0nicht .%C4%A0Assistant:%C4%A0Je%C4%A0
k m%C4%A0
st .%C4%A0
tr ><
we cken.</s>
20 %C4%A0
startest%C4%A0bei%C4%A0n ull
se%C4%A0 th
en%C4%A0 g
S%C3%83%C2%BC d
k ur
o li
User:%C4%A0%C3%83%C4%BEbersetze%C4%A0ins%C4%A0Franz%C3%83%C2%B6sische:%C4%A0Ich%C4%A0 brauche%C4%A0Hilfe
st%C4%A0 zuerst.%C4%A0Dann%C4%A0
Lehr er%C4%A0
Subje kt%C4%A0
0 .%C4%A0Null%C4%A0
en%C4%A0d ar
ist%C4%A0 nicht%C4%A0
k %C3%83%C2%A4mpf
frag st%C4%A0
2 .%C4%A0Dann%C4%A0
en%C4%A0 lassen.</s>
t en?%C4%A0Assistant:%C4%A0
bring t%C4%A0
le ?%C4%A0Assistant:%C4%A0
prot ok
?%C4%A0Assistant:%C4%A0Ein%C4%A0 Teil
ieder schlag
?%C4%A0Assistant:%C4%A0Du%C4%A0 planst%C4%A0
.%C4%A0Nicht%C4%A0 zu%C4%A0
) %C4%A0Assistant:%C4%A0
,%C4%A0Ergebnis?%C4%A0Assistant:%C4%A0 15
brauche%C4%A0Hilfe .%C4%A0Assistant:%C4%A0I%C4%A0need%C4%A0help.</s>
ha f
ung%C4%A0 und%C4%A0
User:%C4%A0%C3%83%C4%BEbersetze%C4%A0ins%C4%A0Franz%C3%83%C2%B6sische:%C4%A0 Wie%C4%A0geht%C4%A0es%C4%A0dir
sch aft%C4%A0
User:%C4%A0Wie%C4%A0schreibe%C4%A0ich%C4%A0 klare%C4%A0
cri p
ein deu
mal .</s>
no t%C4%A0understand.</s>
ue b
P latz
um or
e%C4%A0 la%C4%A0
List .
?%C4%A0Assistant:%C4%A0Du%C4%A0 legst%C4%A0
punk te.%C4%A0Dann%C4%A0
oda y%C4%A0is%C4%A0
te .%C4%A0M
st%C4%A0 sie%C4%A0
Eig ene%C4%A0
%C4%A0Assistant:%C4%A0 5</s>
startest%C4%A0bei%C4%A0null .%C4%A0Dann%C4%A0
Le ist
User:%C4%A0Warum%C4%A0 gibt%C4%A0es%C4%A0
hy sik
,%C4%A0 ob
nimm st%C4%A0du%C4%A0
L ang
r ink%C4%A0
Sp eich
enst ein
Te e.</s>
window .</s>
Star t%C4%A0
as %C4%A0Auto%C4%A0
en re
User:%C4%A0 Schreib
leb endig
De fin
l%C3%83%C2%A4 s
Guten%C4%A0Morgen.%C4%A0Assistant:%C4%A0 Good%C4%A0morning.</s>
Fel der
ungen%C4%A0 im%C4%A0
r uf
User:%C4%A0%C3%83%C4%BEbersetze%C4%A0ins%C4%A0Englische:%C4%A0Ich%C4%A0 brauche%C4%A0Hilfe.%C4%A0Assistant:%C4%A0I%C4%A0need%C4%A0help.</s>
i .</s>
Sti f
10 .</s>
N ud
t%C4%A0und%C4%A0 Ende.%C4%A0Dann%C4%A0
erlau bt%C4%A0
bau en.</s>
er fordert%C4%A0
Re stor
User:%C4%A0Was%C4%A0tu n%C4%A0
K rei
Ge mein
T ie
Z eil
Mon d%C4%A0
ung en.%C4%A0
D au
ensch utz
ra ge
h%C3%83%C2%A4lt st%C4%A0du%C4%A0sie%C4%A0
Unter schied
akt uali
Kap itel
m eide%C4%A0
%C3%83%C4%BEber g%C3%83%C2%A4n
User:%C4%A0 Eine%C4%A0
br ich
as y.</s>
ie ?%C4%A0Assistant:%C4%A0Die%C4%A0
s ol
t.%C4%A0 Es%C4%A0
%C4%A0%C3%83%C2%B7%C4%A0 7
T ro
%C4%A0ein s%C4%A0
Z ita
Demokrati e
Bro w
f luss
b%C3%83%C2%BCnd el
Wel t.</s>
St ark
?%C4%A0Assistant:%C4%A0 V
es%C4%A0 Ver
Fok us.</s>
li br
f er%C4%A0
trotz dem%C4%A0
z%C3%83%C2%A4hl st%C4%A0
Luf t.</s>
e?%C4%A0Assistant:%C4%A0 N
ru eck
.%C4%A0Assistant:%C4%A0 G
Geb ie
List e%C4%A0
k%C3%83%C2%BChl t%C4%A0ab
ik a
o or.</s>
erme%C4%A0 la%C4%A0
.%C4%A0Assistant:%C4%A0M y%C4%A0
Kli sche
Ein leit
Gesch ichte%C4%A0
(' aktiv
Wetter%C4%A0ist%C4%A0sch%C3%83%C2%B6n .%C4%A0Assistant:%C4%A0The%C4%A0
fall en.</s>
Dat en.%C4%A0Sie%C4%A0
neu er
.%C4%A0Assistant:%C4%A0M erci
Bonne%C4%A0 ch
%C3%83%C4%A6 qu
Fr eund
enb und
Figur en%C4%A0
%C3%83%C2%A4ndert%C4%A0nicht s.</s>
f rage
al le.</s>
st%C4%A0du%C4%A0die%C4%A0 Ursach
Europ a
h %C3%83%C2%A4uf
Ph otosynthe
F ant
i eh
Funktion en.</s>
,%C4%A0 W
en%C4%A0the%C4%A0 window.</s>
Staa tes
en%C4%A0 werden%C4%A0
en.%C4%A0 Wir%C4%A0
ai t.</s>
er %C4%A0A
off enen%C4%A0
User:%C4%A0F %C3%83%C2%BC
schreib en.</s>
ein ander
a zier
eg e%C4%A0
Viel%C4%A0Erfolg.%C4%A0Assistant:%C4%A0 Good%C4%A0
,%C4%A0w ir%C4%A0
User:%C4%A0%C3%83%C4%BEbersetze%C4%A0ins%C4%A0Franz%C3%83%C2%B6sische:%C4%A0Ich%C4%A0hab e%C4%A0eine%C4%A0Frage
libr ar
Beding ung%C4%A0
en?%C4%A0Assistant:%C4%A0Du%C4%A0 frag
.%C4%A0Dann%C4%A0 arbeitest%C4%A0du%C4%A0
D uf
F%C3%83%C2%BC r%C4%A0
g lich
Pf lan
Schlie%C3%83%C5%81e%C4%A0die%C4%A0T%C3%83%C2%BCr .%C4%A0Assistant:%C4%A0C
C O
com prends%C4%A0
Zugriff .</s>
erkenn t%C4%A0
kn app
Reg eln.</s>
K%C3%83%C2%B6n ig
Sauerstoff %C4%A0
fehl er?%C4%A0Assistant:%C4%A0Du%C4%A0
Stand ard
Bun des
N ull%C4%A0
User:%C4%A0Fasse%C4%A0kurz%C4%A0zusammen:%C4%A0 Der%C4%A0
ann .</s>
12 ,%C4%A0Ergebnis?%C4%A0Assistant:%C4%A0
Qu elle
f %C3%83%C2%A4l
Er de.%C4%A0
Erfolg .</s>
ail s%C4%A0
er%C4%A0 is%C4%A0
Spr %C3%83%C2%BCn
User:%C4%A020 %C4%A0-%C4%A0
comprends%C4%A0 pa
.%C4%A0Assistant:%C4%A0We%C4%A0 have%C4%A0
a ?%C4%A0Assistant:%C4%A0Eine%C4%A0
Re d
.%C4%A0Neun er%C4%A0in%C4%A0
en.%C4%A0 G
d arf
Daten qu
tig k
al t.</s>
?%C4%A0Assistant:%C4%A0 Lei
mach e%C4%A0Hausaufgab
W erk
en ?%C4%A0Assistant:%C4%A0Du%C4%A0definierst%C4%A0
9 .%C4%A0
Nutz er
en%C4%A0 an
lu s
ste%C4%A0 Person%C4%A0
?%C4%A0Assistant:%C4%A0D er%C4%A0
e%C4%A0eine%C4%A0Frage .%C4%A0Assistant:%C4%A0I%C4%A0have%C4%A0
bedeute t,%C4%A0d
User:%C4%A0Wie%C4%A0setzt%C4%A0du%C4%A0 eine%C4%A0
%C4%A0 c
ge setz
b ie
re ss
minim ierst%C4%A0du%C4%A0
wird%C4%A0 in%C4%A0
User:%C4%A0Wie%C4%A0planst%C4%A0du%C4%A0 Pr%C3%83%C2%BCfungs
1 </s>
Viel%C4%A0Erfolg.%C4%A0Assistant:%C4%A0Good%C4%A0 luck.</s>
.%C4%A0Assistant:%C4%A0How%C4%A0 are%C4%A0
Pr%C3%83%C2%A4d ik
o%C4%A0 not%C4%A0understand.</s>
mput er%C4%A0
ber ech
riech t%C4%A0
bleibt%C4%A0 gleich.</s>
hei%C3%83%C5%81e%C4%A0Alex .%C4%A0Assistant:%C4%A0Je%C4%A0
.%C4%A0Assistant:%C4%A0I%C4%A0d o%C4%A0not%C4%A0understand.</s>
Refer end
ist %C4%A0da
?%C4%A0Assistant:%C4%A0Du%C4%A0pr%C3%83%C2%BCf st%C4%A0die%C4%A0
sich .</s>
%C3%83 %C2%A7
.%C4%A0Assistant:%C4%A0Je%C4%A0 vi
User:%C4%A0%C3%83%C4%BEbersetze%C4%A0ins%C4%A0Englische:%C4%A0 Viel%C4%A0Erfolg.%C4%A0Assistant:%C4%A0Good%C4%A0luck.</s>
Schwier igkeit.</s>
I t
Euro .%C4%A0
en.%C4%A0 Keine%C4%A0
zi mm
erk mal
,%C4%A0wie%C4%A0viel?%C4%A0Assistant:%C4%A0 6
ar e.</s>
ni ce.</s>
User:%C4%A0%C3%83%C4%BEbersetze%C4%A0ins%C4%A0Englische:%C4%A0 Kannst%C4%A0du%C4%A0helfen.%C4%A0Assistant:%C4%A0
Sprach e%C4%A0
icht s%C4%A0
lu ess
Stat us
ne%C4%A0 comprends%C4%A0pa
or te.%C4%A0
mel de
kon stant
speich erst%C4%A0
Sy n
kon kre
6%C4%A0 *%C4%A0
aus %C4%A0der%C4%A0
.%C4%A0Assistant:%C4%A0F erme%C4%A0la%C4%A0
.%C4%A0Assistant:%C4%A0I%C4%A0stud y%C4%A0
Mount%C4%A0Ever est
Referend um
ist%C4%A0 spannend
nahm en%C4%A0
User:%C4%A09 %C4%A0%C3%83%C4%B9%C4%A0
zeich en.</s>
an leg
rei g
.%C4%A0Assistant:%C4%A0My%C4%A0 nam
schnell e%C4%A0
l%C3%83%C2%A4uf e?%C4%A0Assistant:%C4%A0Du%C4%A0
.%C4%A0Assistant:%C4%A0I%C4%A0 like%C4%A0
%C4%A0Assistant:%C4%A0 7
a de?%C4%A0Assistant:%C4%A0
bew es
w %C3%83%C2%A4rm
nimm st%C4%A0
se hr
Defin i
User:%C4%A0%C3%83%C4%BEbersetze%C4%A0ins%C4%A0Franz%C3%83%C2%B6sische:%C4%A0 Kannst%C4%A0du%C4%A0helfen.%C4%A0Assistant:%C4%A0
.%C4%A0D ann
en.%C4%A0 H
User:%C4%A0Was%C4%A0 sind%C4%A0
Szen arien.</s>
ation%C4%A0 ver
jour n
.%C4%A0Assistant:%C4%A0I%C4%A0am%C4%A0 h
b ol
s zeit
Rhyth mus
verbin det%C4%A0
.%C4%A0Sechser %C4%A0in%C4%A0
in%C4%A0 HTML.%C4%A0Assistant:%C4%A0Nutze%C4%A0<
12 %C4%A0
Bon jour
re%C4%A0 la%C4%A0f
o der
30 ?%C4%A0Assistant:%C4%A0Ja.%C4%A0
%C4%A0+%C4%A0 6
end s.</s>
defin iert%C4%A0
?%C4%A0Assistant:%C4%A0 Es%C4%A0
ier t%C4%A0die%C4%A0
a%C4%A0 ist%C4%A0
ing s%C4%A0
schw er.</s>
.%C4%A0Dann%C4%A0 wiederholst%C4%A0du%C4%A0
ei en%C4%A0
User:%C4%A0%C3%83%C4%BEbersetze%C4%A0ins%C4%A0Franz%C3%83%C2%B6sische:%C4%A0Ich%C4%A0bin%C4%A0 m%C3%83%C2%BCde
en%C4%A0 wir
An aly
st%C4%A0du %C4%A0Aufgab
mp f%C4%A0
neu e%C4%A0
Schlie%C3%83%C5%81e%C4%A0die%C4%A0T%C3%83%C2%BCr .%C4%A0Assistant:%C4%A0Ferme%C4%A0la%C4%A0
W ider
ch er%C4%A0
Far ben%C4%A0
sa gen%C4%A0
sauber .</s>
User:%C4%A0%C3%83%C4%BEbersetze%C4%A0ins%C4%A0Englische:%C4%A0 Guten%C4%A0Morgen.%C4%A0Assistant:%C4%A0Good%C4%A0morning.</s>
kehr .%C4%A0
Z ell
%C4%A0 wird%C4%A0
s%C4%A0il%C4%A0te%C4%A0 pl
en%C4%A0 zu%C4%A0
%C3%A2 %C4%A2
ei .</s>
ge stell
User:%C4%A0%C3%83%C4%BEbersetze%C4%A0ins%C4%A0Englische:%C4%A0Ich%C4%A0bin%C4%A0 m%C3%83%C2%BCde
am %C4%A0Abend
wird %C4%A0durch%C4%A0
5 6
r ig
1 3%C4%A0-%C4%A0
Ko st
.%C4%A0Wie%C4%A0viel e%C4%A0
ach e%C4%A0
Staat enbund
Or t.</s>
M usk
. 5</s>
te s.</s>
%C4%A0besoin %C4%A0d
sie ben.</s>
en%C4%A0f%C3%83%C2%BCr%C4%A0 ein%C4%A0
User:%C4%A0Wie%C4%A0ver bess
kor re
User:%C4%A0Was%C4%A0ist%C4%A0 Rec
e%C4%A0 Bro
L%C3%83%C2%B6s ung%C4%A0
Figur en.</s>
Ergebniss e.%C4%A0Dann%C4%A0
ai de.</s>
mp t
En er
User:%C4%A0Wo%C4%A0lieg t%C4%A0die%C4%A0
%C4%A0eins%C4%A0 bleibt%C4%A0gleich.</s>
%C3%83%C2%BC %C3%83%C5%81
k reis
k .</s>
User:%C4%A0Wie%C4%A0 erstell
Pflan zen
Fehl er%C4%A0
Ne tz
Her z
Meet ing%C4%A0
Reg eln.%C4%A0
?%C4%A0Assistant:%C4%A0Lei se%C4%A0
User:%C4%A0Was%C4%A0ist%C4%A0eine%C4%A0 Met
zwei .</s>
.%C4%A0Du%C4%A0 add
er%C4%A0A ma
User:%C4%A0Wie%C4%A0 minimierst%C4%A0du%C4%A0
men ge%C4%A0
en aiss
en%C4%A0 ab
neu tr
e%C4%A0is %C4%A0Alex
f%C3%83%C2%BC hl
.%C4%A0Sie%C4%A0 hat%C4%A0
en%C4%A0 um?%C4%A0Assistant:%C4%A0Du%C4%A0
?%C4%A0Assistant:%C4%A0 1
si d
pf lanz
User:%C4%A0Was%C4%A0ist%C4%A0 F
schri f
r %C3%83%C2%B6
v re%C4%A0la%C4%A0f
T O
geteil t%C4%A0durch%C4%A0
Bonjour .</s>
User:%C4%A0%C3%83%C4%BEbersetze%C4%A0ins%C4%A0Englische:%C4%A0Ich%C4%A0habe%C4%A0Hunger .%C4%A0Assistant:%C4%A0I%C4%A0am%C4%A0h
A ender
User:%C4%A0 Ein%C4%A0
v ent
reich .</s>
User:%C4%A0Wie%C4%A0lern e%C4%A0ich%C4%A0
er er%C4%A0
se ?%C4%A0Assistant:%C4%A0Du%C4%A0
Hypothe se
tion ?%C4%A0Assistant:%C4%A0
et s
beim%C4%A0 Lern
sab stimm
A uss
User:%C4%A0Wer%C4%A0war%C4%A0 G
%C4%A0=%C4%A0 9.</s>
.%C4%A0Du%C4%A0 gibst%C4%A0
R enaiss
%C4%A0%C3%83%C2%B7%C4%A02 %C4%A0=%C4%A0
.%C4%A0Mal %C4%A0eins%C4%A0bleibt%C4%A0gleich.</s>
St art
User:%C4%A0%C3%83%C4%BEbersetze%C4%A0ins%C4%A0Englische:%C4%A0 Schlie%C3%83%C5%81e%C4%A0die%C4%A0T%C3%83%C2%BCr.%C4%A0Assistant:%C4%A0C
rechne st%C4%A0du
luss .%C4%A0Dann%C4%A0
D on
Ne ben
et er%C4%A0
Wer t
Wetter%C4%A0ist%C4%A0sch%C3%83%C2%B6n.%C4%A0Assistant:%C4%A0Il%C4%A0 fai
ne%C4%A0comprends%C4%A0pa s.</s>
tz %C4%A0d
ge teste
,%C4%A0wie%C4%A0 rechnest%C4%A0du
por te.</s>
S%C3%83%C2%BCd amer
h%C3%83%C2%A4ltst%C4%A0du%C4%A0sie%C4%A0 ein.</s>
- Schleif
User:%C4%A0%C3%83%C4%BEbersetze%C4%A0ins%C4%A0Englische:%C4%A0Schlie%C3%83%C5%81e%C4%A0die%C4%A0T%C3%83%C2%BCr.%C4%A0Assistant:%C4%A0C lo
User:%C4%A0Wie%C4%A0plan st%C4%A0du%C4%A0Ab
%C3%83%C4%BEb ung%C4%A0ist%C4%A0
in %C4%A0die%C4%A0
User:%C4%A0%C3%83%C4%BEbersetze%C4%A0ins%C4%A0Franz%C3%83%C2%B6sische:%C4%A0Ich%C4%A0 hei%C3%83%C5%81e%C4%A0Alex.%C4%A0Assistant:%C4%A0Je%C4%A0
User:%C4%A0%C3%83%C4%BEbersetze%C4%A0ins%C4%A0Englische:%C4%A0Ich%C4%A0 hei%C3%83%C5%81e%C4%A0Alex
y c
t,%C4%A0bevor%C4%A0 sie%C4%A0
LA N
Entscheid ung.</s>
u vre%C4%A0la%C4%A0f
aus%C4%A0 Deutschland
verstehe%C4%A0nicht.%C4%A0Assistant:%C4%A0Je%C4%A0 ne%C4%A0comprends%C4%A0pas.</s>
%C3%83%C2%A4n k
u tion?%C4%A0Assistant:%C4%A0
Gruppenarbei t%C4%A0
real ist
voll .</s>
fun ction
User:%C4%A0%C3%83%C4%BEbersetze%C4%A0ins%C4%A0Englische:%C4%A0 Wie%C4%A0geht%C4%A0es%C4%A0dir
Syn onym
hl or
t ha
sche s%C4%A0
User:%C4%A0Was%C4%A0 be
Ener gie.</s>
Unterr icht
we ath
enig e%C4%A0W
verstehe%C4%A0nicht .%C4%A0Assistant:%C4%A0I%C4%A0do%C4%A0not%C4%A0understand.</s>
Wer t%C4%A0
unter weg
Ver fass
t reib
W enn
verkn%C3%83%C2%BC pf
yc l
pr od
ch e.</s>
ung ?%C4%A0Assistant:%C4%A0Du%C4%A0definierst%C4%A0
nahmen%C4%A0 und%C4%A0Ausgab
Paus en%C4%A0
User:%C4%A0Fasse%C4%A0zusammen:%C4%A0Die%C4%A0 Sonne%C4%A0
M eil
Pr%C3%83%C2%A4 s
User:%C4%A0Was%C4%A0ist%C4%A0eine%C4%A0 Monarch
Spr ich%C4%A0langsam
sel t
.%C4%A0Assistant:%C4%A0Th ank%C4%A0
Reg en%C4%A0
Schl%C3%83%C2%BCssel w%C3%83%C2%B6rter
User:%C4%A0Was%C4%A0ist%C4%A0ein%C4%A0 Staat
inform ierst%C4%A0du%C4%A0
00 </s>
Schn ell
te%C4%A0 g
r und
l%C3%83%C2%B6 st%C4%A0
User:%C4%A0%C3%83%C4%BEbersetze%C4%A0ins%C4%A0Englische:%C4%A0Ich%C4%A0hei%C3%83%C5%81e%C4%A0Alex .%C4%A0Assistant:%C4%A0My%C4%A0nam
%C3%83%C4%BEber schrif
ol z
viel .</s>
lat er.</s>
K er
.%C4%A0Sie ben
Z ehn
.%C4%A0Dann%C4%A0 %C3%83%C2%BCber
.%C4%A0Assistant:%C4%A0T oday%C4%A0is%C4%A0
i al
Renaiss anc
verkn%C3%83%C2%BCpf st%C4%A0
%C4%A0 als%C4%A0
st%C4%A0das%C4%A0 Ziel.%C4%A0Dann%C4%A0
abh%C3%83%C2%A4ng ig.</s>
.%C4%A0Assistant:%C4%A0I%C4%A0d rink%C4%A0
und %C4%A0d
.%C4%A0Assistant:%C4%A0I%C4%A0am%C4%A0 ti
Pizz a
Jack e%C4%A0
Z y
Speich er
lief ern%C4%A0
verm eidest%C4%A0du%C4%A0
sich er?%C4%A0Assistant:%C4%A0
fas st%C4%A0
Must er%C4%A0
Komm un
Prei s%C4%A0
User:%C4%A0Wie%C4%A0 pr%C3%83%C2%BCfst%C4%A0du
in k
Geb ir
Comm ent%C4%A0
Ziel .</s>
Rev ol
sch l%C3%83%C2%A4
gesch loss
User:%C4%A0F%C3%83%C2%BC ge%C4%A0
W %C3%83%C2%B6rter
C h
or t%C4%A0
K an
Schlie%C3%83%C5%81e%C4%A0die%C4%A0T%C3%83%C2%BCr.%C4%A0Assistant:%C4%A0Ferme%C4%A0la%C4%A0 porte.</s>
ordne t%C4%A0
User:%C4%A0%C3%83%C4%BEbersetze%C4%A0ins%C4%A0Englische:%C4%A0Ich%C4%A0habe%C4%A0Hunger.%C4%A0Assistant:%C4%A0I%C4%A0am%C4%A0h ungry.</s>
%C3%83%C2%BCn kt
mis st%C4%A0du%C4%A0
User:%C4%A0Fasse%C4%A0zusammen:%C4%A0Der%C4%A0 Lehrer%C4%A0
Z w
User:%C4%A0%C3%83%C4%BEbersetze%C4%A0ins%C4%A0Englische:%C4%A0Ich%C4%A0bin%C4%A0m%C3%83%C2%BCde .%C4%A0Assistant:%C4%A0I%C4%A0am%C4%A0ti
w%C3%83%C2%A4hl te%C4%A0
t%C4%A0 werden.</s>
15 %C4%A0
reich en.</s>
e%C4%A0A r
end en?%C4%A0Assistant:%C4%A0
%C4%A0+%C4%A0 12
.%C4%A0V ier
Reg el%C4%A0
User:%C4%A0 G
re szeit
e%C4%A0eine%C4%A0Frage.%C4%A0Assistant:%C4%A0I%C4%A0have%C4%A0 a%C4%A0
se%C4%A0th e%C4%A0d
%C4%A0+%C4%A0 b
P lau
zeich en%C4%A0
mit%C4%A0 Karteikart
ant e%C4%A0
le ase.</s>
app elle%C4%A0Alex
e asy.</s>
H under
User:%C4%A0%C3%83%C4%BEbersetze%C4%A0ins%C4%A0Franz%C3%83%C2%B6sische:%C4%A0Ich%C4%A0 verstehe%C4%A0nicht.%C4%A0Assistant:%C4%A0Je%C4%A0ne%C4%A0comprends%C4%A0pas.</s>
Ziel e.</s>
.%C4%A0Assistant:%C4%A0Je%C4%A0 bo
erstell st%C4%A0
Se tze%C4%A0
O p
Stich wor
tex te?%C4%A0Assistant:%C4%A0
Termin e.</s>
regelm%C3%83%C2%A4%C3%83%C5%81 ig.</s>
teg ori
at ur%C4%A0
oh e%C4%A0
olk sabstimm
viel en%C4%A0
N A
o%C4%A0 you%C4%A0
Reg eln
Or t,%C4%A0
En d
User:%C4%A0%C3%83%C4%BEbersetze%C4%A0ins%C4%A0Englische:%C4%A0Ich%C4%A0hei%C3%83%C5%81e%C4%A0Alex.%C4%A0Assistant:%C4%A0My%C4%A0nam e%C4%A0is%C4%A0Alex
2 1
S I%C4%A0
ap prends%C4%A0
Tra in
W LAN
oda y.</s>
tr et
.%C4%A0Neu e%C4%A0
sech s.</s>
User:%C4%A0Was%C4%A0ist%C4%A0ein%C4%A0Staat soberhaupt?%C4%A0Assistant:%C4%A0H%C3%83%C2%B6ch
User:%C4%A0Was%C4%A0ist%C4%A0die%C4%A0 Hauptstadt%C4%A0von%C4%A0
Dat enschutz
8 ,%C4%A0passt%C4%A0
ti sier
.%C4%A0Assistant:%C4%A0 Der%C4%A0
je ktiv
M a
In%C4%A0 S%C3%83%C2%BCdamer
User:%C4%A0Wie%C4%A0 kochst%C4%A0du%C4%A0
koch t%C4%A0
m ierst%C4%A0du%C4%A0
er che%C4%A0
User:%C4%A0Wie%C4%A0planst%C4%A0du%C4%A0eine%C4%A0 Ab
zu%C4%A0 Hau
Wetter%C4%A0ist%C4%A0sch%C3%83%C2%B6n.%C4%A0Assistant:%C4%A0The%C4%A0 weath
h under
besteh t%C4%A0aus%C4%A0
notier st%C4%A0
in t
steig t.</s>
Zu st%C3%83%C2%A4n
Gesetz e.</s>
de t.</s>
Ger%C3%83%C2%A4 u
mit%C4%A0 einer%C4%A0
Je de%C4%A0
User:%C4%A0Wie%C4%A0schreibe%C4%A0ich%C4%A0 Beschreib
um kre
.%C4%A0Assistant:%C4%A0 Comment%C4%A0
4 %C4%A0Assistant:%C4%A0
beschreib t%C4%A0die%C4%A0
.%C4%A0Dann%C4%A0 speicherst%C4%A0du%C4%A0
s ,%C4%A0
Ursache%C4%A0und%C4%A0 Wirk
Pr%C3%83%C2%A4s ent
Gruppen arbeit
ra sch
Meil enstein
3%C4%A0-%C4%A0 4
User:%C4%A0Wie%C4%A0schreibe%C4%A0ich%C4%A0 M
%C3%83%C2%BCtz liche%C4%A0
Plan %C4%A0f%C3%83%C2%BCr%C4%A0
ben %C4%A0d
igit ale%C4%A0
e%C4%A0 ver
ach t%C4%A0
Ge w%C3%83%C2%A4hlte%C4%A0
fa ir
in%C4%A0 Berlin
e%C4%A0 mit%C4%A0
mo der
.%C4%A0Dann%C4%A0 h%C3%83%C2%A4ltst%C4%A0du%C4%A0
ol og
List e.</s>
Ger%C3%83%C2%A4 t%C4%A0
ge .%C4%A0
st%C4%A0du%C4%A0 Ergebnisse.</s>
U p
red .</s>
ih n.</s>
%C4%A0Ar beit
zeichne st%C4%A0
c ui
J ah
ah r%C4%A0
User:%C4%A0%C3%83%C4%BEbersetze%C4%A0ins%C4%A0Englische:%C4%A0Ich%C4%A0 verstehe%C4%A0nicht.%C4%A0Assistant:%C4%A0I%C4%A0do%C4%A0not%C4%A0understand.</s>
st%C4%A0du %C4%A0Alar
?%C4%A0Assistant:%C4%A0Du%C4%A0 schreib
Reg el.</s>
Bus%C4%A0 kommt%C4%A0
lei te
.%C4%A0Assistant:%C4%A0A u
Revol ution?%C4%A0Assistant:%C4%A0
Elektron en%C4%A0
f euch
Br %C3%83%C2%BCch
s %C3%83%C2%A4tze%C4%A0
tro ck
User:%C4%A0%C3%83%C4%BEbersetze%C4%A0ins%C4%A0Franz%C3%83%C2%B6sische:%C4%A0 Guten%C4%A0Morgen.%C4%A0Assistant:%C4%A0
User:%C4%A0%C3%83%C4%BEbersetze%C4%A0ins%C4%A0Englische:%C4%A0Ich%C4%A0hab e%C4%A0eine%C4%A0Frage.%C4%A0Assistant:%C4%A0I%C4%A0have%C4%A0a%C4%A0
re m
Wasser%C4%A0 ge
l '
.%C4%A0V ier%C4%A0
ue ber
so for
User:%C4%A0%C3%83%C4%BEbersetze%C4%A0ins%C4%A0Franz%C3%83%C2%B6sische:%C4%A0Guten%C4%A0Morgen.%C4%A0Assistant:%C4%A0 Bonjour.</s>
User:%C4%A0 Tipp%C4%A0f%C3%83%C2%BCr%C4%A0
,%C4%A0was%C4%A0 pass
.%C4%A0Assistant:%C4%A0J %C4%A0%C3%83%C2%A9
se%C4%A0the%C4%A0d oor.</s>
w ahr%C4%A0
te%C4%A0d ie%C4%A0
begr enz
opti mierst%C4%A0du%C4%A0
User:%C4%A0Was%C4%A0ist%C4%A0ein%C4%A0Ar chi
helf en?</s>
('aktiv ');</s>
?%C4%A0Assistant:%C4%A0 Ein
User:%C4%A0Wie%C4%A0 validierst%C4%A0du%C4%A0
User:%C4%A0%C3%83%C4%BEbersetze%C4%A0ins%C4%A0Franz%C3%83%C2%B6sische:%C4%A0Das%C4%A0 Wetter%C4%A0ist%C4%A0sch%C3%83%C2%B6n.%C4%A0Assistant:%C4%A0Il%C4%A0fai
ko p
Ge st
er%C4%A0Ama zonas?%C4%A0Assistant:%C4%A0
schuetz t%C4%A0
User:%C4%A0Was%C4%A0ist%C4%A0ein%C4%A0 Referendum
%C4%A0 *%C4%A0
Jah reszeit
Ro ad
w as
bar%C4%A0 machen.</s>
?%C4%A0Assistant:%C4%A0Du%C4%A0 nennst%C4%A0
Ka tegori
User:%C4%A0Wer%C4%A0war%C4%A0 K
c tor
Sahar a?%C4%A0Assistant:%C4%A0
schnell %C4%A0
User:%C4%A0Wie%C4%A0 rechnest%C4%A0du%C4%A0
User:%C4%A0Wie%C4%A0verbess erst%C4%A0du%C4%A0
kontrolli erst%C4%A0du%C4%A0
Fr %C3%83%C2%BCh
ko m
ich tige%C4%A0
tha t.</s>
User:%C4%A0Wie%C4%A0schreibe%C4%A0ich%C4%A0Beschreib ungen%C4%A0
Re de
Sch werk
Ber ge
H olz
tig u
Mo tiv
%C4%A0Aus blick
h t.</s>
le arning%C4%A0
ar me%C4%A0
.%C4%A0A n
.%C4%A0A rbei
User:%C4%A0%C3%83%C4%BEbersetze%C4%A0ins%C4%A0Franz%C3%83%C2%B6sische:%C4%A0Ich%C4%A0bin%C4%A0m%C3%83%C2%BCde .%C4%A0Assistant:%C4%A0Je%C4%A0suis%C4%A0fa
ste%C4%A0Person%C4%A0 im%C4%A0
ai der.</s>
ab ei.</s>
M ass
anleg en.%C4%A0
s%C4%A0il%C4%A0te%C4%A0pl ait.</s>
User:%C4%A0%C3%83%C4%BEbersetze%C4%A0ins%C4%A0Englische:%C4%A0Ich%C4%A0habe%C4%A0eine%C4%A0Frage.%C4%A0Assistant:%C4%A0I%C4%A0have%C4%A0a%C4%A0 question.</s>
Wer te?%C4%A0Assistant:%C4%A0Du%C4%A0
c c
User:%C4%A0 0.
e%C4%A0 s
pr %C3%83%C2%A4
Grenz en.</s>
er%C4%A0 pro%C4%A0
F ak
Tro pf
Bonne%C4%A0ch ance.</s>
e%C4%A0 von%C4%A0
%C4%A0%C3%83%C4%A6 nder
Grupp en.</s>
Beweg ung%C4%A0
Must er.</s>
fa im
for der
.%C4%A0Assistant:%C4%A0How%C4%A0are%C4%A0 you.</s>
M om
%C4%A0ist%C4%A030 .</s>
Z wei%C4%A0
Pr%C3%83%C2%A4 sen
9 %C4%A0+%C4%A01
Elem ent
t oday.</s>
en ge.</s>
appelle%C4%A0Alex .</s>
C hlor
%C3%83%C4%A6nder ungen?%C4%A0Assistant:%C4%A0Du%C4%A0
ycl ing
P hysik
op hy
ste%C4%A0 Schritte.</s>
Kalte%C4%A0 Krieg
wohn st%C4%A0du
Zu stand
of t.</s>
enig %C4%A0
on ne%C4%A0
trin k
as%C4%A0Auto%C4%A0 ist%C4%A0
P ark
User:%C4%A0%C3%83%C4%BEbersetze%C4%A0ins%C4%A0Englische:%C4%A0Ich%C4%A0hei%C3%83%C5%81e%C4%A0Alex.%C4%A0Assistant:%C4%A0My%C4%A0name%C4%A0is%C4%A0Alex .</s>
en.%C4%A0Dann%C4%A0 gibst%C4%A0du%C4%A0
User:%C4%A0Was%C4%A0ist%C4%A0Rec ycling
P unkt
R ad
M al
Star t%C4%A0und%C4%A0Ende.%C4%A0Dann%C4%A0
ig e%C4%A0
Kon krete%C4%A0
el.class List.
Zy kl
User:%C4%A0%C3%83%C4%BEbersetze%C4%A0ins%C4%A0Franz%C3%83%C2%B6sische:%C4%A0 Schlie%C3%83%C5%81e%C4%A0die%C4%A0T%C3%83%C2%BCr.%C4%A0Assistant:%C4%A0Ferme%C4%A0la%C4%A0porte.</s>
ci enc
en .%C4%A0Du%C4%A0
hin der
User:%C4%A0%C3%83%C4%BEbersetze%C4%A0ins%C4%A0Englische:%C4%A0Das%C4%A0 Wetter%C4%A0ist%C4%A0sch%C3%83%C2%B6n.%C4%A0Assistant:%C4%A0The%C4%A0weath
%C3%83%C2%BCber %C4%A0den%C4%A0
ern ,%C4%A0
t%C4%A0be au.</s>
.%C4%A0Dann%C4%A0 setzt%C4%A0du%C4%A0
Kontex t.%C4%A0Dann%C4%A0
sofor t.</s>
gu t%C4%A0
N atur
mit t
ass e.%C4%A0
In%C4%A0S%C3%83%C2%BCdamer ika
User:%C4%A0Wie%C4%A0 beschreib
Beding ung.</s>
li ter
N %C3%83%C2%BCtzliche%C4%A0
bil det%C4%A0
User:%C4%A0%C3%83%C4%BEbersetze%C4%A0ins%C4%A0Englische:%C4%A0Kannst%C4%A0du%C4%A0helfen.%C4%A0Assistant:%C4%A0 Can%C4%A0you%C4%A0
P seud
ist%C4%A0da s?%C4%A0Assistant:%C4%A0
Lin ie%C4%A0
User:%C4%A0Fasse%C4%A0kurz%C4%A0zusammen:%C4%A0Der%C4%A0 Text%C4%A0
.%C4%A0E l
M ark
SI%C4%A0 Einheit%C4%A0fuer%C4%A0
kl ein.</s>
.%C4%A0Assistant:%C4%A0P lease%C4%A0
Viel%C4%A0Erfolg.%C4%A0Assistant:%C4%A0 Bonne%C4%A0chance.</s>
L au
Obje kt
Sch all%C4%A0
User:%C4%A0Wie%C4%A0fin dest%C4%A0du%C4%A0
S c
V ir
Son ne
ck er%C4%A0
User:%C4%A0%C3%83%C4%BEbersetze%C4%A0ins%C4%A0Englische:%C4%A0Wo%C4%A0 ist%C4%A0die%C4%A0
fa cile.</s>
.%C4%A0Dann%C4%A0 w%C3%83%C2%A4hlst%C4%A0du%C4%A0
er%C4%A0is%C4%A0 nice.</s>
E reig
%C4%A0Afrika .%C4%A0Sehr%C4%A0
-D ann
Wenn -Dann
Dat en.</s>
Medi an%C4%A0
.%C4%A0Assistant:%C4%A0We%C4%A0 are%C4%A0
mputer%C4%A0 s
%C3%83%C4%A6qu ator
igin al
lau t.%C4%A0Dann%C4%A0
. %C4%A0Ab
p lease.</s>
r e.</s>
N iederschlag
User:%C4%A0%C3%83%C4%BEbersetze%C4%A0ins%C4%A0Englische:%C4%A0Schlie%C3%83%C5%81e%C4%A0die%C4%A0T%C3%83%C2%BCr.%C4%A0Assistant:%C4%A0Clo se%C4%A0the%C4%A0door.</s>
jeden%C4%A0 Tag
si ert%C4%A0
User:%C4%A0%C3%83%C4%BEbersetze%C4%A0ins%C4%A0Franz%C3%83%C2%B6sische:%C4%A0Wie%C4%A0geht%C4%A0es%C4%A0dir .%C4%A0Assistant:%C4%A0Comment%C4%A0
ste%C4%A0Person%C4%A0im%C4%A0 Staat
S kal
Klar %C4%A0
Star te%C4%A0
Le bewes
Bedeut ung%C4%A0
T ab
User:%C4%A0%C3%83%C4%BEbersetze%C4%A0ins%C4%A0Franz%C3%83%C2%B6sische:%C4%A0Das%C4%A0Wetter%C4%A0ist%C4%A0sch%C3%83%C2%B6n.%C4%A0Assistant:%C4%A0Il%C4%A0fai t%C4%A0beau.</s>
si tiv
une%C4%A0 question.</s>
User:%C4%A01 6
gut ?%C4%A0Assistant:%C4%A0
i hr
User:%C4%A0%C3%83%C4%BEbersetze%C4%A0ins%C4%A0Englische:%C4%A0Kannst%C4%A0du%C4%A0helfen.%C4%A0Assistant:%C4%A0Can%C4%A0you%C4%A0 help.</s>
,%C4%A0wie%C4%A0viel?%C4%A0Assistant:%C4%A0 9
po ur%C4%A0
s%C4%A0 sind%C4%A0
User:%C4%A0%C3%83%C4%BEbersetze%C4%A0ins%C4%A0Englische:%C4%A0Ich%C4%A0bin%C4%A0m%C3%83%C2%BCde.%C4%A0Assistant:%C4%A0I%C4%A0am%C4%A0ti red.</s>
%C4%A0%C3%83%C4%B9%C4%A0 0
t%C4%A0 sp%C3%83%C2%A4ter.</s>
K%C3%83%C2%B6n ig.</s>
%C4%A0-%C4%A0 2
function (
m%C4%A0 mit%C4%A0
librar y.</s>
wiederhol e%C4%A0
ein heit
?%C4%A0Assistant:%C4%A0Du%C4%A0 sag
User:%C4%A0%C3%83%C4%BEbersetze%C4%A0ins%C4%A0Englische:%C4%A0Wie%C4%A0geht%C4%A0es%C4%A0dir .%C4%A0Assistant:%C4%A0How%C4%A0are%C4%A0you.</s>
Zeiten%C4%A0 ein.</s>
B et
User:%C4%A0Wie%C4%A0planst%C4%A0du%C4%A0 Daten
%C3%83%C2%A4t sel
e%C4%A0ich%C4%A0 ein%C4%A0
und %C4%A0A
User:%C4%A01 00
gut er%C4%A0
Fehler meld
er le
ek t.</s>
Gr%C3%83%C2%B6%C3%83%C5%81 ter%C4%A0
R %C3%83%C2%A4tsel
User:%C4%A0Wie%C4%A0schreibe%C4%A0ich%C4%A0 starke%C4%A0
Pa ar
analy sierst%C4%A0du%C4%A0
Hund%C4%A0 bell
gen au%C4%A0
Reg el
User:%C4%A0%C3%83%C4%BEbersetze%C4%A0ins%C4%A0Englische:%C4%A0Das%C4%A0Wetter%C4%A0ist%C4%A0sch%C3%83%C2%B6n.%C4%A0Assistant:%C4%A0The%C4%A0weath er%C4%A0is%C4%A0nice.</s>
m asse.%C4%A0
putz t%C4%A0du%C4%A0
Ein gaben%C4%A0
Rel ease
ut or
W ieder
vo m%C4%A0
kon sist
bei spiel
Ver meide%C4%A0
!%C4%A0Wie%C4%A0 kann%C4%A0
.%C4%A0Dann%C4%A0 teil
User:%C4%A0Wie%C4%A0mach st%C4%A0du%C4%A0
.%C4%A0 Un
User:%C4%A0Fasse%C4%A0zusammen:%C4%A0Wir%C4%A0 besuch
rei he.</s>
?%C4%A0Assistant:%C4%A0 In%C4%A0
Pri orit
l am
uvre%C4%A0la%C4%A0f en
Chlor ophy
Stru ktur
.%C4%A0Dopp elt%C4%A0
hal ten%C4%A0
Erkl%C3%83%C2%A4r e%C4%A0
User:%C4%A0Was%C4%A0ist%C4%A0ein%C4%A0Staatsoberhaupt?%C4%A0Assistant:%C4%A0H%C3%83%C2%B6ch ste%C4%A0Person%C4%A0im%C4%A0Staat
Ste h
User:%C4%A0%C3%83%C4%BEbersetze%C4%A0ins%C4%A0Franz%C3%83%C2%B6sische:%C4%A0 Viel%C4%A0Erfolg.%C4%A0Assistant:%C4%A0Bonne%C4%A0chance.</s>
en.%C4%A0 Teil
User:%C4%A0%C3%83%C4%BEbersetze%C4%A0ins%C4%A0Franz%C3%83%C2%B6sische:%C4%A0Ich%C4%A0hab e%C4%A0Hunger
ie%C4%A0viel %C4%A0
logisch .</s>
R%C3%83%C2%A4 um
User:%C4%A0%C3%83%C4%BEbersetze%C4%A0ins%C4%A0Franz%C3%83%C2%B6sische:%C4%A0Ich%C4%A0bin%C4%A0m%C3%83%C2%BCde.%C4%A0Assistant:%C4%A0Je%C4%A0suis%C4%A0fa tigu
zeit en?%C4%A0Assistant:%C4%A0Du%C4%A0
sch er%C4%A0
entfern st%C4%A0du%C4%A0
in%C4%A0 einem%C4%A0
protok olli
User:%C4%A0Fasse%C4%A0zusammen:%C4%A0 Es%C4%A0
hin dert%C4%A0
3 )
ier e.</s>
o ge%C4%A0
z e%C4%A0
ahr .</s>
It ali
faim .</s>
User:%C4%A0Du%C4%A0 hast%C4%A0
langsam .</s>
sch af
O ut
ensystem ?%C4%A0Assistant:%C4%A0Eine%C4%A0
Bild%C4%A0 von%C4%A0
Auf %C4%A0dem%C4%A0
st uetz
verteil en.</s>
kart en?%C4%A0Assistant:%C4%A0
Buch%C4%A0 ist%C4%A0spannend
n er%C4%A0
Quelle%C4%A0 he
Keine%C4%A0 offenen%C4%A0
eit ?%C4%A0Assistant:%C4%A0Du%C4%A0
lo est%C4%A0
.%C4%A0Arbei tet%C4%A0
Wasser%C4%A0ge friert%C4%A0
ansp or
ehr t%C4%A0
User:%C4%A0%C3%83%C4%BEbersetze%C4%A0ins%C4%A0Englische:%C4%A0Wir%C4%A0 spielen%C4%A0Fu%C3%83%C5%81ball
d rueck
' est%C4%A0
en%C4%A0 Blum
ern%C4%A0 gel%C3%83%C2%B6
Pr%C3%83%C2%BCf ung%C4%A0
User:%C4%A0Wie%C4%A0mach e%C4%A0ich%C4%A0
%C4%A0ist%C4%A0 12.</s>
Komm as%C4%A0
arte s%C4%A0
ent or
Rech erch
r el
O bst
gro%C3%83%C5%81e%C4%A0Land masse.%C4%A0
Reihenfolge%C4%A0 an.</s>
pflanz en%C4%A0Blum
User:%C4%A04 %C4%A0%C3%83%C4%B9%C4%A0
en%C4%A0 Z
B all
Notiz en?%C4%A0Assistant:%C4%A0
such st%C4%A0du%C4%A0die%C4%A0Ursach
verbess ert%C4%A0
?%C4%A0Assistant:%C4%A0 Verb
erkl%C3%83%C2%A4rt%C4%A0 langsam
heu te
h%C3%83%C2%A4ng igkeit
Tool s.%C4%A0Dann%C4%A0
Schn it
Heute%C4%A0ist%C4%A0Montag .%C4%A0Assistant:%C4%A0Today%C4%A0is%C4%A0
Die%C4%A0 %C3%83%C4%BEbung%C4%A0ist%C4%A0
wichtig %C4%A0
gleich e%C4%A0
.%C4%A0Assistant:%C4%A0P hy
Ro u
frag st%C4%A0nach%C4%A0
s '
User:%C4%A0Wie%C4%A0schreibe%C4%A0ich%C4%A0 Neben
Ger man
4 2.</s>
anach .</s>
uvre%C4%A0la%C4%A0fen %C3%83%C2%AA
be .</s>
User:%C4%A0G il
reich t.</s>
Unter brech
gr%C3%83%C2%B6%C3%83%C5%81 te%C4%A0
Or ts
%C3%83%C2%A4hl e%C4%A0
Roll e%C4%A0
User:%C4%A0%C3%83%C4%BEbersetze%C4%A0ins%C4%A0Englische:%C4%A0Ich%C4%A0 trinke%C4%A0Wasser
en%C4%A0g ern
User:%C4%A0Fasse%C4%A0zusammen:%C4%A0Wir%C4%A0 plan
Rei se%C4%A0
so cc
jetz t?%C4%A0Assistant:%C4%A0
%C3%83%C2%BCtz t.</s>
L im
en ,
e.%C4%A0 W
ale%C4%A0 im%C4%A0
T on.</s>
fun .</s>
User:%C4%A0Wie%C4%A0planst%C4%A0du%C4%A0 Wieder
sib le%C4%A0
D as%C4%A0Auto%C4%A0ist%C4%A0
sch%C3%83%C2%BCtz en%C4%A0
.%C4%A0Du%C4%A0 f%C3%83%C2%BChl
.%C4%A0Assistant:%C4%A0 Sch
t%C4%A0ist%C4%A0 klein
g lie
Einfach %C4%A0und%C4%A0
9 %C4%A0=%C4%A0
User:%C4%A0Ein%C4%A0 Preis%C4%A0
P lu
F e
.%C4%A0El f%C4%A0abziehen.</s>
Gesch ich
Git ar
User:%C4%A0Wie%C4%A0funktion ieren%C4%A0
Konflikt .%C4%A0G
User:%C4%A0Fasse%C4%A0zusammen:%C4%A0Wir%C4%A0plan en%C4%A0
t%C4%A0m it
w ass
ern%C4%A0gel%C3%83%C2%B6 st.</s>
Po in
.%C4%A0Assistant:%C4%A0Nous%C4%A0a von
Schrit te,%C4%A0
ahl en.%C4%A0
mark ier
Zu ck
User:%C4%A0%C3%83%C4%BEbersetze%C4%A0ins%C4%A0Franz%C3%83%C2%B6sische:%C4%A0 %C3%83%C4%B8ffne%C4%A0das%C4%A0Fenster.%C4%A0Assistant:%C4%A0O
Es%C4%A0tut%C4%A0mir%C4%A0leid .%C4%A0Assistant:%C4%A0I%C4%A0am%C4%A0
C SS
Pass w%C3%83%C2%B6rter
i tz
lau t.</s>
Dikt atur
sches%C4%A0 Bro
Ex po
ssch rit
.%C4%A0Dann%C4%A0 %C3%83%C2%A4nder
%C4%A0 im%C4%A0
e.%C4%A0Dann%C4%A0 ver
it %C3%83%C2%A4
B lau
ta pp
er%C4%A0aus%C4%A0 In
ie d
h%C3%83%C2%B6 h
tion s
Physik .%C4%A0Morgen%C4%A0
User:%C4%A0%C3%83%C4%BEbersetze%C4%A0ins%C4%A0Englische:%C4%A0 Mach%C4%A0bitte%C4%A0das%C4%A0
Bi enen%C4%A0
?%C4%A0Assistant:%C4%A0Eine%C4%A0 Person%C4%A0
lernen%C4%A0 Englisch
eg en%C4%A0
.%C4%A0Assistant:%C4%A0W hat%C4%A0
im%C4%A0 Text
%C3%83%C2%A4r m%C4%A0mit%C4%A0
z er
B uch
cris%C4%A0 un%C4%A0
the%C4%A0 exam
M od
te?%C4%A0Assistant:%C4%A0 Neue%C4%A0
E m
%C4%A0%C3%83%C2%B7%C4%A03%C4%A0=%C4%A0 2.%C4%A0Dann%C4%A0
pla y%C4%A0
Test lauf
Pro mpt
co %C3%83
Kein%C4%A0Problem .%C4%A0Assistant:%C4%A0P
list e?%C4%A0Assistant:%C4%A0
Plan .%C4%A0Dann%C4%A0
e?%C4%A0Assistant:%C4%A0Ein%C4%A0 fr
, %C4%A0der%C4%A0
?%C4%A0Assistant:%C4%A0Du%C4%A0 sammel
R icht
La v
J u
eck t%C4%A0
st%C4%A0du %C4%A0Arbei
Eigenschaf ten%C4%A0
.%C4%A0Assistant:%C4%A0L a%C4%A0
User:%C4%A0Wie%C4%A0schreibe%C4%A0ich%C4%A0 f%C3%83%C2%BCr%C4%A0
eine%C4%A0Zeit ung
User:%C4%A06 %C4%A0+%C4%A06
%C3%83%C2%A4t te%C4%A0g
,%C4%A0 ist%C4%A0das%C4%A0
Frage .%C4%A0O
en?%C4%A0Assistant:%C4%A0Du%C4%A0 list
User:%C4%A0 Bau
klar .%C4%A0
stab en%C4%A0
F oto
p unkt
B ru
a t%C4%A0in%C4%A0
Pr%C3%83%C2%A4sent ation?%C4%A0Assistant:%C4%A0Du%C4%A0
User:%C4%A0Wie%C4%A0 beginn
%C3%83%C2%BCn det.</s>
%C4%A0d reh
anz%C3%83%C2%B6si scher%C4%A0
Sch %C3%83%C2%A4tz
z %C3%83%C2%BC
User:%C4%A0Wie%C4%A0beende st%C4%A0du%C4%A0eine%C4%A0
und%C4%A0 Gedank
,%C4%A0stimmt%C4%A0 30?%C4%A0Assistant:%C4%A0Ja.%C4%A0
hilf t.</s>
gro b
tr ischen%C4%A0
realist ische%C4%A0
raft%C4%A0 zieht%C4%A0
Tex t.</s>
6,%C4%A0Ergebnis?%C4%A0Assistant:%C4%A0 20
schwer .%C4%A0Assistant:%C4%A0
Fr age.</s>
machst%C4%A0du%C4%A0 bei%C4%A0
sin d.</s>
ve%C4%A0 fun.</s>
Komp ass
e%C4%A0 ri
ft war
fest er%C4%A0
%C3%83%C4%BEb e%C4%A0
en%C4%A0 helfen.</s>
studiere%C4%A0Informatik .%C4%A0Assistant:%C4%A0I%C4%A0study%C4%A0
Good%C4%A0 n
?%C4%A0Assistant:%C4%A0 Ru
la euf
R au
grupp ierst%C4%A0
und%C4%A0 N
Mat erial
ist %C4%A0Ausflug
P fa
and .</s>
d '
.%C4%A0S zen
ra y%C4%A0
T age
st%C4%A0du%C4%A0 Daten?%C4%A0Assistant:%C4%A0Du%C4%A0
ur g
%C3%83%C2%A4hn lich
u .%C4%A0Dann%C4%A0
en%C4%A0lei se%C4%A0Mu
tst elle%C4%A0
tes%C4%A0 o
.%C4%A0Eine%C4%A0 Seite%C4%A0
en%C4%A0vor ?%C4%A0Assistant:%C4%A0Du%C4%A0definierst%C4%A0
ur s?%C4%A0Assistant:%C4%A0Du%C4%A0
4 ?%C4%A0Assistant:%C4%A0Du%C4%A0
sehr .%C4%A0Assistant:%C4%A0
%C4%A0das%C4%A0 auf
Graph %C4%A0
Inter val
st%C4%A0du%C4%A0das%C4%A0 wiederhol
te%C4%A0 wach
Heute%C4%A0ist%C4%A0Montag.%C4%A0Assistant:%C4%A0Today%C4%A0is%C4%A0 Mond
k eine%C4%A0
User:%C4%A0Wo%C4%A0lieg t%C4%A0d
EU .%C4%A0
Ein%C4%A0 In
e%C4%A0 auf
Erkl%C3%83%C2%A4r ung,%C4%A0
.%C4%A0 Ziel
User:%C4%A0Wie%C4%A0st ell
User:%C4%A0Wer%C4%A0war%C4%A0 Ju
User:%C4%A0%C3%83%C4%BEbersetze%C4%A0ins%C4%A0Franz%C3%83%C2%B6sische:%C4%A0Wo%C4%A0 wohnst%C4%A0du
setze%C4%A0 Kopfh%C3%83%C2%B6r
zw isch
h ar
machst%C4%A0du%C4%A0bei%C4%A0 0
t%C4%A0die%C4%A0 Reg
b ru
w %C3%83%C2%B6r
Daten b
Gro essen%C4%A0
koch t.</s>
en?%C4%A0Assistant:%C4%A0Du%C4%A0list est%C4%A0
iz iert%C4%A0
f ei
en zimm
eindeu tig
w i
?%C4%A0Assistant:%C4%A0 Teil
Le ben%C4%A0
Fenst er%C4%A0auf
.%C4%A0S %C3%83%C2%A4tze%C4%A0
P il
ehn t%C4%A0sich%C4%A0
User:%C4%A0Wo%C4%A0liegt%C4%A0der%C4%A0 Nil
in at
spielen%C4%A0Fu%C3%83%C5%81ball .%C4%A0Assistant:%C4%A0Nous%C4%A0
al d
olksabstimm ung
u%C4%A0 are%C4%A0
Steh %C4%A0bit
.%C4%A0Zehner%C4%A0 teil
Ster n.</s>
auf%C4%A0 Meeres
et%C4%A0 please.</s>
l %C4%A0der%C4%A0
f el
mess bar
Tie f
wor k.</s>
te%C4%A0 com
mus?%C4%A0Assistant:%C4%A0 Eine%C4%A0
on%C4%A0 wird%C4%A0
se t
merk st%C4%A0d
si k%C4%A0
.%C4%A0Ein nahmen%C4%A0und%C4%A0Ausgab
t%C4%A0 wird%C4%A0
M ultipli
Grund regeln%C4%A0
ie%C4%A0 und%C4%A0
.%C4%A0Es%C4%A0 ist%C4%A0sehr%C4%A0
fo er
reg iert.%C4%A0
Zeit en.%C4%A0Dann%C4%A0
User:%C4%A0Wie%C4%A0 wirkt%C4%A0
andel .%C4%A0Oft%C4%A0
xi d%C4%A0
?%C4%A0Assistant:%C4%A0In %C4%A0der%C4%A0Mit
gu tem%C4%A0
B en
m y%C4%A0
User:%C4%A0Was%C4%A0ist%C4%A0ein%C4%A0Kontin ent?%C4%A0Assistant:%C4%A0
User:%C4%A0%C3%83%C4%BEbersetze%C4%A0ins%C4%A0Franz%C3%83%C2%B6sische:%C4%A0 Er%C4%A0liest%C4%A0
liest%C4%A0die%C4%A0 Aufgabe
Sie%C4%A0 tanz
Sie%C4%A0f%C3%83%C2%A4hr t%C4%A0mit
3 *x
auf %C4%A0die%C4%A0
K n
Sie%C4%A0f%C3%83%C2%A4hrt%C4%A0mit %C4%A0dem%C4%A0
lo ok
User:%C4%A0Was%C4%A0 machst%C4%A0du%C4%A0bei%C4%A00
U se%C4%A0
en%C4%A0 le
en.%C4%A0Assistant:%C4%A0 Sp
Zimmer%C4%A0ist%C4%A0 lau
bleibt%C4%A0 ein%C4%A0
D ow
Plan%C4%A0f%C3%83%C2%BCr%C4%A0 Geld
M ind
ander s.</s>
tr anspor
Danke%C4%A0 sch%C3%83%C2%B6n
fest .%C4%A0Dann%C4%A0
?%C4%A0Assistant:%C4%A0 Ergebnis%C4%A0
f ok
A pp
R ol
ck st%C4%A0
er%C4%A0 ab
User:%C4%A0Wie%C4%A0gehst%C4%A0du%C4%A0bei %C4%A0%C3%83%C4%A6nder
en%C4%A0einen%C4%A0 Test
Rel ation
.%C4%A0D arum%C4%A0
?%C4%A0Assistant:%C4%A0Das%C4%A0 Vol
User:%C4%A0Wie%C4%A0 sind%C4%A0
mag %C4%A0
sik%C4%A0 beim%C4%A0
en.%C4%A0Assistant:%C4%A0 T%C3%83%C2%A4g
en%C4%A0d a
?%C4%A0Assistant:%C4%A0Kurz er%C4%A0
ern en%C4%A0vor
User:%C4%A0Was%C4%A0ist%C4%A0ein %C4%A0At
anz%C3%83%C2%B6sischer%C4%A0 Herr
w a%C4%A0
lin e?%C4%A0Assistant:%C4%A0
reich en.%C4%A0
f ig
h %C3%83%C2%A4tte%C4%A0g
an %C4%A0Alltag
urch .%C4%A0Dann%C4%A0
kreis en%C4%A0
falsch .</s>
t%C4%A0d urch
tigk eit%C4%A0
L at
User:%C4%A0Wie%C4%A0funktioniert%C4%A0 eine%C4%A0
ar l%C4%A0der%C4%A0
k ap
en.%C4%A0Ein%C4%A0 Satz
Was%C4%A0 kostet%C4%A0das
%C4%A0 werden%C4%A0
%C2%BB te%C4%A0com
ck lung%C4%A0
notier en.</s>
sin n
k au
B y
a eu
.%C4%A0Sie%C4%A0 sch%C3%83%C2%BCtz
St %C3%83%C2%A4r
%C4%A0eines%C4%A0 Staates
Dat um%C4%A0und%C4%A0
begr en
Plu s?%C4%A0Assistant:%C4%A0
h%C3%83%C2%B6r en.</s>
o m%C4%A0
t%C4%A0 Fahrra
m on
10,%C4%A0dann%C4%A0+ 2.</s>
st%C4%A0du%C4%A0d oppel
L eg
User:%C4%A0 Median%C4%A0
User:%C4%A0%C3%83%C4%BEbersetze%C4%A0ins%C4%A0Franz%C3%83%C2%B6sische:%C4%A0 Kein%C4%A0Problem.%C4%A0Assistant:%C4%A0P
,%C4%A0 T
machst%C4%A0 einen%C4%A0
vor?%C4%A0Assistant:%C4%A0Du%C4%A0 %C3%83%C2%A4nderst%C4%A0
se%C4%A0 ein%C4%A0Buch
%C4%A0Ausblick .</s>
enig%C4%A0 Frei
0. 5%C4%A0Assistant:%C4%A0
kur si
r ing
,%C4%A0was%C4%A0kommt%C4%A0raus?%C4%A0Assistant:%C4%A0 0.%C4%A0Null%C4%A0
.%C4%A0Assistant:%C4%A0 Vokabeln%C4%A0
M it%C4%A0
.%C4%A0Assistant:%C4%A0 Spann
e ber
di al
User:%C4%A0Wie%C4%A0beschreib st%C4%A0du%C4%A0einen%C4%A0
Mond schei
User:%C4%A0%C3%83%C4%BEbersetze%C4%A0ins%C4%A0Englische:%C4%A0 Bis%C4%A0sp%C3%83%C2%A4ter.%C4%A0Assistant:%C4%A0
%C4%A0 in%C4%A0JS.%C4%A0Assistant:%C4%A0let%C4%A0
Kon stant
such e%C4%A0Ar
9,%C4%A0wie%C4%A0viel?%C4%A0Assistant:%C4%A0 20
alid ier
en%C4%A0 ver
zeich en.%C4%A0
re tard.</s>
no ch%C4%A0
Te st.</s>
gang en
verteil t
$ {
en.%C4%A0 Kleine%C4%A0
%C4%A0+%C4%A07 %C4%A0=%C4%A0
%C3%83%C4%BEberg%C3%83%C2%A4n ge%C4%A0
ih n
als%C4%A0 in%C4%A0
mm un
bring en%C4%A0
mach st%C4%A0Ab
ation .%C4%A0Dann%C4%A0testest%C4%A0du%C4%A0
o le
User:%C4%A0Was%C4%A0ist%C4%A0die%C4%A0EU ?%C4%A0Assistant:%C4%A0Ein%C4%A0
Notiz en%C4%A0
Reihen folg
User:%C4%A0%C3%83%C4%BEbersetze%C4%A0ins%C4%A0Franz%C3%83%C2%B6sische:%C4%A0Wo%C4%A0 ist%C4%A0der%C4%A0Bahnhof
6%C4%A0 plus%C4%A0
w ohne%C4%A0
pf el%C4%A0
y (
arl%C4%A0der%C4%A0 Gro%C3%83%C5%81
ent?%C4%A0Assistant:%C4%A0 Gew%C3%83%C2%A4hlte%C4%A0
To -D
?%C4%A0Assistant:%C4%A0Ja .%C4%A0Ach
Bedeut ung
l ation
E hr
or malisier
w ichtige%C4%A0
%C4%A0ist%C4%A0 ein%C4%A0
.%C4%A0Was%C4%A0 steh
Staaten.%C4%A0 F%C3%83%C2%BCr%C4%A0
en%C4%A0 aus%C4%A0
w%C3%83%C2%BCr f
User:%C4%A0Wie%C4%A0nutzt%C4%A0du%C4%A0 Beispiele%C4%A0
Nor mal
sch eid
4 4
kleine%C4%A0 Schritte.</s>
rei f
User:%C4%A0Was%C4%A0ist%C4%A0ein%C4%A0 Bundes
User:%C4%A0Wie%C4%A0gehst%C4%A0du%C4%A0 mit
User:%C4%A0%C3%83%C4%BEbersetze%C4%A0ins%C4%A0Franz%C3%83%C2%B6sische:%C4%A0Ich%C4%A0 schreibe%C4%A0eine%C4%A0E%C4%A0Mail
b%C3%83%C2%BCnd ni
Grund gesetz
Fok us%C4%A0
a mit.</s>
ar ?%C4%A0Assistant:%C4%A0Ein%C4%A0
3 0%C4%A0
ing !%C4%A0Assistant:%C4%A0
e tr
co le.</s>
er b
?%C4%A0Assistant:%C4%A0D rei%C4%A0
.%C4%A0Assistant:%C4%A0Au jourd%C4%A0hui
document. ge
frei e%C4%A0W
User:%C4%A02 1
Ar beit
t.%C4%A0Wir%C4%A0 gehen%C4%A0
.%C4%A0Ich%C4%A0 wiederhole%C4%A0
ob en.%C4%A0Es%C4%A0
Eine%C4%A0Fahrkarte%C4%A0bitte.%C4%A0Assistant:%C4%A0 A
Hinwei se.</s>
us%C4%A0 C
umm e%C4%A0ist%C4%A0
geh t.</s>
Wahl rech
.%C4%A0Arbeitet%C4%A0 f%C3%83%C2%BCr%C4%A0
lation ?%C4%A0Assistant:%C4%A0P
pf chen%C4%A0
.%C4%A0Assistant:%C4%A0How%C4%A0 mu
User:%C4%A0Fasse%C4%A0kurz%C4%A0zusammen:%C4%A0Ein%C4%A0Text%C4%A0%C3%83%C2%BCber%C4%A0 St%C3%83%C2%A4dte
Pr%C3%83%C2%BCfung%C4%A0 nah
Beweg ung.</s>
pack st%C4%A0
entsteht%C4%A0 aus%C4%A0
let s%C4%A0
age ?%C4%A0Assistant:%C4%A0
User:%C4%A0Wie%C4%A0setze%C4%A0 ich%C4%A0
F oli
Fe atur
ohne%C4%A0 Klische
lau t.%C4%A0
end .</s>
en rech
O hr
reg net%C4%A0
mit %C4%A0A
sid ent%C4%A0
mp fehl
h ohe%C4%A0
e%C4%A0 G
?%C4%A0Assistant:%C4%A0 Menschen%C4%A0
schreib en%C4%A0einen%C4%A0Test
?%C4%A0Assistant:%C4%A0Das%C4%A0 ist%C4%A0die%C4%A0
gel es
on%C4%A0wird%C4%A0 bun
Gruppenarbeit ?%C4%A0Assistant:%C4%A0Du%C4%A0
User:%C4%A03 /
User:%C4%A0Fasse%C4%A0kurz%C4%A0zusammen:%C4%A0Ein%C4%A0Bericht%C4%A0 %C3%83%C2%BCber%C4%A0den%C4%A0
j ou
Dow n
t%C4%A0m an
.%C4%A0Ein er%C4%A0
reich t%C4%A0aus
User:%C4%A0Was%C4%A0ist%C4%A0eine%C4%A0 Demokratie
on%C4%A0wird%C4%A0bun t.%C4%A0Assistant:%C4%A0
brauch e%C4%A0
zu stand
%C3%83%C2%A4rm ender%C4%A0
Er%C4%A0 lern
Weg e%C4%A0
Ne w
e%C4%A0das%C4%A0 Hand
fol ge
.%C4%A0Wir%C4%A0 les
.%C4%A0Assistant:%C4%A0E lle%C4%A0
r um
arbei tet%C4%A0
tion%C4%A0 mit%C4%A0
User:%C4%A0Was%C4%A0ist%C4%A0 Inf
eine%C4%A0 Liste.%C4%A0Dann%C4%A0
j a%C4%A0
.%C4%A0Dann%C4%A0 markierst%C4%A0du%C4%A0
Laptop ,%C4%A0
Rucksack .%C4%A0Morgen%C4%A0
read y.</s>
f te.</s>
age g
termin ist
P l%C3%83%C2%A4tz
weg lassen.</s>
Eine%C4%A0 A
Zug %C4%A0
e%C4%A0d o%C4%A0you%C4%A0
liches%C4%A0 Git
hat %C4%A0die%C4%A0
schnell er?%C4%A0Assistant:%C4%A0
li tz
K lang
S he%C4%A0
guter%C4%A0 Erfolg.</s>
Mittelwer t%C4%A0von%C4%A0
w ahl%C4%A0
Detail s.%C4%A0
ho ch.</s>
Tag .%C4%A0Dann%C4%A0
Voll er%C4%A0
er%C4%A0 Bal
Weg %C4%A0
ent%C4%A0 wird%C4%A0
Be wei
.%C4%A0 Luft%C4%A0
leich t?%C4%A0Assistant:%C4%A0
Farben%C4%A0 sind%C4%A0
Bei %C4%A0
gro ess
v ier%C4%A0
User:%C4%A0%C3%83%C4%BEbersetze%C4%A0ins%C4%A0Franz%C3%83%C2%B6sische:%C4%A0Ich%C4%A0 trinke%C4%A0Wasser
wach t.</s>
F %C3%83%C2%A4
al en%C4%A0
.%C4%A0Sie%C4%A0 l%C3%83%C2%B6st%C4%A0
f%C3%83%C2%BCr s%C4%A0
Sch iff
n umm
?%C4%A0Assistant:%C4%A0Ein%C4%A0 Ergebnis%C4%A0
.%C4%A0Er%C4%A0 wurde%C4%A0
Details%C4%A0 weg.</s>
.%C4%A0Vier%C4%A0 mal%C4%A0
Mach t.</s>
User:%C4%A0Wie%C4%A0nutzt%C4%A0du%C4%A0 Lern
?%C4%A0Assistant:%C4%A0Kurz e%C4%A0
e%C4%A0Auf gaben%C4%A0
W elle%C4%A0
k uss
D ank
entsteh en%C4%A0
Gr%C3%83%C2%B6%C3%83%C5%81 te%C4%A0
ung%C4%A0ist%C4%A0 wichtig.</s>
te?%C4%A0Assistant:%C4%A0Du%C4%A0 pr%C3%83%C2%BCfst%C4%A0
blei ben%C4%A0d
,%C4%A0passt%C4%A0 2
Fluss %C4%A0
3 %C4%A0+%C4%A04
User:%C4%A0%C3%83%C4%BEbersetze%C4%A0ins%C4%A0Franz%C3%83%C2%B6sische:%C4%A0 Bis%C4%A0sp%C3%83%C2%A4ter.%C4%A0Assistant:%C4%A0
.%C4%A0Dann%C4%A0%C3%83%C2%BCber spr
e%C4%A0 Gitar
si bi
arf st%C4%A0du%C4%A0
eux%C4%A0 t
enz iel
St ak
User:%C4%A0Wie%C4%A0pr%C3%83%C2%BCfst%C4%A0du ,%C4%A0ob
User:%C4%A0Wie%C4%A0schreibe%C4%A0ich%C4%A0 Dial
musi c
User:%C4%A0Wie%C4%A0nutzt%C4%A0du%C4%A0 eine%C4%A0
%C4%A0Assistant:%C4%A0 8</s>
L eit
User:%C4%A02 8
mark ieren.%C4%A0
User:%C4%A0%C3%83%C4%BEbersetze%C4%A0ins%C4%A0Englische:%C4%A0Ich%C4%A0komme%C4%A0 aus%C4%A0Deutschland
Zeitd ruck%C4%A0
Dialog ?%C4%A0Assistant:%C4%A0
li ta
s we
lo s
.%C4%A0Assistant:%C4%A0L ei
%C4%A0die%C4%A0 Mondschei
melde st%C4%A0du%C4%A0dich%C4%A0
en sitiv
2 %C4%A0+%C4%A01
Tex t?%C4%A0Assistant:%C4%A0
t%C4%A0 oder%C4%A0
w ie%C4%A0
Pr%C3%83%C2%BCfung%C4%A0ist%C4%A0 b
und%C4%A0 nachvollzieh
minus%C4%A0 7.</s>
Ein%C4%A0 C
ation%C4%A0ver hindert%C4%A0
lem entier
tiz en?%C4%A0Assistant:%C4%A0
jourd%C4%A0hui .</s>
t.%C4%A0Dann%C4%A0 pr%C3%83%C2%BCfst%C4%A0du%C4%A0
c ='
Ergebniss e?%C4%A0Assistant:%C4%A0Du%C4%A0
erg %C3%83%C2%A4n
arl%C4%A0der%C4%A0Gro%C3%83%C5%81 e?%C4%A0Assistant:%C4%A0Ein%C4%A0fr
.%C4%A0G il
w%C3%83%C2%A4rm t%C4%A0gut
bewer test%C4%A0du%C4%A0
%C4%A0 Con
Handel %C4%A0und%C4%A0
Zeitd ruck
User:%C4%A0Wie%C4%A0erstell st%C4%A0du%C4%A0ein%C4%A0
e%C4%A0die%C4%A0 Ket
t%C4%A0 les
s%C4%A0 begren
.%C4%A0Oft%C4%A0 Pr%C3%83%C2%A4
og raf
lang %C4%A0und%C4%A0
T h
at ,%C4%A0
et ,%C4%A0
aktiv %C4%A0
User:%C4%A0Wie%C4%A0schreibe%C4%A0ich%C4%A0 Szen
rie sig
%C4%A0d %C3%83%C2%A9
ei le
.%C4%A0Assistant:%C4%A0We%C4%A0 play%C4%A0
Ein%C4%A0 Daten
.%C4%A0Neu es%C4%A0
User:%C4%A0Wie%C4%A0 meldest%C4%A0du%C4%A0dich%C4%A0
an .%C4%A0Dann%C4%A0
.%C4%A0Assistant:%C4%A0Wher e%C4%A0do%C4%A0you%C4%A0
a ender
.%C4%A0Assistant:%C4%A0J%C4%A0ai %C4%A0besoin%C4%A0d
Test .%C4%A0Assistant:%C4%A0Phy
mo eg
l %C4%A0Assistant:%C4%A0
User:%C4%A0Wie%C4%A0schreibe%C4%A0ich%C4%A0 B
Bel eg
art eien%C4%A0
szen e?%C4%A0Assistant:%C4%A0
ri ve%C4%A0
!%C4%A0Assistant:%C4%A0 H
st%C4%A0du%C4%A0 D
0%C4%A0%C3%83%C2%B7%C4%A0 10
reg eln
er%C4%A0auf .%C4%A0Assistant:%C4%A0L
User:%C4%A0Was%C4%A0ist%C4%A0 Schall
einen%C4%A0 Plan
Fant a
.%C4%A0Assistant:%C4%A0What%C4%A0 time%C4%A0
kling en%C4%A0
gesch %C3%83%C2%BCtzt.</s>
wei se%C4%A0
er%C4%A0Akk u%C4%A0
der n%C4%A0
wohne%C4%A0 in%C4%A0Berlin
User:%C4%A0%C3%83%C4%BEbersetze%C4%A0ins%C4%A0Franz%C3%83%C2%B6sische:%C4%A0Ich%C4%A0hab e%C4%A0Zeit
gute%C4%A0 Ide
.%C4%A0Add iere%C4%A0die%C4%A0
Engli s
y ?%C4%A0Assistant:%C4%A0
Such e%C4%A0
Erwart ungen%C4%A0
en%C4%A0 retard.</s>
on%C4%A0 von%C4%A0
en%C4%A0 %C3%83%C2%BCber%C4%A0
st %C4%A0Aufgaben.%C4%A0Dann%C4%A0
st%C4%A0du%C4%A0einen%C4%A0 Plan
%C3%83 %C4%A9
- 1.</s>
T at
Kriterien.%C4%A0Dann%C4%A0 bewertest%C4%A0du%C4%A0
ot enz
?%C4%A0Assistant:%C4%A0Du%C4%A0 erstellst%C4%A0
herr sch
zep tanz
e%C4%A0W %C3%83%C2%B6rter
User:%C4%A0Wo%C4%A0liegt%C4%A0d er%C4%A0Amazonas?%C4%A0Assistant:%C4%A0
k g
User:%C4%A0%C3%83%C4%BEbersetze%C4%A0ins%C4%A0Franz%C3%83%C2%B6sische:%C4%A0Wo%C4%A0ist%C4%A0der%C4%A0Bahnhof .%C4%A0Assistant:%C4%A0O%C3%83%C2%B9
%C3%83%C2%BCch e?%C4%A0Assistant:%C4%A0Du%C4%A0
Inst rum
A uto
I f
Ticket s%C4%A0sind%C4%A0
W or
en%C4%A0in%C4%A0 St%C3%83%C2%A4d
antwor tet%C4%A0
f ro
User:%C4%A0Was%C4%A0ist %C4%A0Ar
n lin
ess ant
tro cken.</s>
?%C4%A0Assistant:%C4%A0 Klar%C4%A0
User:%C4%A0Wie%C4%A0planst%C4%A0du%C4%A0 B
toi%C4%A0 s%C4%A0il%C4%A0te%C4%A0plait.</s>
st elle%C4%A0
User:%C4%A0Wel che%C4%A0
einen%C4%A0 Tim
%C3%83%C2%BCll%C4%A0raus ,%C4%A0
Nud eln
ony mi
Ein%C4%A0 System%C4%A0
S or
be einfluss
jou ons%C4%A0
User:%C4%A02 2%C4%A0-%C4%A0
spiel %C4%A0mit%C4%A0
im%C4%A0 Fokus.</s>
tisch %C4%A0
User:%C4%A0Fasse%C4%A0zusammen:%C4%A0Ich%C4%A0 schreibe%C4%A0eine%C4%A0E%C4%A0Mail
ch en
JSON .
function( ){%C4%A0console.log('
frag st%C4%A0du%C4%A0
.%C4%A0Dann%C4%A0 nutzt%C4%A0du%C4%A0
und zwanz
tex t
gute%C4%A0Ide e
Leer er%C4%A0Akk
iss brauch
t.%C4%A0Dann%C4%A0 baust%C4%A0du%C4%A0
add ierst%C4%A0du%C4%A0
ung?%C4%A0Assistant:%C4%A0Du%C4%A0 vergleichst%C4%A0
U n%C4%A0
%C3%83%C5%81 en.%C4%A0
n ui
wi cklung%C4%A0
Wasser ?%C4%A0Assistant:%C4%A0
.%C4%A0Assistant:%C4%A0What%C4%A0time%C4%A0 is%C4%A0
Variab le%C4%A0
er%C4%A0Bal k
kontr oll
F%C3%83%C2%BC ge%C4%A0
war m%C4%A0
et eil
e%C4%A0die%C4%A0Ket te.%C4%A0Assistant:%C4%A0
Puf f
mit%C4%A0 klein
En de.%C4%A0
notier st%C4%A0den%C4%A0
.%C4%A0A lte%C4%A0
ensystem?%C4%A0Assistant:%C4%A0Eine%C4%A0 Sonne%C4%A0
User:%C4%A0%C3%83%C4%BEbersetze%C4%A0ins%C4%A0Englische:%C4%A0Ich%C4%A0hab e%C4%A0Zeit
as %C4%A0de%C4%A0
We b
e?%C4%A0Assistant:%C4%A0 Was%C4%A0
User:%C4%A0L ad
o%C4%A0 prob
rei se%C4%A0
Ge ograf
%C4%A0 tick
in %C4%A0Afrika.%C4%A0Sehr%C4%A0
%C4%A0Algorith mus?%C4%A0Assistant:%C4%A0Eine%C4%A0
in .</s>
18 .</s>
Licht%C4%A0 an
mitt l
?%C4%A0Assistant:%C4%A0Ein%C4%A0 T
.%C4%A0Assistant:%C4%A0 Pr%C3%83%C2%BCfung%C4%A0nah
User:%C4%A0Fasse%C4%A0zusammen:%C4%A0Wir%C4%A0planen%C4%A0 eine%C4%A0
T age.</s>
De z
W a
b asi
Pr%C3%83%C2%BCfung%C4%A0ist%C4%A0 schwer
.%C4%A0Assistant:%C4%A0Je%C4%A0su is
richtig .</s>
User:%C4%A0%C3%83%C4%BEbersetze%C4%A0ins%C4%A0Franz%C3%83%C2%B6sische:%C4%A0Wie%C4%A0geht%C4%A0es%C4%A0dir.%C4%A0Assistant:%C4%A0Comment%C4%A0 %C3%83%C2%A7
este%C4%A0 Salz
Aufgabe ?%C4%A0Assistant:%C4%A0Du%C4%A0
kommt%C4%A0nach%C4%A0 vorn.</s>
Bibliothek .%C4%A0Assistant:%C4%A0Where%C4%A0is%C4%A0the%C4%A0
wech s
Ziel %C4%A0und%C4%A0
anpass en.</s>
Magma %C4%A0
H ilf
V alidier
%C4%A0Assistant:%C4%A0 20</s>
Paus en.</s>
en ke%C4%A0
Re qu
Kl ein%C4%A0und%C4%A0
Einf luss.%C4%A0Dann%C4%A0
ernen%C4%A0vor %C4%A0dem%C4%A0
/ >.</s>
tz u
es ?%C4%A0Assistant:%C4%A0Du%C4%A0
Wasser?%C4%A0Assistant:%C4%A0 Wasser%C4%A0
Gebie t%C4%A0
Les en.</s>
s.%C4%A0Dann%C4%A0 passt%C4%A0du%C4%A0
Entscheid ungs
m%C4%A0 appelle%C4%A0Alex.</s>
e%C4%A0ein%C4%A0 Bild
User:%C4%A0%C3%83%C4%BEbersetze%C4%A0ins%C4%A0Englische:%C4%A0Wir%C4%A0spielen%C4%A0Fu%C3%83%C5%81ball .%C4%A0Assistant:%C4%A0We%C4%A0play%C4%A0
User:%C4%A0Fasse%C4%A0zusammen:%C4%A0Die%C4%A0 Pr%C3%83%C2%BCfung%C4%A0ist%C4%A0b
zehn%C4%A0 weg.</s>
h%C3%83%C2%B6 he.</s>
m ein%C4%A0Buch
F an
User:%C4%A0%C3%83%C4%BEbersetze%C4%A0ins%C4%A0Englische:%C4%A0 Heute%C4%A0ist%C4%A0Montag.%C4%A0Assistant:%C4%A0Today%C4%A0is%C4%A0Mond
lich en%C4%A0
%C3%83%C4%A9 a%C4%A0
en.%C4%A0G el
0%C4%A0 EUR
%C4%A0%C3%83%C2%B7%C4%A03,%C4%A0Ergebnis?%C4%A0Assistant:%C4%A0 6
t.%C4%A0Dann%C4%A0 planst%C4%A0du%C4%A0
suche%C4%A0Ar beit
Kamera%C4%A0 an.</s>
i t.</s>
%C3%83%C4%A6quator ?%C4%A0Assistant:%C4%A0In%C4%A0der%C4%A0Mit
Zimmer%C4%A0ist%C4%A0 sauber
%C4%A0ist%C4%A0 al
,%C4%A0wie%C4%A0rechnest%C4%A0du ?%C4%A0Assistant:%C4%A01
R %C3%83%C2%B6
t%C4%A0d ass
st%C4%A0 im%C4%A0
her gestell
Nachricht en.</s>
Heute%C4%A0ist%C4%A0Montag .%C4%A0Assistant:%C4%A0Aujourd%C4%A0hui
.%C4%A0Assistant:%C4%A0I%C4%A0have%C4%A0 time.</s>
Kohl end
in%C4%A0 m
ein%C4%A0 Gehirn%C4%A0
5%C4%A0 Prozent%C4%A0von%C4%A0
User:%C4%A0%C3%83%C4%BEbersetze%C4%A0ins%C4%A0Franz%C3%83%C2%B6sische:%C4%A0Kannst%C4%A0du%C4%A0helfen.%C4%A0Assistant:%C4%A0 T
H%C3%83%C2%B6 he
User:%C4%A0%C3%83%C4%BEbersetze%C4%A0ins%C4%A0Englische:%C4%A0Ich%C4%A0lerne%C4%A0 f%C3%83%C2%BCr%C4%A0die%C4%A0Pr%C3%83%C2%BCfung
User:%C4%A0Wie%C4%A0schreibe%C4%A0ich%C4%A0 treff
t%C4%A0d ein%C4%A0
e%C4%A0 Notiz
.%C4%A0Assistant:%C4%A0I%C4%A0am%C4%A0 fro
zeptanz k
bedeute t%C4%A0dass
sauber .%C4%A0Assistant:%C4%A0
12 .%C4%A0
arn ing
User:%C4%A0Wie%C4%A0schreibe%C4%A0ich%C4%A0eine%C4%A0 St
.%C4%A0Sehr%C4%A0 tief
?%C4%A0Assistant:%C4%A0Du%C4%A0definierst%C4%A0 Ziele.%C4%A0Dann%C4%A0
Prod u
et was
l%C3%83%C2%A4uf t%C4%A0
muli erst%C4%A0du%C4%A0
G eteil
Techni k
sp%C3%83%C2%A4 te
te%C4%A0 sehr.%C4%A0Assistant:%C4%A0
prob ierst%C4%A0
User:%C4%A0Wie%C4%A0gehst%C4%A0du%C4%A0bei%C4%A0 Mehr
mach st%C4%A0du%C4%A0sie%C4%A0
Nam en?%C4%A0Assistant:%C4%A0
z%C3%83%C2%A4hl en.</s>
bereit .%C4%A0Assistant:%C4%A0I%C4%A0am%C4%A0
wer te.%C4%A0Dann%C4%A0
an .%C4%A0Assistant:%C4%A0O
st e%C4%A0und%C4%A0
User:%C4%A0Fasse%C4%A0zusammen:%C4%A0Ich%C4%A0 trinke%C4%A0Te
Zahl en.</s>
?%C4%A0Assistant:%C4%A0Ein%C4%A0 Ger%C3%83%C2%A4t%C4%A0
wer tet%C4%A0
ne un
Wie%C4%A0sp%C3%83%C2%A4t%C4%A0ist%C4%A0es .%C4%A0Assistant:%C4%A0
User:%C4%A0%C3%83%C4%BEbersetze%C4%A0ins%C4%A0Franz%C3%83%C2%B6sische:%C4%A0Ich%C4%A0 mag%C4%A0Musik
terminist isch
Br %C3%83%C2%B6
fa ctor
c a.</s>
Ho eh
ing%C4%A0 verbessert%C4%A0
P an
Er%C4%A0 w%C3%83%C2%A4rmt%C4%A0gut
User:%C4%A0%C3%83%C4%BEbersetze%C4%A0ins%C4%A0Franz%C3%83%C2%B6sische:%C4%A0Ich%C4%A0bin%C4%A0 bereit
t me%C4%A0
off ene%C4%A0
este%C4%A0Salz e.</s>
Stad tst
b lik
w%C3%83%C2%B6r t
beginn st%C4%A0
elle%C4%A0 Bilder
zeichnest%C4%A0 K
schie bt%C4%A0
%C4%A0Ak tion
Nach t
User:%C4%A0Er stelle%C4%A0
?%C4%A0Assistant:%C4%A0Du%C4%A0 klick
User:%C4%A0%C3%83%C4%BEbersetze%C4%A0ins%C4%A0Franz%C3%83%C2%B6sische:%C4%A0Wo%C4%A0wohnst%C4%A0du .%C4%A0Assistant:%C4%A0T
gabe .</s>
t.%C4%A0 Bund%C4%A0
Sp e
ung%C4%A0 reduziert%C4%A0
bar er%C4%A0
st %C4%A0Antwor
li t%C4%A0
i den
%C4%A0Assistant:%C4%A07 </s>
ein ung%C4%A0
Berg %C4%A0mit%C4%A0
ach e?%C4%A0Assistant:%C4%A0
fal tet.</s>
Tr an
y off
.%C4%A0Wir%C4%A0 gehen%C4%A0
ing t%C4%A0gut
schl%C3%83%C2%A4 ft
Lang same%C4%A0
! </s>
ueber wacht.</s>
ativ it%C3%83%C2%A4
mp lementier
en?%C4%A0Assistant:%C4%A0Du%C4%A0schreibst%C4%A0 kurz.%C4%A0Dann%C4%A0
, %C4%A0A
leg st%C4%A0in%C4%A0
User:%C4%A0Wie%C4%A0schreibe%C4%A0ich%C4%A0eine%C4%A0 Ver
mit%C4%A0 Beispiel
zw ass
JS%C4%A0 hin
.%C4%A0Dann%C4%A0 legst%C4%A0du%C4%A0
fr%C3%83%C2%BCh %C4%A0
e%C4%A0ich%C4%A0 einen%C4%A0
User:%C4%A0 I
5 0%C4%A0
alitaet%C4%A0 bedeutet,%C4%A0d
,%C4%A0was%C4%A0 ist%C4%A0das?%C4%A0Assistant:%C4%A0
Sch la
ei m.</s>
re p
.%C4%A0Assistant:%C4%A0Fr ische%C4%A0
ole on
User:%C4%A0Was%C4%A0ist%C4%A0ein%C4%A0Referendum ?%C4%A0Assistant:%C4%A0V
User:%C4%A0Wie%C4%A0schreibe%C4%A0ich%C4%A0H %C3%83%C2%B6r
gel o
lei be%C4%A0
lat ten%C4%A0
Salz %C4%A0s
R%C3%83%C2%B6 m
B od
beh and
User:%C4%A0Warum%C4%A0 seh
Pflanz en.</s>
tisch .</s>
For scher
t%C4%A0mit%C4%A0 gutem%C4%A0
Einleit ung?%C4%A0Assistant:%C4%A0
er%C4%A0 Preis
sor ry.</s>
Use%C4%A0 C
%C4%A0be au
M entor
anach %C4%A0ist%C4%A0
begr %C3%83%C2%BCndet.</s>
einen%C4%A0 Prozess?%C4%A0Assistant:%C4%A0Du%C4%A0
User:%C4%A0Was%C4%A0ist%C4%A0eine%C4%A0Monarch ie?%C4%A0Assistant:%C4%A0Eine%C4%A0
User:%C4%A0Was%C4%A0ist%C4%A0ein %C4%A0Algorithmus?%C4%A0Assistant:%C4%A0Eine%C4%A0
Te e?%C4%A0Assistant:%C4%A0
Di enst
En de%C4%A0
User:%C4%A0Fasse%C4%A0zusammen:%C4%A0Der%C4%A0 Laptop
Darstell ung%C4%A0von%C4%A0
Linie%C4%A0 um%C4%A0die%C4%A0
wichtig ?%C4%A0Assistant:%C4%A0Sie%C4%A0
berech ne
.%C4%A0 Orte%C4%A0
ih r%C4%A0
.%C4%A0Neun er
.%C4%A0N imm
verschied ene%C4%A0
User:%C4%A04 0
%C4%A0+%C4%A0 25
ek tiere%C4%A0
Me tri
Gute%C4%A0Nacht.%C4%A0Assistant:%C4%A0 Good%C4%A0n
.%C4%A0Assistant:%C4%A0 N
Schne em
block iert%C4%A0
er %C4%A0dazu.</s>
%C3%83%C2%A4rmender%C4%A0 Tee.</s>
qu ietsch
.%C4%A0 Ber
n%C3%83%C2%B6 ti
?%C4%A0Assistant:%C4%A0Du%C4%A0 misst%C4%A0
Zahl%C4%A0 kommt%C4%A0nach%C4%A0vorn.</s>
K%C3%83%C2%B6rper .%C4%A0So%C4%A0
User:%C4%A0Fasse%C4%A0zusammen:%C4%A0Wir%C4%A0 h%C3%83%C2%B6r
%C3%83%C4%A6nder ungen.</s>
User:%C4%A0Fasse%C4%A0zusammen:%C4%A0Wir%C4%A0 pflanzen%C4%A0Blum
ou t%C4%A0
?%C4%A0Assistant:%C4%A0 Beweg
%C4%A0=%C4%A0 25
st%C4%A0 es%C4%A0
tra in%C4%A0
%C4%A0und%C4%A0 R
suchst%C4%A0du%C4%A0die%C4%A0Ursach e.</s>
Energ ie
User:%C4%A0%C3%83%C4%BEbersetze%C4%A0ins%C4%A0Franz%C3%83%C2%B6sische:%C4%A0Ich%C4%A0hei%C3%83%C5%81e%C4%A0Alex.%C4%A0Assistant:%C4%A0Je%C4%A0 m%C4%A0appelle%C4%A0Alex.</s>
%C4%A0Assistant:%C4%A01 8</s>
d ('
tz%C4%A0d ich%C4%A0
Restor e%C4%A0
numm er
= 0
User:%C4%A0%C3%83%C4%BEbersetze%C4%A0ins%C4%A0Englische:%C4%A0 Kein%C4%A0Problem
au ss
Bit te.%C4%A0Assistant:%C4%A0
bar,%C4%A0wenn%C4%A0 sie%C4%A0
Tr ig
end ?%C4%A0Assistant:%C4%A0Du%C4%A0vergleichst%C4%A0
pl ant
cienc e.</s>
User:%C4%A02 4
azier gang
Par am
User:%C4%A0Wie%C4%A0schreibe%C4%A0ich%C4%A0 D
ing%C4%A0 a%C4%A0
Vor trag
NA TO
is%C4%A0 that.</s>
ur sach
Sprich%C4%A0langsam er
auerstoff %C4%A0
kl eines%C4%A0
p s
se qu
kauf en%C4%A0
schl%C3%83%C2%A4ft .%C4%A0Der%C4%A0
lad e%C4%A0das%C4%A0Hand
User:%C4%A0Wie%C4%A0entsteht%C4%A0 eine%C4%A0
e%C4%A0d reh
sch m
Hunder tst
e%C4%A0 F
?%C4%A0Assistant:%C4%A0Ein%C4%A0 Re
rie ben
User:%C4%A0Was%C4%A0ist%C4%A0ein%C4%A0Kontin ent
Ber ei
Rhyth mus%C4%A0
User:%C4%A0Wie%C4%A0schreibe%C4%A0ich%C4%A0 Fan
Prozent .%C4%A0Neu
o ul
T her
Wolk en%C4%A0
User:%C4%A0Fasse%C4%A0zusammen:%C4%A0Ich%C4%A0schreibe%C4%A0eine%C4%A0E%C4%A0Mail .%C4%A0Die%C4%A0
ur e%C4%A0est%C4%A0
a d%C4%A0
im %C4%A0Alltag
hinder e%C4%A0
.%C4%A0Assistant:%C4%A0O%C3%83%C2%B9 %C4%A0est%C4%A0l
Es%C4%A0tut%C4%A0mir%C4%A0leid.%C4%A0Assistant:%C4%A0I%C4%A0am%C4%A0 sorry.</s>
Rechte%C4%A0 f%C3%83%C2%BCr%C4%A0
de ?%C4%A0Assistant:%C4%A0Ein%C4%A0
?%C4%A0Assistant:%C4%A0W enig
form anc
i on%C4%A0von%C4%A0
%C4%A0%C3%83%C4%B9%C4%A0 6
Lim it
tudie%C4%A0 pour%C4%A0
%C4%A0Assistant:%C4%A04 2</s>
Ergebnis:%C4%A0 5.</s>
User:%C4%A0Was%C4%A0ist%C4%A0eine%C4%A0 Verfass
%C4%A0Aut or
t %C3%A2%C4%A2
kann%C4%A0 in%C4%A0
tapp en.%C4%A0Dann%C4%A0
der%C4%A0 lernen%C4%A0
st%C4%A0nach %C4%A0Ar
.%C4%A0Dann%C4%A0%C3%83%C2%A4nder st%C4%A0du%C4%A0
ichtig k
.%C4%A0S auerstoff%C4%A0
.%C4%A0Assistant:%C4%A0H a
klingen%C4%A0 S%C3%83%C2%A4tze%C4%A0
Multipli z
bil den%C4%A0
Budge t.</s>
0 ,%C4%A0
s eln%C4%A0
.%C4%A0Du%C4%A0 nimmst%C4%A0
neu .</s>
Gegen war
User:%C4%A0Wo%C4%A0liegt%C4%A0der%C4%A0Amazonas?%C4%A0Assistant:%C4%A0 In%C4%A0S%C3%83%C2%BCdamerika
Tempo%C4%A0 und%C4%A0
t%C4%A0 gibt%C4%A0es%C4%A0
User:%C4%A0Wie%C4%A0stell st%C4%A0du%C4%A0
.%C4%A0Danach%C4%A0 fal
Lat enz
User:%C4%A0Was%C4%A0ist%C4%A0das%C4%A0 neutr
en%C4%A0 Oma
e.%C4%A0 Keine%C4%A0
journ al
a te
?%C4%A0Assistant:%C4%A0Du%C4%A0 sortier
er gebni
is kuss
rieg ?%C4%A0Assistant:%C4%A0
Ger%C3%83%C2%A4 te%C4%A0
music .</s>
komp lex
%C3%83%C2%A8 me.</s>
w rit
b en?%C4%A0Assistant:%C4%A0
schw imm
la te.</s>
?%C4%A0Assistant:%C4%A0Ein%C4%A0 Gebir
4 2
toi%C4%A0 bien.</s>
g are.</s>
ch%C4%A0 is%C4%A0that.</s>
Sign al
K rie
Paar e.%C4%A0
sist enz
erlau bt.</s>
t.%C4%A0Ich%C4%A0 setze%C4%A0Kopfh%C3%83%C2%B6r
nui t.</s>
.%C4%A0Wir%C4%A0les en%C4%A0da
eit er%C4%A0
%C4%A0%C3%83%C2%B7%C4%A0 3
erg%C3%83%C2%A4n z
Ther m
) %C4%A0%C3%83%C2%B7%C4%A02
el li
t%C4%A0 wird.</s>
User:%C4%A0Warum%C4%A0 w
st ern,%C4%A0
User:%C4%A0%C3%83%C4%BEbersetze%C4%A0ins%C4%A0Franz%C3%83%C2%B6sische:%C4%A0 Wie%C4%A0sp%C3%83%C2%A4t%C4%A0ist%C4%A0es.%C4%A0Assistant:%C4%A0
N umm
besteh en%C4%A0aus%C4%A0
vier%C4%A0 ist%C4%A0
Szen e.</s>
Groessen%C4%A0 konstant
h ref
User:%C4%A0Was%C4%A0be wirk
ud io
.%C4%A0A nder
i s?%C4%A0Assistant:%C4%A0
y m
Z it
2 .%C4%A0Doppelt%C4%A0
e%C4%A0 t%C3%83%C2%A4g
be su
geschloss ener%C4%A0
sik .%C4%A0Wir%C4%A0lesen%C4%A0da
User:%C4%A0 Sel
.%C4%A0Assistant:%C4%A0The%C4%A0 ex
the%C4%A0exam .</s>
komm un
Gehir n
n%C3%83%C2%A4ch sten%C4%A0
prob l
User:%C4%A0%C3%83%C4%BEbersetze%C4%A0ins%C4%A0Franz%C3%83%C2%B6sische:%C4%A0Wie%C4%A0sp%C3%83%C2%A4t%C4%A0ist%C4%A0es.%C4%A0Assistant:%C4%A0 Quelle%C4%A0he
?%C4%A0Assistant:%C4%A0Du%C4%A0nutzt%C4%A0 klare%C4%A0
User:%C4%A0Was%C4%A0ist%C4%A0ein%C4%A0Bundes land
User:%C4%A0Fasse%C4%A0zusammen:%C4%A0Ich%C4%A0 pack
s %C4%A0du%C4%A0temps.</s>
Dau er.%C4%A0Dann%C4%A0
?%C4%A0Assistant:%C4%A0Du %C4%A0de
%C4%A0beau co
nicht%C4%A0 ver
Quell en.%C4%A0
ein .%C4%A0Dann%C4%A0best%C3%83%C2%A4tig
N ur%C4%A0
User:%C4%A0Wie%C4%A0schreibe%C4%A0ich%C4%A0 Sch
User:%C4%A0%C3%83%C4%BEbersetze%C4%A0ins%C4%A0Englische:%C4%A0Ich%C4%A0 mag%C4%A0Musik
User:%C4%A0Was%C4%A0ist%C4%A0ein%C4%A0 Budge
Ursach e.%C4%A0Dann%C4%A0
en%C4%A0 Dank
Groessen%C4%A0konstant %C4%A0
t%C4%A0 Blu
19 3
ist%C4%A0der%C4%A0Bahnhof .%C4%A0Assistant:%C4%A0Where%C4%A0is%C4%A0the%C4%A0
tr iff
Wirk ung%C4%A0
User:%C4%A0%C3%83%C4%BEbersetze%C4%A0ins%C4%A0Franz%C3%83%C2%B6sische:%C4%A0Ich%C4%A0bin%C4%A0bereit .%C4%A0Assistant:%C4%A0Je%C4%A0suis%C4%A0
,%C4%A0wenn%C4%A0 es%C4%A0
Bei trag%C4%A0
16 .</s>
eld herr
ungen?%C4%A0Assistant:%C4%A0Du%C4%A0 nutzt%C4%A0
User:%C4%A0%C3%83%C4%BEbersetze%C4%A0ins%C4%A0Englische:%C4%A0Wir%C4%A0 kochen%C4%A0heu
st%C4%A0Antwor ten.%C4%A0Dann%C4%A0
t folge
f%C3%83%C2%BChr er%C4%A0aus%C4%A0In
sp ekt
?%C4%A0Assistant:%C4%A0Du%C4%A0 markierst%C4%A0
Zahl en
Erd e%C4%A0dreh
P ort
ob en.</s>
s icht%C4%A0
aim e%C4%A0la%C4%A0
frag en%C4%A0
Wet t
.%C4%A0Assistant:%C4%A0 Leerer%C4%A0Akk
ings%C4%A0 in%C4%A0JS.%C4%A0Assistant:%C4%A0let%C4%A0
User:%C4%A0Gil t%C4%A0
grupp e.%C4%A0
ma il.</s>
t ing%C4%A0
e%C4%A0ich%C4%A0m ir%C4%A0
Diktatur ?%C4%A0Assistant:%C4%A0Eine%C4%A0Person%C4%A0
.%C4%A0 K
ein%C4%A0 Ziel
Men ge.</s>
%C4%A0+%C4%A01 1
h .</s>
klick st%C4%A0du%C4%A0auf%C4%A0
User:%C4%A0Warum%C4%A0 sind%C4%A0
Vir en%C4%A0
c ap
Heute%C4%A0ist%C4%A0Montag.%C4%A0Assistant:%C4%A0Aujourd%C4%A0hui %C4%A0c
Handl ung.%C4%A0
Begriff e.%C4%A0Dann%C4%A0
speich ern%C4%A0
such e%C4%A0
%C4%A0Ausflug .</s>
Schall%C4%A0 breitet%C4%A0
Ein gab
putz t,%C4%A0
Ger %C3%83%C2%BCch
ihr e%C4%A0
el ek
ch%C4%A0bei%C4%A0 Oma
Gegenwar ts
.%C4%A0Dann%C4%A0pr%C3%83%C2%BCfst%C4%A0du%C4%A0 sie%C4%A0
User:%C4%A0%C3%83%C4%BEbersetze%C4%A0ins%C4%A0Franz%C3%83%C2%B6sische:%C4%A0Ich%C4%A0bin%C4%A0bereit.%C4%A0Assistant:%C4%A0Je%C4%A0suis%C4%A0 pr
sa m%C4%A0
les en.</s>
e?%C4%A0Assistant:%C4%A0Du%C4%A0 sammelst%C4%A0
Pr%C3%83%C2%A4dik at,%C4%A0
en%C4%A0 klar
wir ft%C4%A0
User:%C4%A0Was%C4%A0ist%C4%A0die%C4%A0 Renaissanc
schwer.%C4%A0Assistant:%C4%A0 Mat
%C3%83%C4%A6nder ungen%C4%A0
sa t
ge trennt%C4%A0
?%C4%A0Assistant:%C4%A0 Rechne%C4%A0
Vor schlag
Kategori en.%C4%A0Dann%C4%A0
Road map
Lehr e%C4%A0von%C4%A0
.%C4%A0Addiere%C4%A0 Schritt%C4%A0f%C3%83%C2%BCr%C4%A0Schritt.</s>
Thema .%C4%A0Dann%C4%A0
le >.</s>
st%C4%A0du%C4%A0Ab l%C3%83%C2%A4ufe?%C4%A0Assistant:%C4%A0Du%C4%A0
ho ch%C4%A0
bei %C4%A0Ab
der alismus?%C4%A0Assistant:%C4%A0
User:%C4%A0Wie%C4%A0 suchst%C4%A0du%C4%A0
ch mal%C4%A0
t%C4%A0Fahrra d
%C4%A0 es%C4%A0
en%C4%A0f%C3%83%C2%BCr%C4%A0ein%C4%A0 Fahrra
speich er
mag%C4%A0 Les
M issbrauch
10 %C4%A0Assistant:%C4%A0
Pa yoff
ali sier
%C4%A0 in%C4%A0JS.%C4%A0Assistant:%C4%A0
en%C4%A0 wird%C4%A0
t%C4%A0 eine%C4%A0
%C3%83%C2%A4h ne
%C3%83%C2%A4nder t%C4%A0sich
arfst%C4%A0du%C4%A0 tausch
erkl%C3%83%C2%A4r st%C4%A0es%C4%A0
'%C4%A0 />.</s>
e kt%C4%A0
ar en%C4%A0f%C3%83%C2%BCr%C4%A0ein%C4%A0Fahrra
euf ig
v it
ung .%C4%A0Dann%C4%A0pr%C3%83%C2%BCfst%C4%A0du%C4%A0
.%C4%A0Assistant:%C4%A0L ang
Ressourc en?%C4%A0Assistant:%C4%A0Du%C4%A0
?%C4%A0Assistant:%C4%A0 F
ald .%C4%A0Ich%C4%A0wiederhole%C4%A0
User:%C4%A0Wie%C4%A0train ierst%C4%A0du%C4%A0
User:%C4%A0Wie%C4%A0 z%C3%83%C2%A4hl
mag%C4%A0Les en
ale%C4%A0 Element%C4%A0
Reak tion%C4%A0mit%C4%A0
ap her
Jahr .</s>
Sei f
User:%C4%A0Wie%C4%A0merk st%C4%A0du%C4%A0d
er .%C4%A0D
.%C4%A0Das%C4%A0 Budge
nachvollzieh bare%C4%A0
.%C4%A0Assistant:%C4%A0Je%C4%A0vi ens
e%C4%A0Notiz en.%C4%A0Sie%C4%A0
Ressourc en.</s>
%C3%83%C2%B6r t%C4%A0
( function(){%C4%A0console.log('
freund lich
en%C4%A0 bei%C4%A0
t.%C4%A0Assistant:%C4%A0 Katze%C4%A0
User:%C4%A0Fasse%C4%A0zusammen:%C4%A0Die%C4%A0 Katze%C4%A0
Ver sch
oder%C4%A0 falsch
Englis h.</s>
zeigt%C4%A0 nach%C4%A0Nord
.%C4%A0Assistant:%C4%A0I%C4%A0am%C4%A0fro m%C4%A0
L%C3%83%C2%BCck en%C4%A0
User:%C4%A0%C3%83%C4%BEbersetze%C4%A0ins%C4%A0Englische:%C4%A0 Er%C4%A0liest%C4%A0
zeptanzk riteri
20 ?%C4%A0Assistant:%C4%A0Ja.%C4%A01
w%C3%83%C2%A4hl st%C4%A0du%C4%A0die%C4%A0
User:%C4%A0Warum%C4%A0brauch en%C4%A0wir%C4%A0
n%C3%83%C2%A4chsten%C4%A0 Schritt.</s>
Par d
T a
nam e
en.%C4%A0Dann%C4%A0 wiederholst%C4%A0du%C4%A0
alit %C3%83%C2%A4t?%C4%A0Assistant:%C4%A0
lles%C4%A0 gut
in%C4%A0 Wolk
tes%C4%A0o %C3%83%C2%B9
ier .</s>
User:%C4%A0Was%C4%A0ist%C4%A0 G
Dokum ent
ing st%C4%A0du%C4%A0
Sch ad
M or
en%C4%A0 es.</s>
Sch ema
.%C4%A0Viele%C4%A0 Menschen%C4%A0
ernen%C4%A0vor%C4%A0dem%C4%A0 Test.</s>
.%C4%A0Arbeitet%C4%A0f%C3%83%C2%BCr%C4%A0 Frieden.</s>
User:%C4%A0Fasse%C4%A0zusammen:%C4%A0Wir%C4%A0pflanzen%C4%A0Blum en.%C4%A0D
.%C4%A0Alle%C4%A0 versteh
User:%C4%A0%C3%83%C4%BEbersetze%C4%A0ins%C4%A0Franz%C3%83%C2%B6sische:%C4%A0Ich%C4%A0habe%C4%A0Hunger .%C4%A0Assistant:%C4%A0J%C4%A0ai%C4%A0
Thema%C4%A0 w%C3%83%C2%A4hlen.%C4%A0
?%C4%A0Assistant:%C4%A0 Bakteri
erwarte tes%C4%A0
B asi
Konflikt en%C4%A0vor?%C4%A0Assistant:%C4%A0Du%C4%A0
The se
besser .%C4%A0Assistant:%C4%A0M
en?%C4%A0Assistant:%C4%A0Du%C4%A0schreibst%C4%A0 sie%C4%A0
is%C4%A0de%C4%A0 l%C4%A0
A lles%C4%A0gut
User:%C4%A0Wie%C4%A0lie st%C4%A0du%C4%A0eine%C4%A0
benoetig en%C4%A0
co ok
Staatenbund .%C4%A0Arbeitet%C4%A0f%C3%83%C2%BCr%C4%A0Frieden.</s>
k ra
Berei ch%C4%A0mit%C4%A0
%C4%A0+%C4%A0 6,%C4%A0Ergebnis?%C4%A0Assistant:%C4%A0
ist%C4%A0eine%C4%A0 gute%C4%A0Idee
back e%C4%A0Bro
ni tive%C4%A0
z it
Or iginal
su mm
hab i
le uch
ein z
%C2%BBte%C4%A0com bien.</s>
kl einer%C4%A0
.%C4%A0Es%C4%A0 be
nach%C4%A0 Schwierigkeit.</s>
Rech t%C4%A0zu%C4%A0
Seite%C4%A0l%C3%83%C2%A4d t%C4%A0nicht
?%C4%A0Assistant:%C4%A0 T
t ni
lem .</s>
User:%C4%A0Wie%C4%A0%C3%83%C2%BCber pr%C3%83%C2%BCfst%C4%A0du%C4%A0
t .%C4%A0Das%C4%A0
ema il.</s>
Sonnen lich
K reis
t%C4%A0die%C4%A0Reg ierung.</s>
c a
User:%C4%A0Wie%C4%A0organisierst%C4%A0du%C4%A0 Lern
re .%C4%A0
N ap
Es%C4%A0tut%C4%A0mir%C4%A0leid .%C4%A0Assistant:%C4%A0Je%C4%A0suis
ok u.%C4%A0Dann%C4%A0
User:%C4%A0Wie%C4%A0planst%C4%A0du%C4%A0 Erfolg
User:%C4%A0%C3%83%C4%BEbersetze%C4%A0ins%C4%A0Franz%C3%83%C2%B6sische:%C4%A0 Viel%C4%A0Spa%C3%83%C5%81
Perspektiv e%C4%A0
User:%C4%A0Fasse%C4%A0zusammen:%C4%A0Die%C4%A0Katze%C4%A0 schl%C3%83%C2%A4ft.%C4%A0Der%C4%A0
ein%C4%A0 Frage
.%C4%A0Assistant:%C4%A0W %C3%83%C2%A4rmender%C4%A0Tee.</s>
ich%C4%A0 helfen?</s>
w%C3%83%C2%B6rter ?%C4%A0Assistant:%C4%A0
Mind map
User:%C4%A0Wer%C4%A0war%C4%A0G and
el si
User:%C4%A0Was%C4%A0ist%C4%A0eine%C4%A0Demokratie ?%C4%A0Assistant:%C4%A0Das%C4%A0Vol
ar rive%C4%A0
.%C4%A0Neu n%C4%A0
Ver bin
User:%C4%A0%C3%83%C4%BEbersetze%C4%A0ins%C4%A0Franz%C3%83%C2%B6sische:%C4%A0Wir%C4%A0 kochen%C4%A0heu
e?%C4%A0Assistant:%C4%A0Du%C4%A0 schreibst%C4%A0
Ver gangen
.%C4%A0F%C3%83%C2%BCnf er%C4%A0in%C4%A0
mputer%C4%A0s cience.</s>
%C4%A0An f%C3%83%C2%BChrer%C4%A0aus%C4%A0In
stark .%C4%A0Wir%C4%A0
.%C4%A0D at
Ar ra
sik.%C4%A0Wir%C4%A0lesen%C4%A0da zu
%C3%83%C2%A4 ter%C4%A0
bie test%C4%A0du%C4%A0
Bild haf
%C4%A0Ak tiv
zu%C4%A0 Fu%C3%83%C5%81
Tool %C4%A0
euer bare%C4%A0
ann%C4%A0 ich%C4%A0
Verb en?%C4%A0Assistant:%C4%A0
on%C4%A0 und%C4%A0
?%C4%A0Assistant:%C4%A0In %C4%A0Afrika
entsch ei
Obst .%C4%A0Die%C4%A0
%C4%A0-%C4%A05 %C4%A0=%C4%A0
%C4%A0d%C3%83%C2%A9 sol
F%C3%83%C2%BCn f
ro t
Erd be
elek trischen%C4%A0
hat%C4%A0 wenig%C4%A0
twort%C4%A0 kommt%C4%A0
leit ung?%C4%A0Assistant:%C4%A0Du%C4%A0
ig ht.</s>
Re trie
K ant
kurze%C4%A0 Fragen.</s>
notier st%C4%A0du%C4%A0
geteil t.%C4%A0Bund%C4%A0
kon krete%C4%A0
Wiss ens
O h
Lin k%C4%A0
ar tig
t.%C4%A0Dann%C4%A0 testest%C4%A0du%C4%A0
zeigt%C4%A0 Tr
ge wasch
sp%C3%83%C2%A4ter.%C4%A0Assistant:%C4%A0 E%C4%A0Mail
kursi v
.%C4%A0Assistant:%C4%A0Je%C4%A0 vo
k t.</s>
en.%C4%A0K %C3%83%C2%BCrz
3 /
fr%C3%83%C2%BCh .</s>
Therm om
User:%C4%A0%C3%83%C4%BEbersetze%C4%A0ins%C4%A0Franz%C3%83%C2%B6sische:%C4%A0Ich%C4%A0habe%C4%A0Hunger.%C4%A0Assistant:%C4%A0J%C4%A0ai%C4%A0 faim.</s>
st y
n ein.</s>
ir %C4%A0das%C4%A0
entsteht%C4%A0 bei%C4%A0
te ck
Element By
.%C4%A0Zehner%C4%A0teil en.</s>
User:%C4%A0Wie%C4%A0funktionier t
Fil m
%C4%A0die%C4%A0Mondschei be%C4%A0
Ne bel
eid en.</s>
f%C3%83%C2%BC g
e%C4%A0Aufgab en?%C4%A0Assistant:%C4%A0Du%C4%A0
.%C4%A0Assistant:%C4%A0That%C4%A0is%C4%A0 easy.</s>
Pf eil
St %C3%83%C2%BCtz
User:%C4%A0Fasse%C4%A0zusammen:%C4%A0D er%C4%A0Akku%C4%A0
niss e?%C4%A0Assistant:%C4%A0
User:%C4%A0Wer%C4%A0war%C4%A0Ju li
0 </s>
gut .%C4%A0Assistant:%C4%A0O
User:%C4%A0%C3%83%C4%BEbersetze%C4%A0ins%C4%A0Englische:%C4%A0 %C3%83%C4%B8ffne%C4%A0das%C4%A0Fenster.%C4%A0Assistant:%C4%A0O
Nom en?%C4%A0Assistant:%C4%A0
%C4%A0+%C4%A0 0
t.%C4%A0Assistant:%C4%A0Katze%C4%A0 ruh
User:%C4%A0%C3%83%C4%BEbersetze%C4%A0ins%C4%A0Englische:%C4%A0 Viel%C4%A0Spa%C3%83%C5%81
Excuse%C4%A0 me.</s>
Gute%C4%A0Nacht.%C4%A0Assistant:%C4%A0Good%C4%A0n ight.</s>
e%C4%A0Gitar re.%C4%A0
User:%C4%A0Wie%C4%A0strukturierst%C4%A0du%C4%A0 einen%C4%A0
enst off
st ation.</s>
t.%C4%A0Assistant:%C4%A0Katze%C4%A0ruh t,%C4%A0
Kl einer%C4%A0
Chlorophy ll%C4%A0
Zeit en.</s>
ere%C4%A0 Zahl%C4%A0kommt%C4%A0nach%C4%A0vorn.</s>
%C3%83%C2%A4 olog
User:%C4%A0Was%C4%A0ist%C4%A0ein%C4%A0 Stadtst
ank reich
knapp .</s>
ver arbeitet%C4%A0
teil en
.%C4%A0M erk
%C3%83%C2%BCnkt lich
User:%C4%A0Wer%C4%A0war%C4%A0 Nap
lich%C4%A0bleib en.</s>
kal t.%C4%A0Ich%C4%A0
klar %C4%A0und%C4%A0
si tz
fer tig
Zusammenfass ung?%C4%A0Assistant:%C4%A0
arr en
0%C4%A0 um%C4%A0
p en%C4%A0the%C4%A0window.</s>
User:%C4%A0Was%C4%A0ist%C4%A0ein%C4%A0Budge t
Sti l%C4%A0
User:%C4%A0Was%C4%A0ist%C4%A0ein%C4%A0 I
T iere.</s>
In n
un n%C3%83%C2%B6
u ,%C4%A0
Heute%C4%A0ist%C4%A0Montag.%C4%A0Assistant:%C4%A0Aujourd%C4%A0hui%C4%A0c %C4%A0est%C4%A0l
fluss ?%C4%A0Assistant:%C4%A0Du%C4%A0
W art
les%C4%A0 Bild%C4%A0
Der%C4%A0 Bus%C4%A0kommt%C4%A0
R%C3%83%C2%A4um e.%C4%A0
Entschuldigung.%C4%A0Assistant:%C4%A0 Excuse%C4%A0me.</s>
R%C3%83%C2%BCck meld
User:%C4%A0Wie%C4%A0schreibe%C4%A0ich%C4%A0Sch aup
Br%C3%83%C2%B6 t
en%C4%A0 sie.</s>
der%C4%A0 Erde.%C4%A0
User:%C4%A0%C3%83%C4%BEbersetze%C4%A0ins%C4%A0Franz%C3%83%C2%B6sische:%C4%A0Wo%C4%A0ist%C4%A0die%C4%A0 Schule
ide e.</s>
%C4%A0d arfst%C4%A0du%C4%A0tausch
.%C4%A0S ti
sche h
e?%C4%A0Assistant:%C4%A0Du%C4%A0 ordne
Y o
Problem .</s>
Gleich gew
en?%C4%A0Assistant:%C4%A0 Gleich
3 .%C4%A0F%C3%83%C2%BCnf
1%C4%A0 /%C4%A0
en.%C4%A0Dann%C4%A0 vergleichst%C4%A0du%C4%A0
User:%C4%A0%C3%83%C4%BEbersetze%C4%A0ins%C4%A0Englische:%C4%A0Wir%C4%A0kochen%C4%A0heu te
Energie%C4%A0 kann%C4%A0in%C4%A0
Kurz e%C4%A0
User:%C4%A0%C3%83%C4%BEbersetze%C4%A0ins%C4%A0Franz%C3%83%C2%B6sische:%C4%A0Ich%C4%A0bin%C4%A0bereit.%C4%A0Assistant:%C4%A0Je%C4%A0suis%C4%A0pr %C3%83%C2%AA
ol on
ing er.</s>
en.%C4%A0Dann%C4%A0 passt%C4%A0du%C4%A0
St%C3%83%C2%A4d te%C4%A0wach
dig t.</s>
e s?%C4%A0Assistant:%C4%A0
%C4%A0+%C4%A01 4
De ad
op %C3%83%C2%A4
sche .%C4%A0Danach%C4%A0fal
el les%C4%A0Bild%C4%A0
inter essant
Spe zifik
User:%C4%A0%C3%83%C4%BEbersetze%C4%A0ins%C4%A0Englische:%C4%A0Kein%C4%A0Problem .%C4%A0Assistant:%C4%A0N
sprech en.</s>
e ur
wird%C4%A0 ge
B o
kon sequ
an.%C4%A0Assistant:%C4%A0O nlin
Use%C4%A0C ase%C4%A0
Bit te%C4%A0sehr.%C4%A0Assistant:%C4%A0
gen utz
B re
D e%C4%A0ri
Verd opp
korre kt%C4%A0
.%C4%A0Sie%C4%A0sch%C3%83%C2%BCtz en%C4%A0Menschen.</s>
musi que.</s>
Par is
t.%C4%A0 Rechte%C4%A0
.%C4%A0Dein%C4%A0 K%C3%83%C2%B6rper%C4%A0
st%C4%A0d oppel
ie?%C4%A0Assistant:%C4%A0Die%C4%A0 Lehre%C4%A0von%C4%A0
User:%C4%A0Wie%C4%A0 klingen%C4%A0S%C3%83%C2%A4tze%C4%A0
iederkehr ende%C4%A0
zeig en%C4%A0
Blick .</s>
User:%C4%A0%C3%83%C4%BEbersetze%C4%A0ins%C4%A0Franz%C3%83%C2%B6sische:%C4%A0Wir%C4%A0 spielen%C4%A0Fu%C3%83%C5%81ball.%C4%A0Assistant:%C4%A0Nous%C4%A0
O ff
ver sp%C3%83%C2%A4te
User:%C4%A0Wer%C4%A0war%C4%A0Gand hi
User:%C4%A0Fasse%C4%A0zusammen:%C4%A0Ich%C4%A0 sp
er%C4%A0 geht.</s>
alita ets
D ruck
User:%C4%A0Was%C4%A0ist%C4%A0das%C4%A0neutr ale%C4%A0Element%C4%A0
u%C4%A0 p
st%C4%A0du %C4%A0Ausnahm
Fl%C3%83%C2%A4 che%C4%A0
User:%C4%A0%C3%83%C4%BEbersetze%C4%A0ins%C4%A0Englische:%C4%A0Ich%C4%A0 schreibe%C4%A0eine%C4%A0E%C4%A0Mail
User:%C4%A0Was%C4%A0ist%C4%A0 K
St uf
Star tzu
habi tes%C4%A0o%C3%83%C2%B9
e er-
ro b
a ti
Rucksack.%C4%A0Morgen%C4%A0 ist%C4%A0Ausflug
K urs?%C4%A0Assistant:%C4%A0Du%C4%A0
Bis%C4%A0 morgen.%C4%A0Assistant:%C4%A0
?%C4%A0Assistant:%C4%A0Ein%C4%A0 fr
iden ti
sta at%C4%A0in%C4%A0
er folgt%C4%A0
M illi
%C4%A0plus%C4%A0 tard.</s>
le se%C4%A0ein%C4%A0Buch
w%C3%83%C2%B6rt liche%C4%A0
Time out
User:%C4%A0Wie%C4%A0 back
en?%C4%A0Assistant:%C4%A0W enige%C4%A0W
stud i
g %C3%83%C2%BCnst
arl%C4%A0der%C4%A0Gro%C3%83%C5%81e?%C4%A0Assistant:%C4%A0Ein%C4%A0fr %C3%83%C2%A4nk
User:%C4%A0Fasse%C4%A0zusammen:%C4%A0Ich%C4%A0 lese%C4%A0ein%C4%A0Buch
Spr%C3%83%C2%BCn ge.</s>
o%C4%A0 Welt
wer k%C4%A0
geteilt.%C4%A0Bund%C4%A0 und%C4%A0
en%C4%A0 Preis
at e%C4%A0
Komp ati
e%C4%A0M erkmal
oge ?%C4%A0Assistant:%C4%A0
im%C4%A0 Satz
%C3%83%C2%A4 sche%C4%A0
bo ok.</s>
m od
.%C4%A0Assistant:%C4%A0 Stark
bleibt%C4%A0 an.%C4%A0Assistant:%C4%A0Onlin
ageg en.</s>
>< li
ander e%C4%A0
steh en.</s>
Stad t.</s>
Frist en%C4%A0
?%C4%A0Assistant:%C4%A0Eine%C4%A0 ge
User:%C4%A0Wie%C4%A0struktur ier
User:%C4%A0Was%C4%A0ist%C4%A0eine%C4%A0Monarchie?%C4%A0Assistant:%C4%A0Eine%C4%A0 Person%C4%A0
Bund%C4%A0 von%C4%A0
%C4%A0Assistant:%C4%A01 20</s>
zwei%C4%A0 We
mache%C4%A0Hausaufgab en
Subjekt%C4%A0 hand
Rest%C4%A0 weglassen.</s>
und i.</s>
- Up
loest%C4%A0 sich%C4%A0in%C4%A0
sicher?%C4%A0Assistant:%C4%A0Du%C4%A0 pr%C3%83%C2%BCfst%C4%A0
Kon sistenz
Kurz %C4%A0und%C4%A0
se -
%C4%A0%C3%83%C4%B9%C4%A07 ,%C4%A0wie%C4%A0viel?%C4%A0Assistant:%C4%A02
.%C4%A0Assistant:%C4%A0I%C4%A0am%C4%A0 look
mat erial
F ach
.%C4%A0 Passend%C4%A0
%C4%A0+%C4%A02 %C4%A0=%C4%A08.</s>
st%C4%A0du%C4%A0den%C4%A0 Tag
Reg en?%C4%A0Assistant:%C4%A0
st ich
S and
?%C4%A0Assistant:%C4%A0Du%C4%A0klick st%C4%A0auf%C4%A0
lief erst%C4%A0du%C4%A0
zen e?%C4%A0Assistant:%C4%A0
h 1
Fr ist%C4%A0
T it
User:%C4%A0Was%C4%A0ist%C4%A0ein%C4%A0 Vulkan
einer%C4%A0 Zahl
lltag %C4%A0
kommun iz
.%C4%A0Assistant:%C4%A0Ha ve%C4%A0fun.</s>
.%C4%A0Er%C4%A0 flie%C3%83%C5%81t%C4%A0
ElementBy I
3 %C4%A0%C3%83%C4%B9%C4%A03,%C4%A0Ergebnis?%C4%A0Assistant:%C4%A0
e%C4%A0A n
um%C4%A0Beispiel %C4%A0
gab en?%C4%A0Assistant:%C4%A0
k%C4%A0 w%C3%83%C2%A4hl
vor n
Konflik te.</s>
K arten%C4%A0
en%C4%A0und%C4%A0 ge
u,%C4%A0 Handy%C4%A0
st%C4%A0du%C4%A0 es%C4%A0
F %C3%83%C2%A4h
Re st
T iere%C4%A0
eit .%C4%A0Dann%C4%A0
bleiben%C4%A0 zu%C4%A0Hau
Bibliothek.%C4%A0Assistant:%C4%A0Where%C4%A0is%C4%A0the%C4%A0 library.</s>
B %C3%83%C2%BCr
User:%C4%A0Fasse%C4%A0zusammen:%C4%A0Der%C4%A0Laptop %C4%A0ist%C4%A0al
Block .</s>
%C3%83%C2%B6rter%C4%A0 samm
beeinfluss en.</s>
Regeln%C4%A0 sch%C3%83%C2%BCtzen%C4%A0
no tiz
Fehl ern.</s>
und%C4%A0Aus wert
ech er%C4%A0
bark eit%C4%A0
0.7 5</s>
User:%C4%A0Wie%C4%A0lernst%C4%A0du%C4%A0 aus%C4%A0
end lich
?%C4%A0Assistant:%C4%A0Eine%C4%A0 Regel%C4%A0
Itali en.</s>
?%C4%A0Assistant:%C4%A0Du%C4%A0de ckst%C4%A0
User:%C4%A0Wie%C4%A0fin d
ob j
Spr echer%C4%A0
27 .</s>
e%C4%A0 =
Entschuldigung%C4%A0 bitte.%C4%A0Assistant:%C4%A0
User:%C4%A0Wie%C4%A0 l%C3%83%C2%A4d
%C3%83%C2%A4n ge.</s>
00 );</s>
lang en%C4%A0
Schrit tfolge
ein e.</s>
User:%C4%A0%C3%83%C4%BEbersetze%C4%A0ins%C4%A0Franz%C3%83%C2%B6sische:%C4%A0Bis%C4%A0sp%C3%83%C2%A4ter.%C4%A0Assistant:%C4%A0 %C3%83
User:%C4%A0%C3%83%C4%BEbersetze%C4%A0ins%C4%A0Englische:%C4%A0Ich%C4%A0bin%C4%A0 bereit.%C4%A0Assistant:%C4%A0I%C4%A0am%C4%A0
Obje kt%C4%A0
Ide mp
User:%C4%A0Wie%C4%A0schreibe%C4%A0ich%C4%A0eine%C4%A0Szen e%C4%A0
buch st%C4%A0du%C4%A0
B .</s>
L%C3%83%C2%B6s ungen.</s>
unter scheid
JS%C4%A0hin zu.%C4%A0Assistant:%C4%A0
Nous%C4%A0 cui
bar %C4%A0und%C4%A0
Volum en.</s>
vo us%C4%A0
kom bin
%C4%A0ein .%C4%A0Assistant:%C4%A0Nutze%C4%A0<
User:%C4%A0%C3%83%C4%BEbersetze%C4%A0ins%C4%A0Englische:%C4%A0Ich%C4%A0trinke%C4%A0Wasser .%C4%A0Assistant:%C4%A0I%C4%A0drink%C4%A0
Ver lag
ver wal
User:%C4%A0Wer%C4%A0war %C4%A0M
Sp %C3%83%C2%A4ter%C4%A0
tr alit%C3%83%C2%A4t?%C4%A0Assistant:%C4%A0
kurz er%C4%A0
/%C4%A0 (
vous%C4%A0 pla%C3%83%C2%AEt.</s>
G ol
t%C4%A0gibt%C4%A0es%C4%A0 Obst.%C4%A0Die%C4%A0
g%C3%83%C2%BCnst ig
er?%C4%A0Assistant:%C4%A0Du%C4%A0 nutzt%C4%A0
ation%C4%A0 beschreibt%C4%A0
en%C4%A0 ordn
l%C3%83%C2%B6 sen.</s>
User:%C4%A0%C3%83%C4%BEbersetze%C4%A0ins%C4%A0Englische:%C4%A0 Entschuldigung.%C4%A0Assistant:%C4%A0Excuse%C4%A0me.</s>
ert%C4%A0 Wert.</s>
User:%C4%A0Was%C4%A0ist%C4%A0das%C4%A0neutrale%C4%A0Element%C4%A0 bei%C4%A0
N %C3%83%C2%A4ch
User:%C4%A0Fasse%C4%A0zusammen:%C4%A0Ich%C4%A0 schreib
User:%C4%A0Median%C4%A0 von%C4%A0
Aufgabe .</s>
Wett bewer
Arra y
klar %C4%A0
User:%C4%A0%C3%83%C4%BEbersetze%C4%A0ins%C4%A0Englische:%C4%A0Kein%C4%A0Problem.%C4%A0Assistant:%C4%A0N o%C4%A0prob
End zustand
Punk t%C4%A0
er h%C3%83%C2%B6h
ssch leif
lam ent?%C4%A0Assistant:%C4%A0Gew%C3%83%C2%A4hlte%C4%A0
bedeutet%C4%A0dass %C4%A0die%C4%A0Mondscheibe%C4%A0
en -
li tisch.</s>
neun .</s>
ent%C4%A0wird%C4%A0 mit%C4%A0
ir ekt
jour d'
Z uf
such e%C4%A0die%C4%A0
schein t.%C4%A0Wir%C4%A0gehen%C4%A0
st er
.%C4%A0Die%C4%A0 Seite%C4%A0l%C3%83%C2%A4dt%C4%A0nicht
l%C3%83%C2%A4s st%C4%A0du%C4%A0
ad ra
w%C3%83%C2%B6rtliche%C4%A0 Rede%C4%A0
are%C4%A0 Geld
ar en%C4%A0
aime%C4%A0la%C4%A0 musique.</s>
User:%C4%A0Was%C4%A0ist%C4%A0ein%C4%A0Algorithmus?%C4%A0Assistant:%C4%A0Eine%C4%A0 klare%C4%A0
,%C4%A0 Pr%C3%83%C2%A4dikat,%C4%A0
f %C3%83%C2%B6r
Person ?%C4%A0Assistant:%C4%A0
Entschuldigung.%C4%A0Assistant:%C4%A0 Pard
st %C4%A0A
verbin dest%C4%A0du%C4%A0
unterweg s
User:%C4%A0Wie%C4%A0 sch%C3%83%C2%A4tz
j unktion
Sport .%C4%A0Danach%C4%A0
it ch%C4%A0
ja%C4%A0 oder%C4%A0
s ingt%C4%A0gut
ja%C4%A0oder%C4%A0 nein.</s>
lade%C4%A0das%C4%A0Hand y
in %C4%A0Ab
i sches%C4%A0Bro
Kon to
po litisch.</s>
.%C4%A0Assistant:%C4%A0 Ber
sind%C4%A0 gut.%C4%A0Assistant:%C4%A0O
%C3%83%C2%A4 sche.%C4%A0Danach%C4%A0fal
Ge s
will%C4%A0 raus
su ch%C4%A0bei%C4%A0Oma
ergebni ss
w och
.%C4%A0Assistant:%C4%A0J%C4%A0ai%C4%A0besoin%C4%A0d %C4%A0
User:%C4%A0Was%C4%A0ist%C4%A0eine%C4%A0Demokratie?%C4%A0Assistant:%C4%A0Das%C4%A0Vol k%C4%A0w%C3%83%C2%A4hl
User:%C4%A0Was%C4%A0ist%C4%A0ein%C4%A0Stadtst a
Beispiel .</s>
Kopfh%C3%83%C2%B6r ern%C4%A0gel%C3%83%C2%B6st.</s>
wel com
de m.</s>
ann%C4%A0ich%C4%A0 geh
?%C4%A0Assistant:%C4%A0M asse%C4%A0
besu ch%C4%A0mit%C4%A0
t.%C4%A0Ich%C4%A0setze%C4%A0Kopfh%C3%83%C2%B6r er%C4%A0auf.%C4%A0Assistant:%C4%A0L
lie f%C4%A0
User:%C4%A0Wie%C4%A0planst%C4%A0du%C4%A0Ab schluss
.%C4%A0Ich%C4%A0 lade%C4%A0das%C4%A0Handy
en.%C4%A0Assistant:%C4%A0 P
u blik
u ben%C4%A0
socc er.</s>
regeln%C4%A0 ein
Ent deck
User:%C4%A0%C3%83%C4%BEbersetze%C4%A0ins%C4%A0Englische:%C4%A0Wir%C4%A0spielen%C4%A0Fu%C3%83%C5%81ball.%C4%A0Assistant:%C4%A0We%C4%A0play%C4%A0 soccer.</s>
.%C4%A0Du%C4%A0f%C3%83%C2%BChl st%C4%A0dich%C4%A0
Pflanzen%C4%A0 nehmen%C4%A0
un st
Vergangen heit
aktuali sierst%C4%A0du%C4%A0
Fahrrad%C4%A0 quietsch
Mittel al
in%C4%A0 JS%C4%A0
User:%C4%A0%C3%83%C4%BEbersetze%C4%A0ins%C4%A0Englische:%C4%A0Bis%C4%A0sp%C3%83%C2%A4ter.%C4%A0Assistant:%C4%A0 See%C4%A0you%C4%A0
e%C4%A0A ssistant:%C4%A0
f eld
spar t%C4%A0
User:%C4%A02 /
ar m
in forma
User:%C4%A0%C3%83%C4%BEbersetze%C4%A0ins%C4%A0Englische:%C4%A0 Es%C4%A0tut%C4%A0mir%C4%A0leid.%C4%A0Assistant:%C4%A0I%C4%A0am%C4%A0sorry.</s>
User:%C4%A0Was%C4%A0ist%C4%A0ein%C4%A0Algorithmus?%C4%A0Assistant:%C4%A0Eine%C4%A0klare%C4%A0 Schrittfolge
User:%C4%A0Fasse%C4%A0zusammen:%C4%A0Die%C4%A0Sonne%C4%A0 scheint.%C4%A0Wir%C4%A0gehen%C4%A0
%C4%A2 %C4%A0plus%C4%A0tard.</s>
en te.%C4%A0
t wa%C4%A0
teste st%C4%A0du%C4%A0dich%C4%A0selbst.</s>
Prei se%C4%A0
.%C4%A0Drei er%C4%A0in%C4%A0
Sie%C4%A0f%C3%83%C2%A4hrt%C4%A0mit%C4%A0dem%C4%A0 Bus
an ge
fre sser%C4%A0
e -
User:%C4%A0%C3%83%C4%BEbersetze%C4%A0ins%C4%A0Englische:%C4%A0Ich%C4%A0trinke%C4%A0Wasser.%C4%A0Assistant:%C4%A0I%C4%A0drink%C4%A0 water.</s>
ti que.</s>
arl%C4%A0der%C4%A0Gro%C3%83%C5%81e?%C4%A0Assistant:%C4%A0Ein%C4%A0fr%C3%83%C2%A4nk ischer%C4%A0
eine%C4%A0 Sei
Sch al
User:%C4%A0Wie%C4%A0schreibe%C4%A0ich%C4%A0 gute%C4%A0
Zit at
Rep ublik
te?%C4%A0Assistant:%C4%A0 Rechte%C4%A0f%C3%83%C2%BCr%C4%A0
Werk zeuge%C4%A0
sieh st%C4%A0
A l
Schnit tstelle%C4%A0
.%C4%A0Sti mm
User:%C4%A02 2%C4%A0+%C4%A0
verteil st%C4%A0du%C4%A0Aufgaben.</s>
x te?%C4%A0Assistant:%C4%A0
kontrolli er
ohne%C4%A0Klische e?%C4%A0Assistant:%C4%A0
Br%C3%83%C2%B6t ch
t%C4%A0das%C4%A0 Internet
.%C4%A0Dann%C4%A0 stell
De pre
al le
Rucksack %C4%A0
Be darf
Himalaya ?%C4%A0Assistant:%C4%A0Ein%C4%A0Gebir
%C4%A0d a%C4%A0
t ung.</s>
ad el%C4%A0
en.%C4%A0Assistant:%C4%A0T%C3%83%C2%A4g liches%C4%A0Git
User:%C4%A0Was%C4%A0ist%C4%A0ein%C4%A0Staatsoberhaupt?%C4%A0Assistant:%C4%A0H%C3%83%C2%B6chste%C4%A0Person%C4%A0im%C4%A0Staat .%C4%A0Oft%C4%A0Pr%C3%83%C2%A4
. j
Un d
%C4%A0 vor%C4%A0
User:%C4%A0%C3%83%C4%BEbersetze%C4%A0ins%C4%A0Franz%C3%83%C2%B6sische:%C4%A0Wie%C4%A0geht%C4%A0es%C4%A0dir.%C4%A0Assistant:%C4%A0Comment%C4%A0%C3%83%C2%A7 a%C4%A0va.</s>
User:%C4%A0Wie%C4%A0planst%C4%A0du%C4%A0 Wiederholung%C4%A0
Erst%C4%A0 -
Mat he%C4%A0
habites%C4%A0o%C3%83%C2%B9 .</s>
G ang
alitaet%C4%A0bedeutet,%C4%A0d ass
German y.</s>
%C4%A0-%C4%A0 9,%C4%A0wie%C4%A0viel?%C4%A0Assistant:%C4%A0
steig er
Kamera%C4%A0 bleibt%C4%A0an.%C4%A0Assistant:%C4%A0Onlin
Ko ord
%C4%A0%C3%83%C4%B9%C4%A0 3%C4%A0=%C4%A0
%C4%A0Aus drueck
Metri k%C4%A0
Komp lex
ter%C4%A0 Laptop,%C4%A0
d ow
User:%C4%A0Fasse%C4%A0zusammen:%C4%A0Der%C4%A0Akku%C4%A0 ist%C4%A0
Himm el
be schreibst%C4%A0
Idemp otenz
User:%C4%A0Fasse%C4%A0zusammen:%C4%A0Ich%C4%A0 wasch
User:%C4%A0%C3%83%C4%BEbersetze%C4%A0ins%C4%A0Englische:%C4%A0Heute%C4%A0ist%C4%A0Montag.%C4%A0Assistant:%C4%A0Today%C4%A0is%C4%A0Mond ay.</s>
er%C4%A0 Regen
ein ig
deralismus?%C4%A0Assistant:%C4%A0 Macht%C4%A0
ow n.</s>
st euer
ordne te%C4%A0
planst%C4%A0du%C4%A0 Termine.</s>
For m%C4%A0
Zustand s
Passwor t
User:%C4%A0Fasse%C4%A0zusammen:%C4%A0Ich%C4%A0 bring
) ,%C4%A0wie%C4%A0viel?%C4%A0Assistant:%C4%A0
Wer te.</s>
nach %C4%A0dem%C4%A0
eur op%C3%83%C2%A4
fin den.</s>
je dem%C4%A0
User:%C4%A0%C3%83%C4%BEbersetze%C4%A0ins%C4%A0Englische:%C4%A0Viel%C4%A0Spa%C3%83%C5%81 .%C4%A0Assistant:%C4%A0Have%C4%A0fun.</s>
st%C4%A0du%C4%A0 zur%C3%83%C2%BCck.</s>
.%C4%A0Assistant:%C4%A0H artes%C4%A0
stimm en%C4%A0ab
10%C4%A0 10%C4%A0
%C3%83%C2%B6rter%C4%A0samm eln.</s>
User:%C4%A0Fasse%C4%A0zusammen:%C4%A0Ich%C4%A0sp are%C4%A0Geld
zwei %C4%A0Ausdrueck
User:%C4%A0Was%C4%A0ist%C4%A0ein%C4%A0 F
ad en
Zuf all
User:%C4%A0Schreib e%C4%A0
User:%C4%A0%C3%83%C4%BEbersetze%C4%A0ins%C4%A0Franz%C3%83%C2%B6sische:%C4%A0Ich%C4%A0trinke%C4%A0Wasser .%C4%A0Assistant:%C4%A0Je%C4%A0bo
Beispiele%C4%A0 geben.</s>
Mathe .%C4%A0Die%C4%A0
op f
User:%C4%A0Fasse%C4%A0zusammen:%C4%A0Der%C4%A0Lehrer%C4%A0 erkl%C3%83%C2%A4rt%C4%A0langsam
bi b
geteilt%C4%A0durch%C4%A0 Zeit.</s>
User:%C4%A0Fasse%C4%A0zusammen:%C4%A0Wir%C4%A0machen%C4%A0 Sport.%C4%A0Danach%C4%A0
Op tion
Zimmer%C4%A0ist%C4%A0lau t.%C4%A0Ich%C4%A0setze%C4%A0Kopfh%C3%83%C2%B6rer%C4%A0auf.%C4%A0Assistant:%C4%A0L
%C4%A0-%C4%A0 3,%C4%A0wie%C4%A0viel?%C4%A0Assistant:%C4%A0
ahl .</s>
r%C4%A0 gut%C4%A0
hand l
E mpfehl
ti de
ultipli zier
%C3%83%C2%A4hn liche%C4%A0
co mputer%C4%A0science.</s>
User:%C4%A0Fasse%C4%A0zusammen:%C4%A0Wir%C4%A0machen%C4%A0Sport.%C4%A0Danach%C4%A0 trink
User:%C4%A0Wie%C4%A0schreibe%C4%A0ich%C4%A0 im%C4%A0
b an
In%C4%A0 Europa.</s>
li o
User:%C4%A0Wie%C4%A0schreibe%C4%A0ich%C4%A0Figur en
Plau sibi
%C4%A0+%C4%A04 %C4%A0=%C4%A0
.%C4%A0Sech s%C4%A0
.%C4%A0Die%C4%A0 Tickets%C4%A0sind%C4%A0
st%C4%A0du%C4%A0d igitale%C4%A0
.%C4%A0Assistant:%C4%A0Merci %C4%A0beauco
min imal
.%C4%A0Assistant:%C4%A0Pr%C3%83%C2%BCfung%C4%A0nah t,%C4%A0
i lit
Supp e.</s>
d%C4%A0 C
as%C4%A0de%C4%A0 probl
Roll en.</s>
vor?%C4%A0Assistant:%C4%A0Du%C4%A0 lie
?%C4%A0Assistant:%C4%A0Ru h
User:%C4%A0Was%C4%A0ist%C4%A0ein%C4%A0Algorithmus?%C4%A0Assistant:%C4%A0Eine%C4%A0klare%C4%A0Schrittfolge .%C4%A0Sie%C4%A0l%C3%83%C2%B6st%C4%A0
Kon junktion
welcom e.</s>
%C4%A0Abl enk
ich %C4%A0d
.%C4%A0Assistant:%C4%A0J%C4%A0ai%C4%A0besoin%C4%A0d%C4%A0 aide.</s>
ein%C4%A0 bi
G l
e fin
c e%C4%A0
nach .</s>
alitaet%C4%A0bedeutet,%C4%A0dass %C4%A0das%C4%A0
ko enn
D up
f unktion
best%C3%83%C2%A4tig st%C4%A0du%C4%A0
europ%C3%83%C2%A4 ischer%C4%A0
st%C4%A0nach%C4%A0 Zeit.%C4%A0Dann%C4%A0
al z
Tag %C4%A0und%C4%A0
st%C4%A0nach%C4%A0Ar t.%C4%A0Dann%C4%A0
e.%C4%A0 Menschen%C4%A0w%C3%83%C2%A4hlen%C4%A0
User:%C4%A0Wie%C4%A0 hei%C3%83%C5%81
seh e%C4%A0den%C4%A0
.%C4%A0G u
pr%C3%83%C2%BCfst%C4%A0 Einfluss.%C4%A0Dann%C4%A0
Le arning
?%C4%A0Assistant:%C4%A0Du%C4%A0 %C3%83%C2%B6ffne
um?%C4%A0Assistant:%C4%A0Du%C4%A0 planst%C4%A0
ern%C4%A0 um?%C4%A0Assistant:%C4%A0Du%C4%A0
User:%C4%A0Wie%C4%A0planst%C4%A0du%C4%A0 Test
zusammen haeng
%C4%A0d%C3%83%C2%A9sol %C3%83%C2%A9.</s>
exam en.</s>
%C4%A0+%C4%A07 ,%C4%A0Ergebnis?%C4%A0Assistant:%C4%A0
te st%C4%A0du%C4%A0eine%C4%A0
en ?%C4%A0Assistant:%C4%A0Die%C4%A0Erde%C4%A0
User:%C4%A0Was%C4%A0ist%C4%A0ein%C4%A0 S
Die%C4%A0%C3%83%C4%BEbung%C4%A0ist%C4%A0 leich
User:%C4%A0Wie%C4%A0 protokolli
User:%C4%A0%C3%83%C4%BEbersetze%C4%A0ins%C4%A0Franz%C3%83%C2%B6sische:%C4%A0Ich%C4%A0brauche%C4%A0Hilfe .%C4%A0Assistant:%C4%A0J%C4%A0ai%C4%A0besoin%C4%A0d%C4%A0aide.</s>
B eine.</s>
f ri
Kompati bi
kt ,%C4%A0Pr%C3%83%C2%A4dikat,%C4%A0
Foli en.</s>
%C3%83%C5%81 e?%C4%A0Assistant:%C4%A0
User:%C4%A0Wer%C4%A0war%C4%A0K arl%C4%A0der%C4%A0Gro%C3%83%C5%81e?%C4%A0Assistant:%C4%A0Ein%C4%A0fr%C3%83%C2%A4nkischer%C4%A0
Gesch wind
wa ert
el le.</s>
0 0%C4%A0
u%C4%A0p eux%C4%A0
sind %C4%A0die%C4%A0
bst mark
Sti ck
Wasser .%C4%A0Dann%C4%A0
uvre%C4%A0la%C4%A0fen%C3%83%C2%AA tr
tion alitaet%C4%A0bedeutet,%C4%A0dass%C4%A0das%C4%A0
r aus.</s>
b us.</s>
t ails%C4%A0
al ten.</s>
suche%C4%A0die%C4%A0 Bibliothek
hel ern
ction ?%C4%A0Assistant:%C4%A0
Handl ung%C4%A0
lin e
ca st
st%C4%A0du%C4%A0 zusammen.</s>
st ag
Berg %C4%A0der%C4%A0
Duf t.</s>
ier t?%C4%A0Assistant:%C4%A0
Din ge
Eine%C4%A0Fahrkarte%C4%A0bitte.%C4%A0Assistant:%C4%A0 Un%C4%A0
d%C4%A0C elsi
W ichtigk
od cast
.%C4%A0Du%C4%A0add ierst%C4%A0die%C4%A0
Tr ansp
sind%C4%A0gut.%C4%A0Assistant:%C4%A0O bstmark
luess el
Kohl enstoff
erle digt.</s>
%C3%83%C2%B6 d
Geschwind igkeit%C4%A0
gr %C3%83%C2%A4
ein%C4%A0bi ssch
- An
Din ge.%C4%A0Dann%C4%A0
B %C3%83%C2%BCch
.%C4%A0Assistant:%C4%A0 let%C4%A0
,%C4%A0 Wasser%C4%A0und%C4%A0
entsteh en%C4%A0durch%C4%A0
Roll back
r%C3%83%C2%A4 der
Er%C4%A0 singt%C4%A0gut
um?%C4%A0Assistant:%C4%A0Du%C4%A0 merkst%C4%A0d
la%C4%A0 gare.</s>
Entschuldigung%C4%A0bitte.%C4%A0Assistant:%C4%A0 Excuse%C4%A0
?%C4%A0Assistant:%C4%A0Du%C4%A0listest %C4%A0Aufgaben.%C4%A0Dann%C4%A0
Unterr icht.</s>
User:%C4%A0Fasse%C4%A0zusammen:%C4%A0Ich%C4%A0 %C3%83%C2%BCb
?%C4%A0Assistant:%C4%A0Du%C4%A0deckst%C4%A0 Normal
User:%C4%A0Wel cher%C4%A0
t%C4%A0ist%C4%A0klein .%C4%A0Assistant:%C4%A0
%C4%A0Aufwand .</s>
fo ot.</s>
sident%C4%A0 oder%C4%A0
er%C4%A0W andel.%C4%A0Oft%C4%A0
.%C4%A0Assistant:%C4%A0I%C4%A0am%C4%A0from%C4%A0 Germany.</s>
Beg r
User:%C4%A0Fasse%C4%A0zusammen:%C4%A0Wir%C4%A0h%C3%83%C2%B6r en%C4%A0leise%C4%A0Mu
h%C3%83%C2%A4lt st%C4%A0du%C4%A0die%C4%A0
Stra%C3%83%C5%81 e%C4%A0ist%C4%A0
U hr
schnell er.</s>
ons%C4%A0 au
automa ti
all en%C4%A0
User:%C4%A0Was%C4%A0ist%C4%A0der%C4%A0 Kalte%C4%A0Krieg
St or
tr %C3%83%C2%B6
en%C4%A0Aufgab en%C4%A0vor?%C4%A0Assistant:%C4%A0Du%C4%A0
lich t%C4%A0
ich t%C4%A0d
t%C4%A0du %C4%A0den%C4%A0
User:%C4%A0Wie%C4%A0gehst%C4%A0du%C4%A0mit%C4%A0 neu
ohne%C4%A0 Gew
G ib%C4%A0
%C4%A0%C3%83%C4%B9%C4%A04 %C4%A0=%C4%A0
%C3%83%C2%BCh m
zer legst%C4%A0in%C4%A0
%C4%A0Ar ray%C4%A0
,%C4%A0wir%C4%A0 bleiben%C4%A0d
For ma
User:%C4%A0%C3%83%C4%BEbersetze%C4%A0ins%C4%A0Englische:%C4%A0Das%C4%A0ist%C4%A0 einfach
p %C3%83%C2%BCnktlich
ein%C4%A0 K%C3%83%C2%B6nig.</s>
ist%C4%A0eine%C4%A0 SI%C4%A0Einheit%C4%A0fuer%C4%A0
k m
mpf stoff
en%C4%A0 jetz
Wasser%C4%A0 ist%C4%A0
Kon kre
haben%C4%A0Zeit .%C4%A0Assistant:%C4%A0We%C4%A0have%C4%A0
Le se
User:%C4%A0Was%C4%A0ist%C4%A0eine%C4%A0Met apher
Eur o%C4%A0
n%C3%83%C2%A4ch ste%C4%A0Schritte.</s>
E s
Klass enzimm
schwer.%C4%A0Assistant:%C4%A0Mat helern
Er de.</s>
m e
CO 2.</s>
um?%C4%A0Assistant:%C4%A0Du%C4%A0merkst%C4%A0d ir%C4%A0das%C4%A0
gew inn
2 *x
as%C4%A0de%C4%A0probl %C3%83%C2%A8me.</s>
h erstell
User:%C4%A0%C3%83%C4%BEbersetze%C4%A0ins%C4%A0Franz%C3%83%C2%B6sische:%C4%A0Bis%C4%A0sp%C3%83%C2%A4ter.%C4%A0Assistant:%C4%A0%C3%83 %C4%A2%C4%A0plus%C4%A0tard.</s>
Dup lik
?%C4%A0Assistant:%C4%A0W ind%C4%A0
0%C4%A0EUR %C4%A0und%C4%A0
io xid%C4%A0
uali sier
User:%C4%A0Wie%C4%A0nutze%C4%A0 ich
K ann%C4%A0ich%C4%A0geh
Spiel .</s>
.%C4%A0So%C4%A0 entsteh
putzt,%C4%A0 alles%C4%A0
em%C4%A0 Budget.</s>
User:%C4%A0%C3%83%C4%BEbersetze%C4%A0ins%C4%A0Englische:%C4%A0 Eine%C4%A0Fahrkarte%C4%A0bitte.%C4%A0Assistant:%C4%A0A
Wider spr
User:%C4%A0%C3%83%C4%BEbersetze%C4%A0ins%C4%A0Franz%C3%83%C2%B6sische:%C4%A0 Entschuldigung.%C4%A0Assistant:%C4%A0Pard
Dikt ator
und anz
Hau t%C4%A0
Poli tik
automatisch .</s>
Eine%C4%A0Fahrkarte%C4%A0bitte.%C4%A0Assistant:%C4%A0Un%C4%A0 bil
Es%C4%A0tut%C4%A0mir%C4%A0leid.%C4%A0Assistant:%C4%A0Je%C4%A0suis %C4%A0d%C3%83%C2%A9sol%C3%83%C2%A9.</s>
er setzen.</s>
.%C4%A0Z eit%C4%A0
User:%C4%A0Was%C4%A0ist%C4%A0ein%C4%A0 Nerv
ko g
leg en.</s>
beginn en%C4%A0jetz
%C4%A0und%C4%A0 G
.%C4%A0Die%C4%A0 Farben%C4%A0sind%C4%A0
User:%C4%A0%C3%83%C4%BEbersetze%C4%A0ins%C4%A0Franz%C3%83%C2%B6sische:%C4%A0Wir%C4%A0 haben%C4%A0Zeit
erzeug t%C4%A0
( e%C4%A0=
ist%C4%A0der%C4%A0Bahnhof.%C4%A0Assistant:%C4%A0Where%C4%A0is%C4%A0the%C4%A0 train%C4%A0
.%C4%A0Assistant:%C4%A0Nous%C4%A0avon s%C4%A0du%C4%A0temps.</s>
ut on
19 4
t.%C4%A0 Keine%C4%A0offenen%C4%A0
Berg%C4%A0mit%C4%A0 Magma
User:%C4%A0Was%C4%A0ist%C4%A0eine%C4%A0Demokratie?%C4%A0Assistant:%C4%A0Das%C4%A0Volk%C4%A0w%C3%83%C2%A4hl t.%C4%A0Rechte%C4%A0
Sal zwass
Gr%C3%83%C2%BCn de.</s>
en.%C4%A0Dann%C4%A0 benennst%C4%A0du%C4%A0
sicht bar.</s>
t%C4%A0 sie%C4%A0
%C3%83%C2%BCll%C4%A0raus .%C4%A0Es%C4%A0
Sie%C4%A0tanz en%C4%A0gern
ver li
wird %C4%A0d
en.%C4%A0Assistant:%C4%A0T%C3%83%C2%A4gliches%C4%A0Git arren
el f.</s>
d jektiv
on n
lation?%C4%A0Assistant:%C4%A0P reise%C4%A0
%C3%83%C4%BEber gang
en%C4%A0Sch l
im%C4%A0Kopf .</s>
User:%C4%A0Was%C4%A0ist%C4%A0eine%C4%A0 Revolution?%C4%A0Assistant:%C4%A0
User:%C4%A0 Pr%C3%83%C2%BCfe%C4%A0
ai s.</s>
H on
st%C4%A0d amit.</s>
verteil t%C4%A0
?%C4%A0Assistant:%C4%A0Du%C4%A0sag st%C4%A0
User:%C4%A0Was%C4%A0ist%C4%A0ein%C4%A0Kontinent ?%C4%A0Assistant:%C4%A0Eine%C4%A0
User:%C4%A0Fasse%C4%A0zusammen:%C4%A0Der%C4%A0 Unterricht%C4%A0
Er neuer
.%C4%A0Assistant:%C4%A0Leerer%C4%A0Akk u,%C4%A0Handy%C4%A0
is%C4%A0de%C4%A0l%C4%A0 eau.</s>
fas st%C4%A0du%C4%A0zusammen.</s>
?%C4%A0Assistant:%C4%A0Du%C4%A0 gehst%C4%A0
Salz %C4%A0
Kai ser.</s>
Fa zi
.%C4%A0Z um%C4%A0Beispiel%C4%A0
User:%C4%A0%C3%83%C4%BEbersetze%C4%A0ins%C4%A0Franz%C3%83%C2%B6sische:%C4%A0Wo%C4%A0ist%C4%A0die%C4%A0Schule .%C4%A0Assistant:%C4%A0O%C3%83%C2%B9%C4%A0est%C4%A0l
ach ten.%C4%A0
ern%C4%A0 Wasser
.%C4%A0Nimm %C4%A0
0 .</s>
a es
ten%C4%A0 Bedingungen%C4%A0
en,%C4%A0 guter%C4%A0Erfolg.</s>
User:%C4%A0Was%C4%A0ist%C4%A0ein%C4%A0 Magnet
User:%C4%A02 %C4%A0+%C4%A0
en%C4%A0mit%C4%A0 schwer
User:%C4%A0Loese%C4%A0 3*x
al s
feuch te%C4%A0
mis st%C4%A0die%C4%A0
User:%C4%A0Wo%C4%A0liegt%C4%A0die%C4%A0 Sahara?%C4%A0Assistant:%C4%A0
ir ekte%C4%A0
rech n
Klima wand
lat te%C4%A0
F eldherr
frag en%C4%A0vor?%C4%A0Assistant:%C4%A0Du%C4%A0
.%C4%A0Assistant:%C4%A0J%C4%A0 apprends%C4%A0
antwor test%C4%A0du%C4%A0
User:%C4%A0Fasse%C4%A0zusammen:%C4%A0Der%C4%A0Lehrer%C4%A0erkl%C3%83%C2%A4rt%C4%A0langsam .%C4%A0Alle%C4%A0versteh
Fahrrad%C4%A0quietsch t.%C4%A0Ich%C4%A0
.%C4%A0Assistant:%C4%A0Fr isches%C4%A0Bro
Gegen beispiel
%C3%83%C2%A4r chen
m %C4%A0An
%C3%83%C2%A4mpf te%C4%A0
an%C4%A0 email.</s>
steh en%C4%A0im%C4%A0
wechsel ?%C4%A0Assistant:%C4%A0Klar%C4%A0
wiederhol t%C4%A0
Grenz en.%C4%A0
D enk
?%C4%A0Assistant:%C4%A0R und%C4%A0
%C3%83%C2%BC her
h%C3%83%C2%A4tte%C4%A0g ern%C4%A0Wasser
h%C3%83%C2%B6r st%C4%A0
Se tz%C4%A0dich%C4%A0
User:%C4%A0Wie%C4%A0schreibe%C4%A0ich%C4%A0 Wettbewer
User:%C4%A0Warum%C4%A0 ist%C4%A0der%C4%A0
document.ge t
Wenn-Dann -
e%C4%A0A ktion
h%C3%83%C2%B6r e%C4%A0dich
e?%C4%A0Assistant:%C4%A0Du%C4%A0 w%C3%83%C2%A4hlst%C4%A0
un abh%C3%83%C2%A4ngig.</s>
Qu ietsch
User:%C4%A0Wie%C4%A0entsteht%C4%A0 ein%C4%A0
User:%C4%A0%C3%83%C4%BEbersetze%C4%A0ins%C4%A0Englische:%C4%A0Kein%C4%A0Problem.%C4%A0Assistant:%C4%A0No%C4%A0prob lem.</s>
entscheidest%C4%A0du%C4%A0 ja%C4%A0oder%C4%A0nein.</s>
User:%C4%A0Fasse%C4%A0zusammen:%C4%A0Ich%C4%A0trinke%C4%A0Te e.%C4%A0
Wichti ges%C4%A0
ation?%C4%A0Assistant:%C4%A0Du%C4%A0 startest%C4%A0mit%C4%A0
Fol gen%C4%A0
geb enen%C4%A0
Satz zeichen%C4%A0
%C4%A0tick et%C4%A0please.</s>
Gew ohn
User:%C4%A0%C3%83%C4%BEbersetze%C4%A0ins%C4%A0Franz%C3%83%C2%B6sische:%C4%A0Wir%C4%A0spielen%C4%A0Fu%C3%83%C5%81ball.%C4%A0Assistant:%C4%A0Nous%C4%A0 jouons%C4%A0
Stund e%C4%A0Assistant:%C4%A0
ell .%C4%A0Assistant:%C4%A0H
Sie%C4%A0f%C3%83%C2%A4hr t%C4%A0Fahrrad
%C4%A0Anf%C3%83%C2%BChrer%C4%A0aus%C4%A0In di
B l%C3%83%C2%B6ck
2 3.%C4%A0
.%C4%A0Dann%C4%A0h%C3%83%C2%A4ltst%C4%A0du%C4%A0 Zeiten%C4%A0ein.</s>
an ag
User:%C4%A02 7%C4%A0%C3%83%C2%B7%C4%A0
User:%C4%A0Wie%C4%A0schreibe%C4%A0ich%C4%A0Wettbewer b
schlie%C3%83%C5%81 t%C4%A0du%C4%A0
ungs fehl
User:%C4%A0Was%C4%A0ist%C4%A0eine%C4%A0 Quelle%C4%A0
User:%C4%A0Wer%C4%A0war%C4%A0Gandhi ?%C4%A0Assistant:%C4%A0Ein
sch%C3%83%C2%A4tz t%C4%A0
W arte
.%C4%A0W iederhol
t s.</s>
D oku.%C4%A0Dann%C4%A0
ein%C4%A0 Ergebni
Seite%C4%A0l%C3%83%C2%A4d t%C4%A0
enrech te?%C4%A0Assistant:%C4%A0Rechte%C4%A0f%C3%83%C2%BCr%C4%A0
plo t
.%C4%A0M acht%C4%A0
User:%C4%A0%C3%83%C4%BEbersetze%C4%A0ins%C4%A0Englische:%C4%A0%C3%83%C4%B8ffne%C4%A0das%C4%A0Fenster.%C4%A0Assistant:%C4%A0O pen%C4%A0the%C4%A0window.</s>
ste xte?%C4%A0Assistant:%C4%A0
Prozent.%C4%A0Neu er%C4%A0Preis
op er
e%C4%A0 kurz.%C4%A0
%C4%A0Ab schluss
i let
User:%C4%A0Fasse%C4%A0zusammen:%C4%A0Das%C4%A0 WLAN
e%C4%A0t%C3%83%C2%A4g lich%C4%A0
User:%C4%A0Wie%C4%A0hei%C3%83%C5%81 t%C4%A0die%C4%A0
de tails%C4%A0
Stra%C3%83%C5%81 e,%C4%A0
Frage.%C4%A0O der%C4%A0
.%C4%A0Assistant:%C4%A0I%C4%A0am%C4%A0 learning%C4%A0
l ter%C4%A0Laptop,%C4%A0
?%C4%A0Assistant:%C4%A0Du%C4%A0schreib st%C4%A0das%C4%A0
User:%C4%A0%C3%83%C4%BEbersetze%C4%A0ins%C4%A0Englische:%C4%A0Ich%C4%A0habe%C4%A0Zeit .%C4%A0Assistant:%C4%A0I%C4%A0have%C4%A0time.</s>
k ann.</s>
kog nitive%C4%A0
ho ch
bei%C4%A0 Fehlern.</s>
) %C4%A0=%C4%A0
Sign ale%C4%A0im%C4%A0
.%C4%A0Assistant:%C4%A0Je%C4%A0 ch
,%C4%A0wie%C4%A0viel?%C4%A0Assistant:%C4%A0 42
Risik o%C4%A0
weich ung%C4%A0
te.%C4%A0Assistant:%C4%A0 Nous%C4%A0cui
ho eh
Schema %C4%A0
re ale%C4%A0
e%C4%A0A us
%C4%A0An forder
kri p
Das%C4%A0Auto%C4%A0ist%C4%A0 schnell
b %C4%A0
Wasser%C4%A0 schnell
pr%C3%83%C2%BCf st%C4%A0du%C4%A0die%C4%A0
User:%C4%A0%C3%83%C4%BEbersetze%C4%A0ins%C4%A0Franz%C3%83%C2%B6sische:%C4%A0Wir%C4%A0kochen%C4%A0heu te.%C4%A0Assistant:%C4%A0Nous%C4%A0cui
geh %C3%83%C2%B6rt%C4%A0
User:%C4%A0Was%C4%A0ist%C4%A0ein%C4%A0Par lament?%C4%A0Assistant:%C4%A0Gew%C3%83%C2%A4hlte%C4%A0
Fakt en.%C4%A0Dann%C4%A0
User:%C4%A0Fasse%C4%A0zusammen:%C4%A0Das%C4%A0 Fahrrad%C4%A0quietscht.%C4%A0Ich%C4%A0
?%C4%A0Assistant:%C4%A0Du%C4%A0 startest%C4%A0
f%C3%83%C2%A4ll t%C4%A0
st %C3%83%C2%BCtz
hilft%C4%A0 beim%C4%A0
?%C4%A0Assistant:%C4%A0 Spannung%C4%A0
.%C4%A0Null%C4%A0 %C3%83%C2%A4ndert%C4%A0nichts.</s>
ad en.</s>
ung?%C4%A0Assistant:%C4%A0 Grundregeln%C4%A0
.%C4%A0Ich%C4%A0lade%C4%A0das%C4%A0Handy .%C4%A0Assistant:%C4%A0Leerer%C4%A0Akku,%C4%A0Handy%C4%A0
identi f
?%C4%A0Assistant:%C4%A0Ein%C4%A0fr anz%C3%83%C2%B6sischer%C4%A0Herr
User:%C4%A0%C3%83%C4%BEbersetze%C4%A0ins%C4%A0Franz%C3%83%C2%B6sische:%C4%A0Viel%C4%A0Spa%C3%83%C5%81 .%C4%A0Assistant:%C4%A0A
User:%C4%A0Fasse%C4%A0kurz%C4%A0zusammen:%C4%A0Ein%C4%A0 Beitrag%C4%A0
Sym bol
er%C4%A0Balk on%C4%A0wird%C4%A0bunt.%C4%A0Assistant:%C4%A0
zuerst .</s>
au%C4%A0 foot.</s>
Pr%C3%83%C2%A4sen s%C4%A0
User:%C4%A0%C3%83%C4%BEbersetze%C4%A0ins%C4%A0Franz%C3%83%C2%B6sische:%C4%A0 Eine%C4%A0Fahrkarte%C4%A0bitte.%C4%A0Assistant:%C4%A0Un%C4%A0bil
Trig g
Wer t.%C4%A0Dann%C4%A0
H %C3%83%C2%A4l
be achten.%C4%A0
User:%C4%A0W ann%C4%A0
Se m
im um?%C4%A0Assistant:%C4%A0Du%C4%A0merkst%C4%A0dir%C4%A0das%C4%A0
sp %C3%83%C2%BCr
User:%C4%A0Was%C4%A0ist%C4%A0 Geograf
User:%C4%A0Wie%C4%A0stopp st%C4%A0du%C4%A0eine%C4%A0
Frag en.%C4%A0Dann%C4%A0
.%C4%A0S pr
le er
Wichtigk eit.%C4%A0Dann%C4%A0
Da mpf
%C4%A0+%C4%A05 ,%C4%A0wie%C4%A0viel?%C4%A0Assistant:%C4%A015
r ist
User:%C4%A0%C3%83%C4%BEbersetze%C4%A0ins%C4%A0Englische:%C4%A0Eine%C4%A0Fahrkarte%C4%A0bitte.%C4%A0Assistant:%C4%A0A %C4%A0ticket%C4%A0please.</s>
sind%C4%A0gut.%C4%A0Assistant:%C4%A0Obstmark t%C4%A0mit%C4%A0
.%C4%A0 Teil
User:%C4%A0Fasse%C4%A0zusammen:%C4%A0Wir%C4%A0besuch en%C4%A0Oma
Hal lo
liv e.</s>
document.get ElementByI
en%C4%A0d en%C4%A0
Auf%C4%A0dem%C4%A0 Mark
tur n%C4%A0
pr ess
User:%C4%A0Fasse%C4%A0zusammen:%C4%A0Wir%C4%A0planen%C4%A0eine%C4%A0 Reise
Le ser%C4%A0
Mensch enrechte?%C4%A0Assistant:%C4%A0Rechte%C4%A0f%C3%83%C2%BCr%C4%A0
reflektiert%C4%A0 Sonnenlich
.%C4%A0Ein%C4%A0 gro%C3%83%C5%81er%C4%A0
User:%C4%A0%C3%83%C4%BEbersetze%C4%A0ins%C4%A0Franz%C3%83%C2%B6sische:%C4%A0Ich%C4%A0bin%C4%A0bereit.%C4%A0Assistant:%C4%A0Je%C4%A0suis%C4%A0pr%C3%83%C2%AA t.</s>
Komp on
lieg en%C4%A0
.%C4%A0Assistant:%C4%A0I%C4%A0am%C4%A0look ing%C4%A0for%C4%A0
en%C4%A0 zu.</s>
K uch
tier st%C4%A0du%C4%A0
00 0%C4%A0
bau en.%C4%A0
- Fakt
sp%C3%83%C2%A4 ter%C4%A0
und%C4%A0W ind%C4%A0
leich ter
User:%C4%A04 5
misch er%C4%A0
bil de
Halb iere%C4%A0
gelo este%C4%A0Salze.</s>
se .%C4%A0Assistant:%C4%A0Stark
%C3%83%C2%B6 g
De f
st %C3%83%C2%A4r
jourd' hui
Koord inat
and%C4%A0 und%C4%A0
d a
Wasser tr%C3%83%C2%B6
P l
konsequ ent.</s>
Sinnes details%C4%A0
i v
U S
Gute%C4%A0Nacht.%C4%A0Assistant:%C4%A0 Bonne%C4%A0
User:%C4%A0%C3%83%C4%BEbersetze%C4%A0ins%C4%A0Franz%C3%83%C2%B6sische:%C4%A0 Heute%C4%A0ist%C4%A0Montag.%C4%A0Assistant:%C4%A0Aujourd%C4%A0hui%C4%A0c%C4%A0est%C4%A0l
er.%C4%A0D anach%C4%A0ist%C4%A0
Lernen?%C4%A0Assistant:%C4%A0Du%C4%A0 startest%C4%A0mit%C4%A0
ial oge%C4%A0
t%C3%83%C2%A4g lich
.%C4%A0Assistant:%C4%A0 %C3%83%C4%A9a%C4%A0
ist%C4%A0der%C4%A0Bahnhof.%C4%A0Assistant:%C4%A0Where%C4%A0is%C4%A0the%C4%A0train%C4%A0 station.</s>
User:%C4%A0%C3%83%C4%BEbersetze%C4%A0ins%C4%A0Franz%C3%83%C2%B6sische:%C4%A0Wo%C4%A0ist%C4%A0der%C4%A0Bahnhof.%C4%A0Assistant:%C4%A0O%C3%83%C2%B9 %C4%A0est%C4%A0
er%C4%A0 Groessen%C4%A0konstant%C4%A0
H ausaufgab
Ide e?%C4%A0Assistant:%C4%A0Du%C4%A0pr%C3%83%C2%BCfst%C4%A0
zieh en%C4%A0in%C4%A0St%C3%83%C2%A4d
H%C3%83%C2%B6 r%C4%A0gut%C4%A0
%C4%A0-%C4%A06 )
Ver mehr
gesch rieben
t e%C4%A0ich%C4%A0
User:%C4%A0Wo%C4%A0liegt%C4%A0der%C4%A0 %C3%83%C4%A6quator?%C4%A0Assistant:%C4%A0In%C4%A0der%C4%A0Mit
User:%C4%A0Was%C4%A0ist%C4%A0ein%C4%A0 Experiment
User:%C4%A0Was%C4%A0ist%C4%A0ein%C4%A0Staatsoberhaupt?%C4%A0Assistant:%C4%A0H%C3%83%C2%B6chste%C4%A0Person%C4%A0im%C4%A0Staat.%C4%A0Oft%C4%A0Pr%C3%83%C2%A4 sident%C4%A0oder%C4%A0
Insel gruppe.%C4%A0
Frag en%C4%A0
all en.</s>
F l%C3%83%C2%BCss
Checklist e.%C4%A0Dann%C4%A0
; i
Jahreszeit en?%C4%A0Assistant:%C4%A0Die%C4%A0Erde%C4%A0
User:%C4%A0%C3%83%C4%BEbersetze%C4%A0ins%C4%A0Englische:%C4%A0Bis%C4%A0sp%C3%83%C2%A4ter.%C4%A0Assistant:%C4%A0See%C4%A0you%C4%A0 later.</s>
%C3%83%C2%A4h e.</s>
Inhal t%C4%A0
.%C4%A0S umme%C4%A0ist%C4%A0
co%C3%83 %C2%BBte%C4%A0combien.</s>
%C3%83%C2%A4ch tige%C4%A0
User:%C4%A0Fasse%C4%A0zusammen:%C4%A0Ich%C4%A0lerne%C4%A0 Mathe.%C4%A0Die%C4%A0
.%C4%A0Dann%C4%A0 beobachte
User:%C4%A0Fasse%C4%A0zusammen:%C4%A0Ich%C4%A0schreibe%C4%A0eine%C4%A0E%C4%A0Mail.%C4%A0Die%C4%A0 An
User:%C4%A0%C3%83%C4%BEbersetze%C4%A0ins%C4%A0Franz%C3%83%C2%B6sische:%C4%A0Ich%C4%A0lerne%C4%A0 f%C3%83%C2%BCr%C4%A0die%C4%A0Pr%C3%83%C2%BCfung
e%C4%A0ein%C4%A0Bild .%C4%A0Die%C4%A0Farben%C4%A0sind%C4%A0
en%C4%A0Schl achten.</s>
User:%C4%A0Fasse%C4%A0zusammen:%C4%A0Der%C4%A0Akku%C4%A0ist%C4%A0 leer
eux%C4%A0t u%C4%A0
te%C4%A0 der%C4%A0Erde.%C4%A0
User:%C4%A0Wer%C4%A0war%C4%A0Juli us%C4%A0C
Schutz %C4%A0vor%C4%A0
plan en.</s>
Erkl%C3%83%C2%A4r ung.%C4%A0
Halb ieren.</s>
Haupt teil
Str ings%C4%A0in%C4%A0JS.%C4%A0Assistant:%C4%A0let%C4%A0
.%C4%A0Stimm t.</s>
User:%C4%A0%C3%83%C4%BEbersetze%C4%A0ins%C4%A0Franz%C3%83%C2%B6sische:%C4%A0 Es%C4%A0tut%C4%A0mir%C4%A0leid.%C4%A0Assistant:%C4%A0Je%C4%A0suis%C4%A0d%C3%83%C2%A9sol%C3%83%C2%A9.</s>
ro uton
geteilt.%C4%A0Bund%C4%A0und%C4%A0 L%C3%83%C2%A4nder%C4%A0
w%C3%83%C2%A4hl st%C4%A0die%C4%A0
ung leich
Z em
Reih e.</s>
stark er%C4%A0
Beding ung.%C4%A0Dann%C4%A0
lieg t%C4%A0
User:%C4%A0Was%C4%A0ist%C4%A0F %C3%83%C2%B6
a mm
%C3%83%C2%A4rm%C4%A0mit%C4%A0 Kopfh%C3%83%C2%B6rern%C4%A0gel%C3%83%C2%B6st.</s>
w%C3%83%C2%BCrf eln
b us%C4%A0
User:%C4%A0Wie%C4%A0schreibe%C4%A0ich%C4%A0H umor
%C3%83%C2%A4nder n.</s>
en.%C4%A0 Neu
x ');</s>
ehr lich.</s>
mit%C4%A0klein em%C4%A0Budget.</s>
Luf td
auf %C4%A0und%C4%A0
kal t.</s>
fehl er
User:%C4%A0%C3%83%C4%BEbersetze%C4%A0ins%C4%A0Englische:%C4%A0Wir%C4%A0 haben%C4%A0Zeit.%C4%A0Assistant:%C4%A0We%C4%A0have%C4%A0
.%C4%A0 Lan
wa ess
%C3%83%C2%A4 uben%C4%A0
zeit ?%C4%A0Assistant:%C4%A0Du%C4%A0
Start%C4%A0 in%C4%A0den%C4%A0
Deutschland s
User:%C4%A0Wer%C4%A0war%C4%A0Nap oleon
antwor ten.</s>
kn ack
en%C4%A0 oder%C4%A0
Schreib %C4%A0das%C4%A0auf
zerlegst%C4%A0in%C4%A0 Teile.%C4%A0Dann%C4%A0
on en%C4%A0
User:%C4%A0Fasse%C4%A0zusammen:%C4%A0Die%C4%A0Pr%C3%83%C2%BCfung%C4%A0ist%C4%A0b ald.%C4%A0Ich%C4%A0wiederhole%C4%A0
aus end
ch %C3%83%C2%A4olog
%C4%A0%C3%83%C4%B9%C4%A02 ,%C4%A0wie%C4%A0viel?%C4%A0Assistant:%C4%A02
?%C4%A0Assistant:%C4%A0 U
aender t%C4%A0
h %C3%83%C2%A4r
,%C4%A0Ergebnis?%C4%A0Assistant:%C4%A0 30
ungen?%C4%A0Assistant:%C4%A0Du%C4%A0 notierst%C4%A0
stellst%C4%A0 Fragen.%C4%A0Dann%C4%A0
lei ten%C4%A0
Sprach e.</s>
Multipliz iere%C4%A0
u%C4%A0 habites%C4%A0o%C3%83%C2%B9.</s>
ita et%C4%A0
si kl
Tat en.%C4%A0
fal l%C4%A0
User:%C4%A0%C3%83%C4%BEbersetze%C4%A0ins%C4%A0Franz%C3%83%C2%B6sische:%C4%A0Ich%C4%A0 studiere%C4%A0Informatik
Inhal t.</s>
se%C4%A0Mu sik%C4%A0beim%C4%A0
sk izz
st%C4%A0d en
onlin e.%C4%A0Die%C4%A0
ist%C4%A0 Null.</s>
.%C4%A0Ander e%C4%A0
sch on
er- Reihe.</s>
ar?%C4%A0Assistant:%C4%A0Ein%C4%A0 r%C3%83%C2%B6
User:%C4%A0Was%C4%A0ist%C4%A0die%C4%A0Renaissanc e?%C4%A0Assistant:%C4%A0
Konflikt.%C4%A0G ib%C4%A0
um geben.</s>
User:%C4%A0Fasse%C4%A0zusammen:%C4%A0 Auf%C4%A0dem%C4%A0Mark
ri x
Regeln%C4%A0sch%C3%83%C2%BCtzen%C4%A0 Rechte.</s>
ar te?%C4%A0Assistant:%C4%A0
User:%C4%A0%C3%83%C4%BEbersetze%C4%A0ins%C4%A0Franz%C3%83%C2%B6sische:%C4%A0Eine%C4%A0Fahrkarte%C4%A0bitte.%C4%A0Assistant:%C4%A0Un%C4%A0bil let%C4%A0
arbei te
feuchte%C4%A0 Luft%C4%A0
en?%C4%A0Assistant:%C4%A0Du%C4%A0 suchst%C4%A0
User:%C4%A0Was%C4%A0ist%C4%A0ein%C4%A0 Planet
.%C4%A0Assistant:%C4%A0I%C4%A0like%C4%A0 music.</s>
verli ert%C4%A0Wert.</s>
Kai ser
Pass iv
enziel e?%C4%A0Assistant:%C4%A0Was%C4%A0
User:%C4%A0%C3%83%C4%BEbersetze%C4%A0ins%C4%A0Franz%C3%83%C2%B6sische:%C4%A0 Gute%C4%A0Nacht.%C4%A0Assistant:%C4%A0Bonne%C4%A0
lichk eiten.</s>
r c='
ser v
Die%C4%A0 Pr%C3%83%C2%BCfung%C4%A0ist%C4%A0schwer
w ahr.</s>
bleib t?%C4%A0Assistant:%C4%A0
Don au
Programm ier
Z %C3%83%C2%A4hne
hol st%C4%A0du%C4%A0
15 .</s>
auf%C4%A0Meeres h%C3%83%C2%B6he.</s>
.%C4%A0An twort%C4%A0
Fol ge%C4%A0
User:%C4%A0Was%C4%A0ist%C4%A0die%C4%A0UNO ?%C4%A0Assistant:%C4%A0
s%C4%A0begren zen
twort%C4%A0kommt%C4%A0 sp%C3%83%C2%A4ter.%C4%A0Assistant:%C4%A0E%C4%A0Mail
w%C3%83%C2%A4hlen.%C4%A0 Un
lit%C4%A0 un%C4%A0
Ver kehr
bess er%C4%A0geht.</s>
Co des%C4%A0
User:%C4%A0Wie%C4%A0 r%C3%83%C2%A4um
.%C4%A0Assistant:%C4%A0W %C3%83%C2%A4sche%C4%A0
Form ular
Fr ankreich
%C4%A0Assistant:%C4%A0 30
en?%C4%A0Assistant:%C4%A0Du%C4%A0 nutzt%C4%A0
ar?%C4%A0Assistant:%C4%A0Ein%C4%A0r%C3%83%C2%B6 mischer%C4%A0
%C4%A0darfst%C4%A0du%C4%A0tausch en.</s>
?%C4%A0Assistant:%C4%A0Ein%C4%A0 Programm
.%C4%A0S tr
ieren.%C4%A0 H
User:%C4%A0%C3%83%C4%BEbersetze%C4%A0ins%C4%A0Englische:%C4%A0Ich%C4%A0bin%C4%A0bereit.%C4%A0Assistant:%C4%A0I%C4%A0am%C4%A0 ready.</s>
er en%C4%A0
Mon ol
So %C3%83%C5%81
List e?%C4%A0Assistant:%C4%A0Du%C4%A0
Er%C4%A0w%C3%83%C2%A4rmt%C4%A0gut .%C4%A0Assistant:%C4%A0W%C3%83%C2%A4rmender%C4%A0Tee.</s>
Physik.%C4%A0Morgen%C4%A0 ist%C4%A0
en?%C4%A0Assistant:%C4%A0Du%C4%A0 pr%C3%83%C2%BCfst%C4%A0
en ?%C4%A0Assistant:%C4%A0D
.%C4%A0Assistant:%C4%A0Frisches%C4%A0Bro t%C4%A0mit%C4%A0gutem%C4%A0
Fab rik
hilf t%C4%A0d
Nenn e%C4%A0
Elemen t%C4%A0der%C4%A0
ektiere%C4%A0 per%C4%A0
Steh%C4%A0bit te%C4%A0
?%C4%A0Assistant:%C4%A0Wind%C4%A0 schiebt%C4%A0
waess er.</s>
ier te%C4%A0
putzt,%C4%A0alles%C4%A0 sauber.</s>
lation?%C4%A0Assistant:%C4%A0Preise%C4%A0 steig
twort%C4%A0kommt%C4%A0sp%C3%83%C2%A4ter.%C4%A0Assistant:%C4%A0E%C4%A0Mail %C4%A0
=' sty
ein bauen.</s>
e y
en%C4%A0 Pflanzen%C4%A0
.%C4%A0Sp ann
m ultiplizier
schwer.%C4%A0Assistant:%C4%A0Mathelern en%C4%A0mit%C4%A0schwer
en.%C4%A0 Kurz
Ein trag%C4%A0
Dez imal
Depre c
%C4%A0d ehnt%C4%A0sich%C4%A0
D ruck%C4%A0
il og
User:%C4%A0Wie%C4%A0mach st%C4%A0du%C4%A0einen%C4%A0
Zwei -Fakt
Weg .</s>
%C3%83%C2%BCber %C4%A0die%C4%A0
User:%C4%A0Sel ektiere%C4%A0per%C4%A0
K enn
User:%C4%A0%C3%83%C4%BEbersetze%C4%A0ins%C4%A0Franz%C3%83%C2%B6sische:%C4%A0Gute%C4%A0Nacht.%C4%A0Assistant:%C4%A0Bonne%C4%A0 nuit.</s>
User:%C4%A0Wo%C4%A0liegt%C4%A0der%C4%A0%C3%83%C4%A6quator?%C4%A0Assistant:%C4%A0In%C4%A0der%C4%A0Mit te%C4%A0der%C4%A0Erde.%C4%A0
g end
P au
t ab
User:%C4%A0%C3%83%C4%BEbersetze%C4%A0ins%C4%A0Franz%C3%83%C2%B6sische:%C4%A0Ich%C4%A0habe%C4%A0eine%C4%A0Frage .%C4%A0Assistant:%C4%A0J%C4%A0ai%C4%A0
informa tique.</s>
Ma schin
Zita te.</s>
User:%C4%A0Wer%C4%A0war%C4%A0Napoleon ?%C4%A0Assistant:%C4%A0Ein%C4%A0franz%C3%83%C2%B6sischer%C4%A0Herr
Test.%C4%A0Assistant:%C4%A0Phy sikl
User:%C4%A0%C3%83%C4%BEbersetze%C4%A0ins%C4%A0Franz%C3%83%C2%B6sische:%C4%A0Heute%C4%A0ist%C4%A0Montag.%C4%A0Assistant:%C4%A0Aujourd%C4%A0hui%C4%A0c%C4%A0est%C4%A0l undi.</s>
User:%C4%A0Wie%C4%A0sortierst%C4%A0du%C4%A0 Zahl
e%C4%A0Notizen.%C4%A0Sie%C4%A0 helfen%C4%A0
rei s?%C4%A0Assistant:%C4%A0
User:%C4%A0 Rechne%C4%A0
,%C4%A0wie%C4%A0viel?%C4%A0Assistant:%C4%A0 8
User:%C4%A0%C3%83%C4%BEbersetze%C4%A0ins%C4%A0Englische:%C4%A0Wo%C4%A0 ist%C4%A0der%C4%A0Bahnhof.%C4%A0Assistant:%C4%A0Where%C4%A0is%C4%A0the%C4%A0train%C4%A0station.</s>
Summ e%C4%A0der%C4%A0
Stak eh
User:%C4%A0%C3%83%C4%BEbersetze%C4%A0ins%C4%A0Franz%C3%83%C2%B6sische:%C4%A0Kannst%C4%A0du%C4%A0helfen.%C4%A0Assistant:%C4%A0T u%C4%A0peux%C4%A0
Yo u%C4%A0are%C4%A0
Elemen te.</s>
.%C4%A0 In%C4%A0
er%C4%A0Groessen%C4%A0konstant%C4%A0 bleibt.</s>
nah .</s>
v ier
User:%C4%A0Fasse%C4%A0zusammen:%C4%A0Ich%C4%A0 mal
?%C4%A0Assistant:%C4%A0 Zeige%C4%A0
l in%C4%A0
%C3%83%C4%A6 ste%C4%A0
Log s%C4%A0
Kin der%C4%A0lernen%C4%A0
User:%C4%A0Ein%C4%A0Preis%C4%A0 ist%C4%A0
kor rig
User:%C4%A01 2%C4%A0-%C4%A0
st%C4%A0du%C4%A0 ab.</s>
User:%C4%A0Was%C4%A0ist%C4%A0die%C4%A0 NATO
Kohlend ioxid%C4%A0
Wasser%C4%A0 umgeben.</s>
Pr%C3%83%C2%BCf ungen%C4%A0
User:%C4%A0Fasse%C4%A0zusammen:%C4%A0Wir%C4%A0pflanzen%C4%A0Blumen.%C4%A0D er%C4%A0Balkon%C4%A0wird%C4%A0bunt.%C4%A0Assistant:%C4%A0
User:%C4%A0Fasse%C4%A0zusammen:%C4%A0Ich%C4%A0schreibe%C4%A0eine%C4%A0E%C4%A0Mail.%C4%A0Die%C4%A0An twort%C4%A0kommt%C4%A0sp%C3%83%C2%A4ter.%C4%A0Assistant:%C4%A0E%C4%A0Mail%C4%A0
Strings%C4%A0in%C4%A0JS.%C4%A0Assistant:%C4%A0let%C4%A0 s%C4%A0
E l
Puf fer
Fl%C3%83%C2%A4 che.</s>
la%C4%A0 bib
reduz iert%C4%A0die%C4%A0
end?%C4%A0Assistant:%C4%A0Du%C4%A0vergleichst%C4%A0 Paare.%C4%A0
Version en.</s>
Seif e%C4%A0
User:%C4%A0 Mittelwert%C4%A0von%C4%A0
?%C4%A0Assistant:%C4%A0Eine%C4%A0 Bedingung%C4%A0
Ka tz
us gabe
tr%C3%83%C2%A4g st%C4%A0du%C4%A0
e .%C4%A0Sie%C4%A0
You%C4%A0are%C4%A0 welcome.</s>
kognitive%C4%A0 La
Ein%C4%A0 E
User:%C4%A0Wie%C4%A0schreibe%C4%A0ich%C4%A0eine%C4%A0 Zusammenfassung?%C4%A0Assistant:%C4%A0
User:%C4%A0%C3%83%C4%BEbersetze%C4%A0ins%C4%A0Franz%C3%83%C2%B6sische:%C4%A0Wo%C4%A0ist%C4%A0der%C4%A0Bahnhof.%C4%A0Assistant:%C4%A0O%C3%83%C2%B9%C4%A0est%C4%A0 la%C4%A0gare.</s>
st%C4%A0den %C4%A0Ablauf
Schall%C4%A0breitet%C4%A0 sich%C4%A0in%C4%A0
.%C4%A0 P
enig%C4%A0Frei heit.</s>
User:%C4%A0%C3%83%C4%BEbersetze%C4%A0ins%C4%A0Franz%C3%83%C2%B6sische:%C4%A0Ich%C4%A0habe%C4%A0eine%C4%A0Frage.%C4%A0Assistant:%C4%A0J%C4%A0ai%C4%A0 une%C4%A0question.</s>
.%C4%A0Assistant:%C4%A0Merci%C4%A0beauco up.</s>
put ?%C4%A0Assistant:%C4%A0Das%C4%A0ist%C4%A0die%C4%A0
?%C4%A0Assistant:%C4%A0D enke%C4%A0
User:%C4%A0Er zeuge%C4%A0
Info s
w .</s>
Gra d%C4%A0Celsi
Wassertr%C3%83%C2%B6 pfchen%C4%A0
in%C4%A0JS.%C4%A0Assistant:%C4%A0 set
eufig %C4%A0
Red undanz
g reif
Def au
,%C4%A0wie%C4%A0viel?%C4%A0Assistant:%C4%A0 30.%C4%A0Zehner%C4%A0
B litz
User:%C4%A0 Good%C4%A0
%C3%83%C2%B6l e%C4%A0die%C4%A0Kette.%C4%A0Assistant:%C4%A0
bo ar
T%C3%83%C2%A4g lich%C4%A0
zwei er%C4%A0Groessen%C4%A0konstant%C4%A0bleibt.</s>
riecht%C4%A0 besser.%C4%A0Assistant:%C4%A0M
Kommun ik
onymi sier
.%C4%A0Das%C4%A0Budge t%C4%A0ist%C4%A0klein.%C4%A0Assistant:%C4%A0
k u
all o%C4%A0Welt
er.%C4%A0Danach%C4%A0ist%C4%A0 es%C4%A0
User:%C4%A0F%C3%83%C2%BCge%C4%A0 ein%C4%A0
lang .</s>
st ,%C4%A0was%C4%A0
User:%C4%A0Fasse%C4%A0zusammen:%C4%A0Wir%C4%A0planen%C4%A0eine%C4%A0Reise .%C4%A0Das%C4%A0Budget%C4%A0ist%C4%A0klein.%C4%A0Assistant:%C4%A0
User:%C4%A0%C3%83%C4%BEbersetze%C4%A0ins%C4%A0Englische:%C4%A0 Gute%C4%A0Nacht.%C4%A0Assistant:%C4%A0Good%C4%A0night.</s>
ung?%C4%A0Assistant:%C4%A0Du%C4%A0 w%C3%83%C2%A4hlst%C4%A0
?%C4%A0Assistant:%C4%A0Ergebnis%C4%A0 ist%C4%A0
Stakeh ol
An leitung?%C4%A0Assistant:%C4%A0Du%C4%A0
User:%C4%A0%C3%83%C4%BEbersetze%C4%A0ins%C4%A0Franz%C3%83%C2%B6sische:%C4%A0Wo%C4%A0wohnst%C4%A0du.%C4%A0Assistant:%C4%A0T u%C4%A0habites%C4%A0o%C3%83%C2%B9.</s>
User:%C4%A0Fasse%C4%A0zusammen:%C4%A0Ich%C4%A0schreib e%C4%A0Notizen.%C4%A0Sie%C4%A0helfen%C4%A0
?%C4%A0Assistant:%C4%A0Ein%C4%A0 Bild%C4%A0von%C4%A0
lin k
fok uss
%C4%A0 bleibt%C4%A0
en%C4%A0und%C4%A0ge faltet.</s>
liest%C4%A0die%C4%A0Aufgabe .%C4%A0Dann%C4%A0
bleiben%C4%A0zu%C4%A0Hau se.%C4%A0Assistant:%C4%A0Stark
User:%C4%A0%C3%83%C4%BEbersetze%C4%A0ins%C4%A0Englische:%C4%A0Ich%C4%A0mag%C4%A0Musik .%C4%A0Assistant:%C4%A0I%C4%A0like%C4%A0music.</s>
sp%C3%83%C2%BCr bar%C4%A0machen.</s>
Reihenfol ge.%C4%A0Dann%C4%A0
g il
ver aendert%C4%A0
.%C4%A0 Erst%C4%A0-
hunder t%C4%A0
iskuss ion
User:%C4%A0Wer%C4%A0war%C4%A0Gandhi?%C4%A0Assistant:%C4%A0Ein %C4%A0Anf%C3%83%C2%BChrer%C4%A0aus%C4%A0Indi
User:%C4%A0Ver hindere%C4%A0
%C4%A0de terministisch
Be such%C4%A0bei%C4%A0Oma
sik.%C4%A0Wir%C4%A0lesen%C4%A0dazu .%C4%A0Assistant:%C4%A0Lei
d%C4%A0 bedeutet%C4%A0dass%C4%A0die%C4%A0Mondscheibe%C4%A0
en.%C4%A0Gel d%C4%A0
.%C4%A0Assistant:%C4%A0 Rucksack%C4%A0
fi x
Zimmer%C4%A0ist%C4%A0laut.%C4%A0Ich%C4%A0setze%C4%A0Kopfh%C3%83%C2%B6rer%C4%A0auf.%C4%A0Assistant:%C4%A0L %C3%83%C2%A4rm%C4%A0mit%C4%A0Kopfh%C3%83%C2%B6rern%C4%A0gel%C3%83%C2%B6st.</s>
?%C4%A0Assistant:%C4%A0Ein%C4%A0Programm %C4%A0f%C3%83%C2%BCr%C4%A0
ern euerbare%C4%A0
Kont ak
kau m%C4%A0
%C4%A0Antwor t%C4%A0sp%C3%83%C2%A4ter.</s>
.%C4%A0S tro
Ket te?%C4%A0Assistant:%C4%A0Du%C4%A0
sik.%C4%A0Wir%C4%A0lesen%C4%A0dazu.%C4%A0Assistant:%C4%A0Lei se%C4%A0Musik%C4%A0beim%C4%A0
User:%C4%A0Fasse%C4%A0zusammen:%C4%A0 Im%C4%A0
og en?%C4%A0Assistant:%C4%A0
zeig t%C4%A0die%C4%A0
(e%C4%A0= >%C4%A0
er moeg
User:%C4%A0%C3%83%C4%BEbersetze%C4%A0ins%C4%A0Franz%C3%83%C2%B6sische:%C4%A0Wir%C4%A0kochen%C4%A0heute.%C4%A0Assistant:%C4%A0Nous%C4%A0cui sin
Da mpf%C4%A0
Kann st%C4%A0du%C4%A0das%C4%A0wiederhol
Team%C4%A0 gewinn
hin zu.</s>
Ordn er?%C4%A0Assistant:%C4%A0Du%C4%A0nutzt%C4%A0
il l
');%C4%A0} </s>
ha eufig%C4%A0
User:%C4%A0Bau e%C4%A0eine%C4%A0
User:%C4%A0Was%C4%A0ist%C4%A0der%C4%A0Kalte%C4%A0Krieg ?%C4%A0Assistant:%C4%A0Spannung%C4%A0
ge s.</s>
Neu tralit%C3%83%C2%A4t?%C4%A0Assistant:%C4%A0
><li >
.%C4%A0Assistant:%C4%A0W%C3%83%C2%A4sche%C4%A0 gewasch
en.%C4%A0Dann %C4%A0defin
mal%C4%A0 zwei.</s>
Daten.%C4%A0Sie%C4%A0 zeigt%C4%A0Tr
)%C4%A0Assistant:%C4%A0 2</s>
Besuch%C4%A0bei%C4%A0Oma %C4%A0mit%C4%A0
al lem
te?%C4%A0Assistant:%C4%A0Du%C4%A0 beginnst%C4%A0
User:%C4%A0%C3%83%C4%BEbersetze%C4%A0ins%C4%A0Englische:%C4%A0Wo%C4%A0ist%C4%A0die%C4%A0 Bibliothek.%C4%A0Assistant:%C4%A0Where%C4%A0is%C4%A0the%C4%A0library.</s>
war um.%C4%A0Dann%C4%A0
%C4%A0A m
lern en.</s>
Kost en.</s>
.%C4%A0Assistant:%C4%A0What%C4%A0time%C4%A0is%C4%A0 it.</s>
User:%C4%A0Was%C4%A0ist%C4%A0der%C4%A0 Himalaya?%C4%A0Assistant:%C4%A0Ein%C4%A0Gebir
in%C4%A0der%C4%A0 Bibliothek
an gaben?%C4%A0Assistant:%C4%A0
User:%C4%A0Wie%C4%A0teste st%C4%A0du%C4%A0eine%C4%A0
udio .%C4%A0Du%C4%A0
C routon
User:%C4%A0 0
ein s
mach st%C4%A0du%C4%A0einen%C4%A0
en%C4%A0Preis en.</s>
Setz%C4%A0dich%C4%A0 bitte.%C4%A0Assistant:%C4%A0
User:%C4%A0%C3%83%C4%BEbersetze%C4%A0ins%C4%A0Franz%C3%83%C2%B6sische:%C4%A0 Mach%C4%A0bitte%C4%A0das%C4%A0
w enden.</s>
User:%C4%A0Was%C4%A0ist%C4%A0Ar ch%C3%83%C2%A4olog
User:%C4%A0Wie%C4%A0 vergleichst%C4%A0du%C4%A0
%C4%A0A si
en.%C4%A0Geld%C4%A0 verliert%C4%A0Wert.</s>
hin ten.</s>
.%C4%A0Assistant:%C4%A0Where%C4%A0do%C4%A0you%C4%A0 live.</s>
User:%C4%A0Fasse%C4%A0zusammen:%C4%A0Das%C4%A0 Zimmer%C4%A0ist%C4%A0laut.%C4%A0Ich%C4%A0setze%C4%A0Kopfh%C3%83%C2%B6rer%C4%A0auf.%C4%A0Assistant:%C4%A0L%C3%83%C2%A4rm%C4%A0mit%C4%A0Kopfh%C3%83%C2%B6rern%C4%A0gel%C3%83%C2%B6st.</s>
User:%C4%A0 Kannst%C4%A0du%C4%A0
se?%C4%A0Assistant:%C4%A0 Pflanzen%C4%A0
Priorit %C3%83%C2%A4
isier ung?%C4%A0Assistant:%C4%A0
en.%C4%A0Dann%C4%A0defin ierst%C4%A0du%C4%A0
User:%C4%A0%C3%83%C4%BEbersetze%C4%A0ins%C4%A0Englische:%C4%A0Ich%C4%A0komme%C4%A0aus%C4%A0Deutschland .%C4%A0Assistant:%C4%A0I%C4%A0am%C4%A0from%C4%A0Germany.</s>
.%C4%A0Assistant:%C4%A0%C3%83%C4%A9a%C4%A0 co%C3%83%C2%BBte%C4%A0combien.</s>
User:%C4%A0W hat
n at
, %C4%A0Antwort%C4%A0sp%C3%83%C2%A4ter.</s>
ge putzt,%C4%A0alles%C4%A0sauber.</s>
document.getElementByI d('
en.%C4%A0D rei%C4%A0
Geheim nis%C4%A0
Lau t%C4%A0les
ar um,%C4%A0
St att%C4%A0
fli k
User:%C4%A0%C3%83%C4%BEbersetze%C4%A0ins%C4%A0Franz%C3%83%C2%B6sische:%C4%A0Wir%C4%A0spielen%C4%A0Fu%C3%83%C5%81ball.%C4%A0Assistant:%C4%A0Nous%C4%A0jouons%C4%A0 au%C4%A0foot.</s>
Inf o%C4%A0
.%C4%A0S onne%C4%A0
sehe%C4%A0den%C4%A0 Mond
.%C4%A0Assistant:%C4%A0W%C3%83%C2%A4sche%C4%A0gewasch en%C4%A0und%C4%A0gefaltet.</s>
studiere%C4%A0Informatik.%C4%A0Assistant:%C4%A0I%C4%A0study%C4%A0 computer%C4%A0science.</s>
7 %C4%A0Assistant:%C4%A042</s>
st%C4%A0Them en.%C4%A0Dann%C4%A0
e?%C4%A0Assistant:%C4%A0Du%C4%A0 fragst%C4%A0
?%C4%A0Assistant:%C4%A0Du%C4%A0 ordne
Seite%C4%A0l%C3%83%C2%A4dt%C4%A0 nicht.</s>
Woch e?%C4%A0Assistant:%C4%A0Du%C4%A0
f te%C4%A0
?%C4%A0Assistant:%C4%A0Du%C4%A0 gibst%C4%A0
Reflex ion%C4%A0von%C4%A0
nahm e.%C4%A0Dann%C4%A0
ung%C4%A0 wecken.</s>
Kl ein
.%C4%A0Sonne%C4%A0 und%C4%A0Wind%C4%A0
Rei b
Prod uz
L%C3%83%C2%A4nge%C4%A0 und%C4%A0
trinke%C4%A0Te e
User:%C4%A0%C3%83%C4%BEbersetze%C4%A0ins%C4%A0Englische:%C4%A0Wir%C4%A0haben%C4%A0Zeit.%C4%A0Assistant:%C4%A0We%C4%A0have%C4%A0 time.</s>
Schrit ten.</s>
User:%C4%A0%C3%83%C4%BEbersetze%C4%A0ins%C4%A0Franz%C3%83%C2%B6sische:%C4%A0Kannst%C4%A0du%C4%A0helfen.%C4%A0Assistant:%C4%A0Tu%C4%A0peux%C4%A0 aider.</s>
trag en.</s>
einen%C4%A0Ablauf ?%C4%A0Assistant:%C4%A0Du%C4%A0
User:%C4%A0%C3%83%C4%BEbersetze%C4%A0ins%C4%A0Franz%C3%83%C2%B6sische:%C4%A0Das%C4%A0ist%C4%A0 einfach
%C3%83%C2%BC ste
Seit en.%C4%A0
User:%C4%A0Was%C4%A0ist%C4%A0eine%C4%A0 Diktatur?%C4%A0Assistant:%C4%A0Eine%C4%A0Person%C4%A0
En de?%C4%A0Assistant:%C4%A0
um %C4%A0d
Kamera%C4%A0bleibt%C4%A0an.%C4%A0Assistant:%C4%A0Onlin e%C4%A0
Defau l
Viel en%C4%A0Dank
User:%C4%A0Was%C4%A0ist%C4%A0ein%C4%A0Archi p
folg st%C4%A0du%C4%A0
w ie
.%C4%A0Assistant:%C4%A0Frisches%C4%A0Brot%C4%A0mit%C4%A0gutem%C4%A0 Duft.</s>
stark es%C4%A0
User:%C4%A0Wie%C4%A0 bereitest%C4%A0du%C4%A0
e%C4%A0ein%C4%A0Bild.%C4%A0Die%C4%A0Farben%C4%A0sind%C4%A0 h
.%C4%A0Assistant:%C4%A0 She%C4%A0
B ra
User:%C4%A0Fasse%C4%A0zusammen:%C4%A0Ich%C4%A0mal e%C4%A0ein%C4%A0Bild.%C4%A0Die%C4%A0Farben%C4%A0sind%C4%A0h
gute%C4%A0 Einleitung?%C4%A0Assistant:%C4%A0
brauche%C4%A0 Ruhe
auf %C4%A0dem%C4%A0
ll .</s>
riecht%C4%A0besser.%C4%A0Assistant:%C4%A0M %C3%83%C2%BCll%C4%A0raus,%C4%A0
?%C4%A0Assistant:%C4%A0 Ziel
neu er%C4%A0
er.%C4%A0Danach%C4%A0ist%C4%A0es%C4%A0 sauber.%C4%A0Assistant:%C4%A0
.%C4%A0Assistant:%C4%A0I%C4%A0 will%C4%A0
ah eim.</s>
Z we
Be st
K no
s crip
st%C4%A0du%C4%A0 und%C4%A0
ende ?%C4%A0Assistant:%C4%A0
User:%C4%A0Fasse%C4%A0zusammen:%C4%A0Ich%C4%A0trinke%C4%A0Tee.%C4%A0 Er%C4%A0w%C3%83%C2%A4rmt%C4%A0gut.%C4%A0Assistant:%C4%A0W%C3%83%C2%A4rmender%C4%A0Tee.</s>
aren%C4%A0f%C3%83%C2%BCr%C4%A0ein%C4%A0Fahrra d.</s>
.%C4%A0Antwort%C4%A0 hinten.</s>
User:%C4%A0Was%C4%A0ist%C4%A0die%C4%A0UNO?%C4%A0Assistant:%C4%A0 Staatenbund.%C4%A0Arbeitet%C4%A0f%C3%83%C2%BCr%C4%A0Frieden.</s>
en te
mon d%C4%A0bedeutet%C4%A0dass%C4%A0die%C4%A0Mondscheibe%C4%A0
Sym bo
bo x');</s>
User:%C4%A0Wo%C4%A0liegt%C4%A0der%C4%A0Nil ?%C4%A0Assistant:%C4%A0In%C4%A0Afrika
Konflikt .%C4%A0
nach%C4%A0 Zeit.</s>
De%C4%A0ri en.</s>
en?%C4%A0Assistant:%C4%A0W ort
W ie%C4%A0viel%C4%A0
Sch at
haeng igkeit
');%C4%A0} ,%C4%A0
f%C3%83%C2%BC n
Licht%C4%A0 wird%C4%A0in%C4%A0
online.%C4%A0Die%C4%A0 Kamera%C4%A0bleibt%C4%A0an.%C4%A0Assistant:%C4%A0Online%C4%A0
lief%C4%A0 gut
gut en%C4%A0Preisen.</s>
User:%C4%A0Fasse%C4%A0zusammen:%C4%A0 Er%C4%A0lern
User:%C4%A0Wie%C4%A0schreibe%C4%A0ich%C4%A0 Orts
bis%C4%A0 es%C4%A0
logi k%C4%A0
Rucksack.%C4%A0Morgen%C4%A0ist%C4%A0Ausflug .%C4%A0Assistant:%C4%A0Rucksack%C4%A0
Perspektiv e?%C4%A0Assistant:%C4%A0
%C3%83%C2%B6d ie?%C4%A0Assistant:%C4%A0
User:%C4%A0Was%C4%A0ist%C4%A0Inf lation?%C4%A0Assistant:%C4%A0Preise%C4%A0steig
beweg t%C4%A0sich%C4%A0
Bal anc
Puff er.</s>
!%C4%A0 Was%C4%A0
User:%C4%A0%C3%83%C4%BEbersetze%C4%A0ins%C4%A0Franz%C3%83%C2%B6sische:%C4%A0Wir%C4%A0kochen%C4%A0heute.%C4%A0Assistant:%C4%A0Nous%C4%A0cuisin ons%C4%A0au
t.%C4%A0Assistant:%C4%A0 L
.%C4%A0Assistant:%C4%A0A lter%C4%A0Laptop,%C4%A0
sie%C4%A0 w
sik.%C4%A0Wir%C4%A0lesen%C4%A0dazu.%C4%A0Assistant:%C4%A0Leise%C4%A0Musik%C4%A0beim%C4%A0 Lesen.</s>
ge gebenen%C4%A0
User:%C4%A0%C3%83%C4%BEbersetze%C4%A0ins%C4%A0Franz%C3%83%C2%B6sische:%C4%A0Kein%C4%A0Problem.%C4%A0Assistant:%C4%A0P as%C4%A0de%C4%A0probl%C3%83%C2%A8me.</s>
Me er.</s>
%C4%A0 ein%C4%A0bissch
Preise%C4%A0 sind%C4%A0gut.%C4%A0Assistant:%C4%A0Obstmarkt%C4%A0mit%C4%A0
einf lus
Wie%C4%A0viel%C4%A0 kostet%C4%A0das
mmun system
L%C3%83%C2%BCck en.</s>
e t.</s>
en.%C4%A0Dann%C4%A0 machst%C4%A0du%C4%A0
Ent wicklung%C4%A0
Zwe ck
User:%C4%A0%C3%83%C4%BEbersetze%C4%A0ins%C4%A0Franz%C3%83%C2%B6sische:%C4%A0Wir%C4%A0haben%C4%A0Zeit .%C4%A0Assistant:%C4%A0Nous%C4%A0avons%C4%A0du%C4%A0temps.</s>
Danke%C4%A0 f%C3%83%C2%BCr%C4%A0d
I mmunsystem
mel dest%C4%A0du%C4%A0
User:%C4%A0Wie%C4%A0schreibe%C4%A0ich%C4%A0eine%C4%A0 Figur
%C4%A0M in
S krip
o tizen?%C4%A0Assistant:%C4%A0
F lo
bekomm st%C4%A0
.%C4%A0Assistant:%C4%A0Thank%C4%A0 you%C4%A0
prod uz
User:%C4%A0Fasse%C4%A0zusammen:%C4%A0Ich%C4%A0%C3%83%C2%BCb e%C4%A0Gitarre.%C4%A0
User:%C4%A0Fasse%C4%A0zusammen:%C4%A0Der%C4%A0Laptop%C4%A0ist%C4%A0al t.%C4%A0Er%C4%A0
User:%C4%A0Fasse%C4%A0zusammen:%C4%A0Ich%C4%A0 backe%C4%A0Bro
User:%C4%A01 3
User:%C4%A0Fasse%C4%A0zusammen:%C4%A0Wir%C4%A0h%C3%83%C2%B6ren%C4%A0leise%C4%A0Mu sik.%C4%A0Wir%C4%A0lesen%C4%A0dazu.%C4%A0Assistant:%C4%A0Leise%C4%A0Musik%C4%A0beim%C4%A0Lesen.</s>
Szen en.%C4%A0
haben%C4%A0 Unterricht
tion%C4%A0 ist%C4%A0
User:%C4%A0Wie%C4%A0planst%C4%A0du%C4%A0Lern ziel
User:%C4%A0Fasse%C4%A0zusammen:%C4%A0Die%C4%A0 Stra%C3%83%C5%81e%C4%A0ist%C4%A0
geschicht en?%C4%A0Assistant:%C4%A0
User:%C4%A0Wie%C4%A0merkst%C4%A0du%C4%A0d ir%C4%A0
Datenb ank
H%C3%83%C2%A4l fte.</s>
lei ch%C4%A0
Wie%C4%A0sp%C3%83%C2%A4t%C4%A0ist%C4%A0es .%C4%A0Assistant:%C4%A0What%C4%A0time%C4%A0is%C4%A0it.</s>
ell.%C4%A0Assistant:%C4%A0H elles%C4%A0Bild%C4%A0
K %C3%83%C2%BCste
,%C4%A0w eil
User:%C4%A0Wie%C4%A0schreibe%C4%A0ich%C4%A0P itch%C4%A0
Tropf en%C4%A0
JSON %C4%A0in%C4%A0JS.%C4%A0Assistant:%C4%A0let%C4%A0
z ahl%C4%A0
Figur ,%C4%A0
bau ten%C4%A0
n ie
Ger%C3%83%C2%A4u sch
User:%C4%A0Was%C4%A0ist%C4%A0F%C3%83%C2%B6 deralismus?%C4%A0Assistant:%C4%A0Macht%C4%A0
Steh%C4%A0bitte%C4%A0 auf
La de
%C4%A0in%C4%A0 Mathe
t%C4%A0im%C4%A0 Team
fei erst%C4%A0
in de%C4%A0
t%C4%A0 auf%C4%A0
.%C4%A0 Re
Danke%C4%A0f%C3%83%C2%BCr%C4%A0d eine%C4%A0Zeit
D ichte%C4%A0
User:%C4%A0Fasse%C4%A0zusammen:%C4%A0Auf%C4%A0dem%C4%A0Mark t%C4%A0gibt%C4%A0es%C4%A0Obst.%C4%A0Die%C4%A0
St%C3%83%C2%A4r ke%C4%A0
User:%C4%A0Was%C4%A0ist%C4%A0Inflation?%C4%A0Assistant:%C4%A0Preise%C4%A0steig en.%C4%A0Geld%C4%A0verliert%C4%A0Wert.</s>
Stif te.%C4%A0
User:%C4%A0%C3%83%C4%BEbersetze%C4%A0ins%C4%A0Englische:%C4%A0 Wie%C4%A0sp%C3%83%C2%A4t%C4%A0ist%C4%A0es.%C4%A0Assistant:%C4%A0What%C4%A0time%C4%A0is%C4%A0it.</s>
ation ?%C4%A0Assistant:%C4%A0Du%C4%A0definierst%C4%A0
sich er.</s>
w%C3%83%C2%A4ch st.</s>
%C4%A0ist%C4%A0 20.</s>
Bibliothe k%C4%A0
User:%C4%A0Fasse%C4%A0zusammen:%C4%A0Der%C4%A0Akku%C4%A0ist%C4%A0leer .%C4%A0Ich%C4%A0lade%C4%A0das%C4%A0Handy.%C4%A0Assistant:%C4%A0Leerer%C4%A0Akku,%C4%A0Handy%C4%A0
Preise%C4%A0sind%C4%A0gut.%C4%A0Assistant:%C4%A0Obstmarkt%C4%A0mit%C4%A0 guten%C4%A0Preisen.</s>
%C3%83%C4%BEb ungs
8 .</s>
</ li
unn%C3%83%C2%B6 tige%C4%A0
Sp ur
P ipelin
User:%C4%A0%C3%83%C4%BEbersetze%C4%A0ins%C4%A0Englische:%C4%A0Das%C4%A0ist%C4%A0einfach .%C4%A0Assistant:%C4%A0That%C4%A0is%C4%A0easy.</s>
Plan%C4%A0f%C3%83%C2%BCr%C4%A0Geld .%C4%A0Einnahmen%C4%A0und%C4%A0Ausgab
User:%C4%A0Wie%C4%A0 kontrollierst%C4%A0du%C4%A0
steig end?%C4%A0Assistant:%C4%A0Du%C4%A0vergleichst%C4%A0Paare.%C4%A0
t%C3%A2%C4%A2 %C4%BB
User:%C4%A0Wie%C4%A0schreibe%C4%A0ich%C4%A0eine%C4%A0 E-Mail
in i
ein ?%C4%A0Assistant:%C4%A0Ein%C4%A0
E tappen.%C4%A0Dann%C4%A0
User:%C4%A0%C3%83%C4%BEbersetze%C4%A0ins%C4%A0Franz%C3%83%C2%B6sische:%C4%A0Entschuldigung.%C4%A0Assistant:%C4%A0Pard on.</s>
li ff
S and%C4%A0
!%C4%A0Wie%C4%A0kann%C4%A0 ich%C4%A0helfen?</s>
en.%C4%A0Assistant:%C4%A0T%C3%83%C2%A4gliches%C4%A0Gitarren %C3%83%C2%BCb
User:%C4%A0Wie%C4%A0planst%C4%A0du%C4%A0Lernziel e%C4%A0pro%C4%A0
User:%C4%A0Wie%C4%A0 sch
?%C4%A0Assistant:%C4%A0F l%C3%83%C2%BC
noch%C4%A0 schnell
User:%C4%A0Fasse%C4%A0zusammen:%C4%A0Auf%C4%A0dem%C4%A0Markt%C4%A0gibt%C4%A0es%C4%A0Obst.%C4%A0Die%C4%A0 Preise%C4%A0sind%C4%A0gut.%C4%A0Assistant:%C4%A0Obstmarkt%C4%A0mit%C4%A0guten%C4%A0Preisen.</s>
HTML %C4%A0ein.%C4%A0Assistant:%C4%A0Nutze%C4%A0<
Test.%C4%A0Assistant:%C4%A0Physikl ernen%C4%A0vor%C4%A0dem%C4%A0Test.</s>
f%C3%83%C2%BChr st%C4%A0
Datenschutz %C4%A0
vor .</s>
User:%C4%A0%C3%83%C4%BEbersetze%C4%A0ins%C4%A0Englische:%C4%A0Ich%C4%A0 studiere%C4%A0Informatik.%C4%A0Assistant:%C4%A0I%C4%A0study%C4%A0computer%C4%A0science.</s>
%C3%83%C4%BEber gab
Gef%C3%83%C2%BCh le.</s>
ruh ig.%C4%A0Dann%C4%A0
liv re.</s>
Strings%C4%A0in%C4%A0JS.%C4%A0Assistant:%C4%A0let%C4%A0s%C4%A0 =%C4%A0
kon flik
Gra vit
te st.</s>
Stor y
Ver such
be achten.</s>
Ereig nisse%C4%A0
fig ur
geschrieben ,%C4%A0Antwort%C4%A0sp%C3%83%C2%A4ter.</s>
User:%C4%A0Fasse%C4%A0zusammen:%C4%A0Ich%C4%A0schreibe%C4%A0eine%C4%A0E%C4%A0Mail.%C4%A0Die%C4%A0Antwort%C4%A0kommt%C4%A0sp%C3%83%C2%A4ter.%C4%A0Assistant:%C4%A0E%C4%A0Mail%C4%A0 geschrieben,%C4%A0Antwort%C4%A0sp%C3%83%C2%A4ter.</s>
User:%C4%A0Fasse%C4%A0zusammen:%C4%A0Ich%C4%A0male%C4%A0ein%C4%A0Bild.%C4%A0Die%C4%A0Farben%C4%A0sind%C4%A0h ell.%C4%A0Assistant:%C4%A0Helles%C4%A0Bild%C4%A0
setzt%C4%A0 klare%C4%A0
erkl%C3%83%C2%A4r st%C4%A0du%C4%A0
Variab l
en.%C4%A0 L
Missbrauch .</s>
User:%C4%A0Fasse%C4%A0zusammen:%C4%A0Das%C4%A0Fahrrad%C4%A0quietscht.%C4%A0Ich%C4%A0 %C3%83%C2%B6le%C4%A0die%C4%A0Kette.%C4%A0Assistant:%C4%A0
.%C4%A0Assistant:%C4%A0Il%C4%A0 lit%C4%A0un%C4%A0
User:%C4%A0%C3%83%C4%BEbersetze%C4%A0ins%C4%A0Franz%C3%83%C2%B6sische:%C4%A0Ich%C4%A0bin%C4%A0m%C3%83%C2%BCde.%C4%A0Assistant:%C4%A0Je%C4%A0suis%C4%A0fatigu %C3%83%C2%A9.</s>
plot s?%C4%A0Assistant:%C4%A0
Hund%C4%A0 spiel
tausch st%C4%A0du%C4%A0
arme%C4%A0 feuchte%C4%A0Luft%C4%A0
mit%C4%A0 kurz
vergleichst%C4%A0du%C4%A0 mit%C4%A0
gew ich
User:%C4%A014 %C4%A0+%C4%A0
User:%C4%A0%C3%83%C4%BEbersetze%C4%A0ins%C4%A0Franz%C3%83%C2%B6sische:%C4%A0Ich%C4%A0trinke%C4%A0Wasser.%C4%A0Assistant:%C4%A0Je%C4%A0bo is%C4%A0de%C4%A0l%C4%A0eau.</s>
F et
Fazi t.</s>
Gef%C3%83%C2%BC hl
User:%C4%A0Wie%C4%A0lie st%C4%A0du%C4%A0
/ 8
notier st
om at
.%C4%A0Dann%C4%A0%C3%83%C2%BCberspr ingst%C4%A0du%C4%A0
stark.%C4%A0Wir%C4%A0 bleiben%C4%A0zu%C4%A0Hause.%C4%A0Assistant:%C4%A0Stark
ein %C4%A0Array%C4%A0
arr .
.%C4%A0Assistant:%C4%A0How%C4%A0mu ch%C4%A0is%C4%A0that.</s>
noch%C4%A0schnell .%C4%A0Assistant:%C4%A0Alter%C4%A0Laptop,%C4%A0
Physik.%C4%A0Morgen%C4%A0ist%C4%A0 Test.%C4%A0Assistant:%C4%A0Physiklernen%C4%A0vor%C4%A0dem%C4%A0Test.</s>
f l%C3%83%C2%A4
Mit te.</s>
.%C4%A0Stro m%C4%A0
Ber %C3%83%C2%BChm
sind%C4%A0 wichtig.</s>
%C3%83%C2%BCll%C4%A0raus.%C4%A0Es%C4%A0 riecht%C4%A0besser.%C4%A0Assistant:%C4%A0M%C3%83%C2%BCll%C4%A0raus,%C4%A0
,%C4%A0wir%C4%A0bleiben%C4%A0d aheim.</s>
wahr%C4%A0 oder%C4%A0falsch
mittl ere%C4%A0
Ver besser
r at
H allo%C4%A0Welt
