e r
s t
: %C4%A0
e %C4%A0
a n
c h
e n
i st
s s
e i
. %C4%A0
an t
s er
A ss
ist ant
Ass istant
%C4%8A Assistant
ser :%C4%A0
U ser:%C4%A0
%C4%8AAssistant :%C4%A0
%C4%A0 d
%C4%A0 %C4%8AAssistant:%C4%A0
? %C4%A0%C4%8AAssistant:%C4%A0
i n
u %C4%A0
i e%C4%A0
s %C4%A0
User:%C4%A0 W
t %C4%A0
s ch
n %C4%A0
en %C4%A0
st %C4%A0d
User:%C4%A0W ie%C4%A0
u n
e l
st%C4%A0d u%C4%A0
i ch
t z
.%C4%A0 D
er %C4%A0
ei n
a r
%C3%83 %C2%A4
%C3%83 %C2%BC
?%C4%A0%C4%8AAssistant:%C4%A0 D
.%C4%A0 %C4%8AAssistant:%C4%A0
an n%C4%A0
r ei
st %C4%A0
s e
.%C4%A0D ann%C4%A0
t i
l i
t e
en .
?%C4%A0%C4%8AAssistant:%C4%A0D u%C4%A0
a s%C4%A0
g e
o r
d %C4%A0
a u
in %C4%A0
ist %C4%A0
b er
un g
ich %C4%A0
tz e%C4%A0
o n
rei b
a l
, %C4%A0
sch reib
%C3%83 %C2%B6
u r
%C3%83 %C4%BE
m m
%C3%83%C4%BE ber
s i
ein e%C4%A0
sch e
a ss
se tze%C4%A0
e%C4%A0 ich%C4%A0
in s%C4%A0
setze%C4%A0 ins%C4%A0
%C3%83%C4%BEber setze%C4%A0ins%C4%A0
sche :%C4%A0
User:%C4%A0 %C3%83%C4%BEbersetze%C4%A0ins%C4%A0
a ch
m %C4%A0
User:%C4%A0Wie%C4%A0 schreib
e h
i er
User:%C4%A0Wie%C4%A0schreib e%C4%A0ich%C4%A0
User:%C4%A0W as%C4%A0
t .
l e
i el
un d%C4%A0
E r
s a
ei n%C4%A0
p r
ch %C4%A0
E n
E in%C4%A0
a t
i t
F r
z u
en .%C4%A0
l an
d e
o l
b e
t e%C4%A0
i r
d er
c k
a b
User:%C4%A0Was%C4%A0 ist%C4%A0
sa mm
e g
S ch
e .
i l
an z
i g
m i
v er
I ch%C4%A0
t r
En g
samm en
i e
ass e%C4%A0
Eng li
t %C4%A0d
anz %C3%83%C2%B6
anz%C3%83%C2%B6 si
l ei
zu sammen
Fr anz%C3%83%C2%B6si
E in
User:%C4%A0 F
User:%C4%A0%C3%83%C4%BEbersetze%C4%A0ins%C4%A0 Engli
Franz%C3%83%C2%B6si sche:%C4%A0
User:%C4%A0%C3%83%C4%BEbersetze%C4%A0ins%C4%A0Engli sche:%C4%A0
User:%C4%A0%C3%83%C4%BEbersetze%C4%A0ins%C4%A0 Franz%C3%83%C2%B6sische:%C4%A0
%C3%83%C2%BC f
t er
User:%C4%A0F asse%C4%A0
zusammen :%C4%A0
a g
n i
r e
r o
a h
s p
el l
%C4%A0 %C3%83
ei t
mi t%C4%A0
k l
p lan
u f
S t
pr %C3%83%C2%BCf
%C3%83 %C5%81
ge b
e u
ur z
o n%C4%A0
u m
s ?%C4%A0%C4%8AAssistant:%C4%A0
er n
au f
e t
Ein e%C4%A0
in g
%C4%A0d ie%C4%A0
%C4%A0 +
R e
%C4%A0+ %C4%A0
ung %C4%A0
en t
User:%C4%A0Fasse%C4%A0 zusammen:%C4%A0
v iel
User:%C4%A0Was%C4%A0ist%C4%A0 ein%C4%A0
b ei
s .
plan st%C4%A0du%C4%A0
an d
,%C4%A0 w
ei l
geb ni
ti on
Er gebni
r %C4%A0
u tz
V er
f %C3%83%C2%BC
o %C4%A0
r a
h l
e s%C4%A0
u t
en ?%C4%A0%C4%8AAssistant:%C4%A0
%C3%83%C2%A4 n
k t
T e
en .%C4%A0Dann%C4%A0
User:%C4%A0Wie%C4%A0 planst%C4%A0du%C4%A0
r it
.%C4%A0 S
k urz
ge h
k o
en d
er .
r u
n e
ir %C4%A0
h e
m ach
f f
p p
w er
ein en%C4%A0
- %C4%A0
i m%C4%A0
st%C4%A0d u
en ?%C4%A0%C4%8AAssistant:%C4%A0Du%C4%A0
l %C4%A0
%C4%A0 -%C4%A0
v or
st e
l ich
ie%C4%A0 viel
w ei
= %C4%A0
g i
en n
?%C4%A0%C4%8AAssistant:%C4%A0 Ein%C4%A0
lei ch
m a
%C3%83%C2%A4 hl
u ch
G e
P ro
I n
%C4%B9 %C4%A0
ti er
%C3%83%C2%B6 r
%C4%A0%C3%83 %C4%B9%C4%A0
h a
D at
l u
r i
E s%C4%A0
u m%C4%A0
A b
w ir
%C4%A0d er%C4%A0
ier st%C4%A0du%C4%A0
,%C4%A0 Ergebni
W ass
B e
,%C4%A0w ie%C4%A0viel
%C4%A0 =%C4%A0
,%C4%A0Ergebni s?%C4%A0%C4%8AAssistant:%C4%A0
ach %C4%A0
li e
g e%C4%A0
,%C4%A0wie%C4%A0viel ?%C4%A0%C4%8AAssistant:%C4%A0
e ?%C4%A0%C4%8AAssistant:%C4%A0
pr%C3%83%C2%BCf st%C4%A0du%C4%A0
m p
W ir%C4%A0
a s
User:%C4%A0 1
o d
bei %C4%A0
se tz
.%C4%A0%C4%8AAssistant:%C4%A0 I
o k
a d
A n
i s%C4%A0
Sch rit
Er %C4%A0
e%C4%A0 d
st eh
v on%C4%A0
K on
User:%C4%A0Wie%C4%A0schreibe%C4%A0ich%C4%A0 eine%C4%A0
t eil
l o
te .
n utz
g ab
u l
A uf
s in
u s
ich t%C4%A0
%C4%A0 und%C4%A0
%C3%83%C2%BC b
f in
un k
S S
Z iel
.%C4%A0%C4%8AAssistant:%C4%A0 J
%C2%B7 %C4%A0
ei g
%C4%A0%C3%83 %C2%B7%C4%A0
al l
t%C4%A0d u%C4%A0
ie der
%C4%A0d e
t .%C4%A0
m al
User:%C4%A0%C3%83%C4%BEbersetze%C4%A0ins%C4%A0Franz%C3%83%C2%B6sische:%C4%A0 Ich%C4%A0
A l
User:%C4%A0%C3%83%C4%BEbersetze%C4%A0ins%C4%A0Englische:%C4%A0 Ich%C4%A0
e .%C4%A0
S p
%C3%83%C2%A4 r
K o
ti g
W I
E N
w ar
SS EN
WI SSEN
WISSEN :%C4%A0
ar k
e s
geh st%C4%A0du%C4%A0
a %C4%A0
Z eit
un d
kurz %C4%A0
b t%C4%A0
sp iel
g leich
User:%C4%A0Wie%C4%A0 gehst%C4%A0du%C4%A0
er st%C4%A0du%C4%A0
f%C3%83%C2%BC r%C4%A0
R eg
z en
eh l
w %C3%83%C2%A4hl
ar e%C4%A0
z i
ich t
d en%C4%A0
2 0
f or
h ol
ar um%C4%A0
.%C4%A0%C4%8AAssistant:%C4%A0I %C4%A0
f ol
an n
n e%C4%A0
au s
K l
n ach%C4%A0
st%C4%A0du%C4%A0 eine%C4%A0
sin d%C4%A0
t sch
u s%C4%A0
A r
er k
?%C4%A0%C4%8AAssistant:%C4%A0 Eine%C4%A0
User:%C4%A0Was%C4%A0 ist
b lei
s uch
ti v
P r
a i
e ss
User:%C4%A0Fasse%C4%A0 kurz%C4%A0
User:%C4%A0W arum%C4%A0
f r
d e%C4%A0
ieder hol
ah r
ier t%C4%A0
a m
User:%C4%A0Fasse%C4%A0kurz%C4%A0 zusammen:%C4%A0
w eg
%C4%A0 ist%C4%A0
ol l
%C3%83%C2%BCb er%C4%A0
te ste
u tze%C4%A0
o m
e .%C4%A0Dann%C4%A0
1 0
eh r
l ern
j e
t en%C4%A0
B er
a li
s ie%C4%A0
t er%C4%A0
ung .
a m%C4%A0
User:%C4%A0Was%C4%A0ist%C4%A0 eine%C4%A0
sch n
R ei
%C3%83%C2%BC n
a ck
sch en%C4%A0
l %C3%83%C2%A4
e ?%C4%A0%C4%8AAssistant:%C4%A0Du%C4%A0
a k
i mm
%C3%83%C2%A4 l
User:%C4%A0Fasse%C4%A0zusammen:%C4%A0 D
h ab
b r
f t%C4%A0
en .%C4%A0%C4%8AAssistant:%C4%A0
User:%C4%A0Fasse%C4%A0kurz%C4%A0zusammen:%C4%A0 Ein%C4%A0
an %C4%A0
ier st%C4%A0
wir d%C4%A0
ur %C4%A0
ung en%C4%A0
s ich
User:%C4%A0Wie%C4%A0 st
.%C4%A0 N
st%C4%A0du %C4%A0d
B ei
t h
B il
G r
w or
User:%C4%A0Fasse%C4%A0zusammen:%C4%A0 Ich%C4%A0
le m
.%C4%A0 Es%C4%A0
a il
ko mm
st .
ei ch
h r
el n
ar t
M en
ei t%C4%A0
o b
el %C4%A0
Auf gab
te ?%C4%A0%C4%8AAssistant:%C4%A0
auf %C4%A0
User:%C4%A0Wie%C4%A0 pr%C3%83%C2%BCfst%C4%A0du%C4%A0
ent steh
i m
o ff
L ern
ah l
J S
e ch
.%C4%A0D u%C4%A0
o h
s e%C4%A0
u d
or d
vor ?%C4%A0%C4%8AAssistant:%C4%A0Du%C4%A0
Te x
Wass er%C4%A0
Q u
o t
W er
U n
User:%C4%A0 2
ge .
o p
h el
schn ell
q u
i si
k %C4%A0
F ehl
ur ch%C4%A0
T he
er st
e st%C4%A0
or g
zi eh
kl %C3%83%C2%A4r
L o
.%C4%A0 Z
b en
%C3%83%C2%A4n der
y %C4%A0
sp %C3%83%C2%A4
P er
H and
en%C4%A0 und%C4%A0
1 2
User:%C4%A0Wie%C4%A0gehst%C4%A0du%C4%A0 bei%C4%A0
ver gleich
ing %C4%A0
b au
t ?%C4%A0%C4%8AAssistant:%C4%A0
a .%C4%A0
a p
ar te
k on
Pr %C3%83%C2%BCf
L e
N utze%C4%A0
A us
p f
en z
au s%C4%A0
%C4%A0de fin
unk tion
St a
z eig
h er
b ar
ru pp
Re ch
an g
%C4%A0d as%C4%A0
y .
.%C4%A0%C4%8AAssistant:%C4%A0 W
t en.
P lan
el n%C4%A0
teste st%C4%A0du%C4%A0
D as%C4%A0
K urz
gi b
Z u
.%C4%A0S ie%C4%A0
t .%C4%A0Dann%C4%A0
od er%C4%A0
S tr
a tion
ell e%C4%A0
wei %C4%A0
.%C4%A0%C4%8AAssistant:%C4%A0J e%C4%A0
Bei spiel
n o
l e%C4%A0
k t%C4%A0
t%C4%A0d ie%C4%A0
l in
O r
s ich%C4%A0
l au
b en%C4%A0
ha t%C4%A0
ung ?%C4%A0%C4%8AAssistant:%C4%A0
le .
g ut
s el
an .
z u%C4%A0
nutz t%C4%A0
M on
m e%C4%A0
V iel
be ss
S ie%C4%A0
w iederhol
fol g
L uf
st e%C4%A0
.%C4%A0%C4%8AAssistant:%C4%A0 T
f e
en t%C4%A0
re ch
S zen
st%C4%A0d ie%C4%A0
a ge
F ig
User:%C4%A0Was%C4%A0ist %C4%A0die%C4%A0
) ;
n ah
%C3%83%C2%BC r
i s
%C3%83%C2%BC ck
h al
ti on%C4%A0
?%C4%A0%C4%8AAssistant:%C4%A0D u
pr%C3%83%C2%BCf st%C4%A0
te t%C4%A0
se h
1 5
de .
T eil
lu ss
le x
ei t.
kt ur
.%C4%A0D ie%C4%A0
%C3%83%C5%81 e%C4%A0
.%C4%A0 M
pr o%C4%A0
i k
ein f
d er%C4%A0
k e%C4%A0
F or
kl ar
.%C4%A0 Er%C4%A0
setz t%C4%A0du%C4%A0
m in
kl are%C4%A0
JS .%C4%A0%C4%8AAssistant:%C4%A0
0 %C4%A0
schreib st%C4%A0
ich tig
lan g
ein er%C4%A0
%C4%A0d en%C4%A0
d u
r eg
A k
l a
L ist
ei d
Per s
te .%C4%A0Dann%C4%A0
d .
%C3%83%C2%A4 g
ti k
fr ag
g ro
Rei h
en st
ein .
mal %C4%A0
Wass er
hel f
D e
d ing
M e
ier e%C4%A0
erk enn
N o
WISSEN:%C4%A0 Eine%C4%A0
%C3%83%C2%BC ber
t ,%C4%A0
ung en.
e%C4%A0 eine%C4%A0
le g
s o
?%C4%A0%C4%8AAssistant:%C4%A0Du %C4%A0defin
f a
.%C4%A0%C4%8AAssistant:%C4%A0I%C4%A0 am%C4%A0
S pr
e k
ter .
b in
p as
te ?%C4%A0%C4%8AAssistant:%C4%A0Du%C4%A0
%C3%83%C2%BC tz
m u
au ch
gi bt%C4%A0
Tex t%C4%A0
wer den%C4%A0
?%C4%A0%C4%8AAssistant:%C4%A0 J
f li
y o
ord ne
i sch
um ?%C4%A0%C4%8AAssistant:%C4%A0Du%C4%A0
G rupp
de st%C4%A0du%C4%A0
N ach
z %C3%83%C2%A4hl
te st%C4%A0du%C4%A0
m .
lie %C3%83%C5%81
br auch
User:%C4%A0Wie%C4%A0 mach
ru ktur
um en
g r
Sta at
n eu
er n%C4%A0
mach st%C4%A0
in%C4%A0 JS.%C4%A0%C4%8AAssistant:%C4%A0
Dat en
ge sch
Fig ur
o pp
D i
%C3%83%C2%A4 tz
in n
o ur
b i
e%C4%A0d ie%C4%A0
t%C4%A0 m
war %C4%A0
st ark
3 0
S on
User:%C4%A0Wie%C4%A0 f
?%C4%A0%C4%8AAssistant:%C4%A0Du%C4%A0defin ierst%C4%A0
li ck
setz t%C4%A0
2 5
Reih en
blei bt%C4%A0
eh n
g u
User:%C4%A0Wie%C4%A0st ruktur
t%C4%A0 und%C4%A0
M u
rei ch
te .%C4%A0%C4%8AAssistant:%C4%A0
l auf
ar i
ko ch
En tsch
si er
User:%C4%A0Fasse%C4%A0zusammen:%C4%A0D er%C4%A0
WISSEN:%C4%A0 Ein%C4%A0
z w
User:%C4%A0Wie%C4%A0 setzt%C4%A0du%C4%A0
n ach
du z
on .
ung s
f %C4%A0
au p
nah m
ung .%C4%A0
t%C4%A0 ist%C4%A0
b eit
T ag
?%C4%A0%C4%8AAssistant:%C4%A0 W
el d
t .%C4%A0%C4%8AAssistant:%C4%A0
ig k
ig .
le s%C4%A0
%C4%A0de m%C4%A0
Men schen%C4%A0
en %C4%A0d
be schreib
st%C4%A0du%C4%A0 einen%C4%A0
P f
st eig
l ist
User:%C4%A0Fasse%C4%A0zusammen:%C4%A0 Wir%C4%A0
er i
er ?%C4%A0%C4%8AAssistant:%C4%A0Du%C4%A0
p er
lu s%C4%A0
p lus%C4%A0
li eg
Kon fli
e%C4%A0 H
%C3%83%C2%B6r ter
s u
w e
User:%C4%A0Wie%C4%A0struktur ierst%C4%A0du%C4%A0
st imm
y ste
p ass
h o
t o
er%C4%A0 war%C4%A0
samm el
p er%C4%A0
st%C4%A0du %C4%A0die%C4%A0
st ell
g a
st and
S a
Reihen fol
en ig
User:%C4%A0W er%C4%A0war%C4%A0
al s%C4%A0
User:%C4%A0 3
einf ach
f o
en ,%C4%A0
te .%C4%A0
ein es%C4%A0
for m
z eich
%C4%A0+%C4%A0 1
ung ?%C4%A0%C4%8AAssistant:%C4%A0Du%C4%A0
Un ter
s au
oh ne%C4%A0
User:%C4%A0Wie%C4%A0f unktion
.%C4%A0 W
et ail
m ark
E x
F ahr
ga be
User:%C4%A0Wie%C4%A0schreibe%C4%A0ich%C4%A0 mit%C4%A0
el .
o w
nutz t%C4%A0du%C4%A0
S u
blei b
h in
User:%C4%A0Wie%C4%A0 erkenn
u e
d en.
D ie%C4%A0
o g
tier st%C4%A0du%C4%A0
.%C4%A0%C4%8AAssistant:%C4%A0 H
i z
User:%C4%A0Wie%C4%A0gehst%C4%A0du%C4%A0 mit%C4%A0
en de
W o%C4%A0
lern e%C4%A0
t a
l %C3%83%C2%B6
or t
z en%C4%A0
I n%C4%A0
eh r%C4%A0
si e.
zu .
G er
ist%C4%A0 eine%C4%A0
b ack
%C3%83%C2%B6 n
an k
?%C4%A0%C4%8AAssistant:%C4%A0J a.%C4%A0
t ag
en e%C4%A0
Te st
User:%C4%A0Was%C4%A0ist %C4%A0der%C4%A0
e%C4%A0 und%C4%A0
%C4%A0d a
L icht%C4%A0
an der
h %C3%83%C2%B6r
Fr age
en%C4%A0 im%C4%A0
0 .
st arte
User:%C4%A0 5
%C3%83 %C4%A6
t%C4%A0d er%C4%A0
K eine%C4%A0
H in
S e
User:%C4%A0Wie%C4%A0planst%C4%A0du%C4%A0 eine%C4%A0
Pf lan
Pro z
k re
Be ding
%C3%83%C2%A4n g
komm t%C4%A0
er t%C4%A0
lich e%C4%A0
Z ahl
te s%C4%A0
vor %C4%A0
D etail
ist %C4%A0die%C4%A0
User:%C4%A0Wie%C4%A0 ver
gib st%C4%A0du%C4%A0
E lem
vergleich st%C4%A0du%C4%A0
%C3%83%C2%A4 ch
re duz
it t
t%C4%A0 von%C4%A0
el t%C4%A0
i b
Fr ag
Sch reib
ar bei
.%C4%A0D rei
de u
E ur
7 %C4%A0+%C4%A0
ich te?%C4%A0%C4%8AAssistant:%C4%A0
s or
%C3%83 %C2%A9
Pro b
M ail
w ichtig
er e%C4%A0
in d
b o
a %C3%83%C5%81
un ter
n icht
st %C3%83%C2%A4n
te x
%C4%A0%C4%8AAssistant:%C4%A0 1
.%C4%A0%C4%8AAssistant:%C4%A0 O
rei s
th e%C4%A0
%C4%A0 in%C4%A0
at ur
sch ie
l a%C4%A0
The ma
A ut
lich .
seh r%C4%A0
end e%C4%A0
H al
%C4%A0 ai
u p
lie st%C4%A0
%C3%83%C2%BC h
W et
kl eine%C4%A0
.%C4%A0Dann%C4%A0 pr%C3%83%C2%BCfst%C4%A0du%C4%A0
en%C4%A0 in%C4%A0
Fehl er
v e%C4%A0
3 ,%C4%A0Ergebnis?%C4%A0%C4%8AAssistant:%C4%A0
ung en?%C4%A0%C4%8AAssistant:%C4%A0Du%C4%A0
%C3%83%C2%A4 t
W iederhol
%C4%A0 f%C3%83%C2%BCr%C4%A0
User:%C4%A0Wie%C4%A0funktion iert%C4%A0
A lex
h y
b il
s pr
N eu
User:%C4%A0 4
P unk
ru ck
c o
mi s
%C3%83%C2%B6 %C3%83%C5%81
h %C3%83%C2%A4l
P ass
h e%C4%A0
hab en%C4%A0
c i
b it
m e.
i schen%C4%A0
sammel st%C4%A0
Sa tz
se .
6 %C4%A0
g el
h eit
f ehl
B ro
sau ber
< /
z e
.%C4%A0Dann%C4%A0 testest%C4%A0du%C4%A0
.%C4%A0D as%C4%A0
Ber icht%C4%A0
h ei
st%C4%A0 nach%C4%A0
Luf t%C4%A0
,%C4%A0w as%C4%A0
S ei
k ann%C4%A0
C he
s ?%C4%A0%C4%8AAssistant:%C4%A0Du%C4%A0
l ass
n enn
Te mp
Viel e%C4%A0
ot he
n .
I de
sch au
2 .
er kl%C3%83%C2%A4r
%C3%83%C2%A4 h
rit eri
User:%C4%A0Wie%C4%A0erkenn st%C4%A0du%C4%A0
ab .
f%C3%83%C2%BC hr
tr ag
a .
h il
A u
%C3%83%C2%A4 tze%C4%A0
v oll
le t%C4%A0
w a
an c
P ar
tr o
S ti
( '
W ie%C4%A0
en.%C4%A0 Sie%C4%A0
l ag
isi erst%C4%A0du%C4%A0
e x
V or
ah l%C4%A0
t%C4%A0d urch%C4%A0
yo u%C4%A0
st%C4%A0d en%C4%A0
st%C4%A0du%C4%A0d en%C4%A0
, %C4%A0d
Z eit.
starte st%C4%A0
%C3%83%C2%BC ch
sp ar
W e
K art
sch a
Spr ach
en der
Ergebni ss
k n
b in%C4%A0
n der
e ,%C4%A0
z eit
In fo
In ter
M at
Er folg
t%C4%A0 sich%C4%A0
en k
st%C4%A0du .
M in
T r
.%C4%A0 G
User:%C4%A0Fasse%C4%A0kurz%C4%A0zusammen:%C4%A0Ein%C4%A0 Text%C4%A0
sp eich
lo ck
.%C4%A0 A
3 %C4%A0
sch e%C4%A0
weg .
User:%C4%A0Wie%C4%A0 nutzt%C4%A0du%C4%A0
Qu ell
such st%C4%A0du%C4%A0
en%C4%A0 vor?%C4%A0%C4%8AAssistant:%C4%A0Du%C4%A0
R o
an ach%C4%A0
h%C3%83%C2%A4l t
o d%C4%A0
t%C4%A0 f%C3%83%C2%BCr%C4%A0
Prob lem
g en
b je
au s.
entsteh t%C4%A0
i ss
C o
Er de%C4%A0
w ach
%C3%83%C2%A4 d
Ge sch
K %C3%83%C2%B6r
er g
z wei%C4%A0
s .%C4%A0Dann%C4%A0
F e
o od%C4%A0
ra mm
Al l
k ehr
d i
' );
j our
l%C3%83%C2%A4 uf
5 %C4%A0
en en%C4%A0
m o
r ie
User:%C4%A0Fasse%C4%A0kurz%C4%A0zusammen:%C4%A0Ein%C4%A0 Bericht%C4%A0
.%C4%A0 Wir%C4%A0
st %C3%83%C2%A4
.%C4%A0N eu
z iel
tr enn
viel e%C4%A0
ok umen
sa m
geh t%C4%A0
sch %C3%83%C2%BCtz
ur ch
M et
H eu
Hin wei
u i
le .%C4%A0Dann%C4%A0
tr in
a pp
F %C3%83%C2%BCn
4 %C4%A0
e st
Entsch eid
Gr enz
User:%C4%A0 9
e f
es e%C4%A0
be deu
komm e%C4%A0
der .
.%C4%A0%C4%8AAssistant:%C4%A0J '
o%C4%A0 lieg
b st
e m%C4%A0
User:%C4%A0Wie%C4%A0 lern
Che ck
L %C3%83%C2%B6
z eu
w%C3%83%C2%A4hl st%C4%A0
N utz
a tion%C4%A0
1 9
Ar tik
er%C4%A0 H
%C4%A0+%C4%A0 5
ung%C4%A0 ist%C4%A0
ach t
User:%C4%A0%C3%83%C4%BEbersetze%C4%A0ins%C4%A0Franz%C3%83%C2%B6sische:%C4%A0 Das%C4%A0
Ger %C3%83%C2%A4
S %C3%83%C2%A4tz
ein%C4%A0 B
M ach
tier e%C4%A0
.%C4%A0 Ich%C4%A0
An t
le s
ist %C4%A0der%C4%A0
f ass
ma ti
%C4%A0%C3%83%C4%B9%C4%A0 4
User:%C4%A0 6
Ant wor
g en%C4%A0
Ko pf
User:%C4%A0%C3%83%C4%BEbersetze%C4%A0ins%C4%A0Englische:%C4%A0 Das%C4%A0
M org
U r
si k
f%C3%83%C2%BC r
1 8
e d
User:%C4%A0W o%C4%A0lieg
no tier
pas st%C4%A0
en .%C4%A0D
St ar
ant wor
G ood%C4%A0
H T
f al
L %C3%83%C2%A4n
G ra
ei dest%C4%A0du%C4%A0
le k
%C4%A0 be
s ach
ol k
ol li
The m
e s.
No ti
sa tz
%C3%83%C4%BE b
Ver b
Schrit te.
ar beit
M ag
rech ne
User:%C4%A0Fasse%C4%A0kurz%C4%A0zusammen:%C4%A0Ein%C4%A0Text%C4%A0 %C3%83%C2%BCber%C4%A0
ver steh
N e
Artik el%C4%A0
L%C3%83%C2%B6 s
Bil d
Ge d
en s
e%C4%A0 in%C4%A0
Al le%C4%A0
st%C3%83%C2%A4n d
t %C3%83%C2%A4g
H aup
Unter r
.%C4%A0Z ehn
zw ischen%C4%A0
lo gi
Ko mp
User:%C4%A0 8
zu erst
ti ge%C4%A0
User:%C4%A0%C3%83%C4%BEbersetze%C4%A0ins%C4%A0Franz%C3%83%C2%B6sische:%C4%A0 Wir%C4%A0
Kl ar
l at
ung .%C4%A0Dann%C4%A0
%C4%A0 est%C4%A0
3 %C4%A0=%C4%A0
vergleich st%C4%A0
V ari
.%C4%A0Z wei%C4%A0
B u
er%C4%A0 in%C4%A0
.%C4%A0%C4%8AAssistant:%C4%A0 L
o ch
al e%C4%A0
T i
?%C4%A0%C4%8AAssistant:%C4%A0D ie%C4%A0
L a
f %C3%83%C2%A4l
d ier
u %C3%83%C5%81
HT M
er st%C4%A0
No us%C4%A0
%C4%A0+%C4%A0 4
te%C4%A0 ist%C4%A0
E ig
Lo ese%C4%A0
un der
User:%C4%A0 Loese%C4%A0
K al
eln .
k al
e t%C4%A0
Z ei
User:%C4%A0Fasse%C4%A0kurz%C4%A0zusammen:%C4%A0Ein%C4%A0 Artikel%C4%A0
ri ff
e%C4%A0 is%C4%A0
?%C4%A0%C4%8AAssistant:%C4%A0Du%C4%A0 nutzt%C4%A0
1 1
eu tsch
w %C3%83%C2%B6rter
2 %C4%A0=%C4%A0
HTM L
n et
er ?%C4%A0%C4%8AAssistant:%C4%A0
P a
w and
z ur%C4%A0
n icht%C4%A0
Viel %C4%A0
ut en%C4%A0
T im
Sp ann
li othe
.%C4%A0%C4%8AAssistant:%C4%A0J %C4%A0ai
oh n
st ud
a kt
Reg eln%C4%A0
ich t.
G eh
ist%C4%A0 ein%C4%A0
Auf gabe
User:%C4%A0Wie%C4%A0 d
.%C4%A0%C4%8AAssistant:%C4%A0W e%C4%A0
n utze%C4%A0
Er kl%C3%83%C2%A4r
R u
ed back
User:%C4%A0%C3%83%C4%BEbersetze%C4%A0ins%C4%A0Englische:%C4%A0 Wir%C4%A0
0 0
sp%C3%83%C2%A4 ter
K riteri
f u
User:%C4%A0Wie%C4%A0 testest%C4%A0du%C4%A0
zu m%C4%A0
Men sch
st%C4%A0d as%C4%A0
K ann
Aufgab en.
L es
f er
2 %C4%A0
tr a
sch wer
User:%C4%A0%C3%83%C4%BEbersetze%C4%A0ins%C4%A0Franz%C3%83%C2%B6sische:%C4%A0Ich%C4%A0 hab
kl ein
be g
ri k
W ahl
W eg
gro %C3%83%C5%81
F enst
si on
%C4%A0 }
.%C4%A0 Ein%C4%A0
.%C4%A0Zehn er%C4%A0
5 .
User:%C4%A0Fasse%C4%A0zusammen:%C4%A0D ie%C4%A0
R oll
ok ab
S el
de t%C4%A0
be weg
In hal
3 6
D er%C4%A0
l%C3%83%C2%A4 d
Fe edback
V okab
an d%C4%A0
6 ,%C4%A0Ergebnis?%C4%A0%C4%8AAssistant:%C4%A0
> .
nutze%C4%A0 ich%C4%A0
gib st%C4%A0
au sch
i mal
Sp a%C3%83%C5%81
ge w
l %C3%83%C2%BC
en d%C4%A0
User:%C4%A0Fasse%C4%A0zusammen:%C4%A0D as%C4%A0
en?%C4%A0%C4%8AAssistant:%C4%A0 W
St %C3%83%C2%A4d
Al les%C4%A0
User:%C4%A0Wie%C4%A0mach st%C4%A0du%C4%A0eine%C4%A0
F u%C3%83%C5%81
s en
K a
t%C4%A0 in%C4%A0
ch e%C4%A0
be st%C3%83%C2%A4
all e%C4%A0
{ %C4%A0
h %C3%83%C2%A4ng
ie ?%C4%A0%C4%8AAssistant:%C4%A0
%C4%A0d ir
t ur
mp f
en.%C4%A0 K
?%C4%A0%C4%8AAssistant:%C4%A0Du%C4%A0 schreibst%C4%A0
H %C3%83%C2%B6
Wass er.
at t%C4%A0
lich k
ib liothe
ver teil
En erg
Lo gi
R isi
F %C3%83%C2%BC
al y
Fahr ra
ul l%C4%A0
T o
yste m
h and
f t
B on
on s%C4%A0
ri eg
st ab
Proz ess
igk eit
Bil d%C4%A0
.%C4%A0%C4%8AAssistant:%C4%A0T he%C4%A0
.%C4%A0S ech
B r
Pr %C3%83%C2%A4
User:%C4%A0Fasse%C4%A0kurz%C4%A0zusammen:%C4%A0Ein%C4%A0Artikel%C4%A0 %C3%83%C2%BCber%C4%A0
lan d
s .%C4%A0
lie f
e kt
Nutze%C4%A0 <
S al
fe st.
Ur sach
U m
%C4%A0 mit%C4%A0
l l
p o
ni ss
.%C4%A0%C4%8AAssistant:%C4%A0 P
gesch ichte?%C4%A0%C4%8AAssistant:%C4%A0
B ibliothe
tiv e%C4%A0
au erst
Schrit t.
S y
Kon t
il l%C4%A0
v o
ier t.
w as%C4%A0
G uten%C4%A0
L and
auerst off
t st
en.%C4%A0 Es%C4%A0
d ig
f lie%C3%83%C5%81
zeig t%C4%A0
Hand l
En de.
sch .
E U
.%C4%A0S ehr%C4%A0
such st%C4%A0
All tag
Ab lauf
ordne st%C4%A0du%C4%A0
geb en.
%C3%83%C4%A6 nder
eh m
Ak tion
f ern
kurz e%C4%A0
ent sch
Gr und
be gr
f all
User:%C4%A0%C3%83%C4%BEbersetze%C4%A0ins%C4%A0Englische:%C4%A0 Wo%C4%A0
leg st%C4%A0du%C4%A0
,%C4%A0d ann%C4%A0
il %C4%A0
%C4%A0-%C4%A0 3
,%C4%A0wie%C4%A0viel?%C4%A0%C4%8AAssistant:%C4%A0 2
ge teil
User:%C4%A0%C3%83%C4%BEbersetze%C4%A0ins%C4%A0Franz%C3%83%C2%B6sische:%C4%A0 Wo%C4%A0
l ich%C4%A0
en%C4%A0 sind%C4%A0
%C4%A0d u%C4%A0
%C3%83%C2%BCn d
ha ve%C4%A0
r au
s k
2 ,%C4%A0Ergebnis?%C4%A0%C4%8AAssistant:%C4%A0
User:%C4%A0 Kon
E is
E %C4%A0
.%C4%A0%C4%8AAssistant:%C4%A0W her
.%C4%A0%C4%8AAssistant:%C4%A0 Nutze%C4%A0<
Grupp en
u mm
Ar bei
ali ta
t%C4%A0 nicht
W olk
ver bin
or it
n ehm
.%C4%A0 F%C3%83%C2%BCn
.%C4%A0%C4%8AAssistant:%C4%A0Je%C4%A0 su
as e%C4%A0
stark e%C4%A0
.%C4%A0%C4%8AAssistant:%C4%A0 M
S %C3%83%C2%A4tze%C4%A0
i h
8 %C4%A0%C3%83%C2%B7%C4%A0
eln .%C4%A0
User:%C4%A0Fasse%C4%A0kurz%C4%A0zusammen:%C4%A0Ein%C4%A0Bericht%C4%A0 %C3%83%C2%BCber%C4%A0
war t
?%C4%A0%C4%8AAssistant:%C4%A0Du%C4%A0 teil
ver tiere%C4%A0
de ?%C4%A0%C4%8AAssistant:%C4%A0
ab zieh
trin ke%C4%A0
%C4%A0-%C4%A0 4
bess er
t%C4%A0d en%C4%A0
en n%C4%A0
i er%C4%A0
?%C4%A0%C4%8AAssistant:%C4%A0Du%C4%A0 sammelst%C4%A0
te%C4%A0 d
Kurz e%C4%A0
a ?%C4%A0%C4%8AAssistant:%C4%A0
W as%C4%A0
t.%C4%A0 Ich%C4%A0
auf .
en g
User:%C4%A0Wie%C4%A0schreibe%C4%A0ich%C4%A0 einen%C4%A0
Zu g
st%C4%A0 in%C4%A0
.%C4%A0 Viele%C4%A0
%C3%83 %C4%B8
end s%C4%A0
bleib t.
on en%C4%A0
%C4%A0d urch%C4%A0
h%C3%83%C2%A4lt st%C4%A0du%C4%A0
pr i
f re
m it
schie d
Son n
ist .
Kl eine%C4%A0
Er d
pri or
Lo g
am er
E%C4%A0 Mail
User:%C4%A0Wie%C4%A0 nutze%C4%A0ich%C4%A0
Dat en%C4%A0
gu te%C4%A0
sch %C3%83%C2%B6n
* %C4%A0
bei m%C4%A0
bit te.%C4%A0%C4%8AAssistant:%C4%A0
in%C4%A0JS.%C4%A0%C4%8AAssistant:%C4%A0 let%C4%A0
ge .%C4%A0Dann%C4%A0
%C4%A0da zu.
t en.%C4%A0
O ft%C4%A0
Kann st%C4%A0du%C4%A0
kon tr
ist%C4%A0 sehr%C4%A0
erst ell
abzieh en.
for ma
ul l
?%C4%A0%C4%8AAssistant:%C4%A0 Er%C4%A0
t%C4%A0 mit%C4%A0
ent fern
c om
! %C4%A0
gro %C3%83%C5%81e%C4%A0
B eg
t u
Eur op
p la
Pro zen
Wet ter%C4%A0
lei f
S in
z ier
User:%C4%A0%C3%83%C4%BEbersetze%C4%A0ins%C4%A0Englische:%C4%A0Ich%C4%A0 hab
best%C3%83%C2%A4 tig
tier t%C4%A0
okumen tierst%C4%A0du%C4%A0
i de
auf gab
sp ek
ni mm
2 7
Ex per
h eit%C4%A0
ge m
,%C4%A0w enn%C4%A0
wer den.
User:%C4%A0Kon vertiere%C4%A0
b is%C4%A0
.%C4%A0%C4%8AAssistant:%C4%A0 C
F ar
,%C4%A0 passt%C4%A0
o e
.%C4%A0D anach%C4%A0
D eutsch
mach st%C4%A0du%C4%A0
e%C4%A0d as%C4%A0
w enig
pas st%C4%A0du%C4%A0
W ir
bi en.
M o
k art
Be weg
User:%C4%A0Wie%C4%A0ver m
M it
w ill%C4%A0
W el
Exper im
Elem en
Be schreib
Mu st
Pers on%C4%A0
sch ein
m erk
re f
al %C4%A0
?%C4%A0%C4%8AAssistant:%C4%A0D as%C4%A0
Au ss
%C3%83 %C2%B9
r %C3%83%C2%A4
ss ch
der t%C4%A0
a u%C4%A0
si erst%C4%A0du%C4%A0
Noti z
K %C3%83%C2%B6n
P rei
Sal z
st%C4%A0 von%C4%A0
M itt
de ut
d n
ig er%C4%A0
de fin
mu s?%C4%A0%C4%8AAssistant:%C4%A0
S%C3%83%C2%A4tz e.
t ausch
ber eit
en%C4%A0 mit%C4%A0
br ing
b all
i ff
i %C4%A0
Dat en?%C4%A0%C4%8AAssistant:%C4%A0Du%C4%A0
Qu elle%C4%A0
st%C4%A0du%C4%A0 auf%C4%A0
Gr %C3%83%C2%B6%C3%83%C5%81
beg inn
Ziel e.%C4%A0Dann%C4%A0
m ok
p utz
Kriteri en.%C4%A0Dann%C4%A0
Son ne%C4%A0
p ack
Geh ir
9 ,%C4%A0wie%C4%A0viel?%C4%A0%C4%8AAssistant:%C4%A0
User:%C4%A0Wie%C4%A0lern st%C4%A0du%C4%A0
i t%C4%A0
Bibliothe k
H %C3%83%C2%B6r
yo u
t%C4%A0 gut
%C4%A0-%C4%A0 1
y p
10 %C4%A0
P o
gr %C3%83%C2%B6%C3%83%C5%81
Ziel ,%C4%A0
ung en.%C4%A0Dann%C4%A0
Beispiel e%C4%A0
p l
G eld
bess er.
je kt
) {%C4%A0
F luss
St ad
hil f
lang sam
User:%C4%A0Wie%C4%A0 entsteht%C4%A0
%C4%A0%C3%83%C2%B7%C4%A0 5
wir kt%C4%A0
al l%C4%A0
pr ob
User:%C4%A0Wo%C4%A0lieg t%C4%A0der%C4%A0
u s.
Heu te%C4%A0ist%C4%A0
Or dn
um .%C4%A0Dann%C4%A0
sa m.
?%C4%A0%C4%8AAssistant:%C4%A0 M
Pflan zen%C4%A0
st%C4%A0 auf%C4%A0
ung ,%C4%A0
ni s%C4%A0
k %C3%83%C2%BC
ge s%C4%A0
Re v
g ang
S auerstoff
L in
qu est
it el
N am
Str u
h i
Ziel .%C4%A0Dann%C4%A0
Mon d
c tion
I %C4%A0
Kont in
Z imm
%C4%A0%C4%8AAssistant:%C4%A0 4
ung%C4%A0 von%C4%A0
war te
mach en%C4%A0
Di al
?%C4%A0%C4%8AAssistant:%C4%A0Du%C4%A0 machst%C4%A0
K li
De mok
K%C3%83%C2%B6r per%C4%A0
User:%C4%A0Wie%C4%A0 org
! %C4%A0%C4%8AAssistant:%C4%A0
K rieg
m %C3%83%C2%BC
setz en.
o ft%C4%A0
Konfli k
lo g
User:%C4%A0Wie%C4%A0st arte
Wir k
plan st%C4%A0
Sei te%C4%A0
%C4%A0d e%C4%A0
User:%C4%A0Wie%C4%A0d okumentierst%C4%A0du%C4%A0
sa g
r ichtig
ze p
s en.
Konfli kt
an isierst%C4%A0du%C4%A0
sch er
Ber lin
m eld
m ag
User:%C4%A0Wie%C4%A0org anisierst%C4%A0du%C4%A0
Entsch ul
z wei
Reihenfol ge%C4%A0
ge ?%C4%A0%C4%8AAssistant:%C4%A0
te ,%C4%A0
Guten%C4%A0 Morg
%C4%A0%C3%83%C4%B9%C4%A0 5
G ro
f ang
il .
M od
E -
ti ef
P aus
Ar beit
st att%C4%A0
User:%C4%A0Wie%C4%A0 fin
ing .
w%C3%83%C2%A4hl st%C4%A0du%C4%A0
2 4
6 %C4%A0%C3%83%C2%B7%C4%A0
f rik
Mu sik
Dat ei
und%C4%A0 W
hei %C3%83%C5%81e%C4%A0
reduz ierst%C4%A0du%C4%A0
ruck %C4%A0
g er
t%C4%A0d as%C4%A0
ra ti
k%C3%83%C2%BC hl
b e%C4%A0
h eu
K ein%C4%A0
ein%C4%A0B uch
J ahr
r aus
mis st%C4%A0
Ko mm
Fr ie
l%C3%83%C2%BC ss
?%C4%A0%C4%8AAssistant:%C4%A0 Nutze%C4%A0
Entschul dig
Thema %C4%A0
/ %C4%A0
Schrit te%C4%A0
sp%C3%83%C2%A4ter .%C4%A0%C4%8AAssistant:%C4%A0
E l
ak tiv
ot o
L ehr
e ff
Be ob
m ehr
p unk
in %C4%A0der%C4%A0
User:%C4%A0 7
Ge w
fr %C3%83%C2%BCh
bar .
.%C4%A0%C4%8AAssistant:%C4%A0 Nous%C4%A0
eu ch
n ur%C4%A0
F %C3%83%C2%A4l
w ech
flie%C3%83%C5%81 t%C4%A0
.%C4%A0D er%C4%A0
.%C4%A0 Eine%C4%A0
en c
Hal te%C4%A0
prior isierst%C4%A0du%C4%A0
min im
Prozen t%C4%A0von%C4%A0
imal a
lass en.
d en
En t
w ind
R %C3%83%C2%BCck
min us%C4%A0
bar %C4%A0
gibt%C4%A0 es%C4%A0
je den%C4%A0
t%C4%A0 B
ar ten%C4%A0
entsteh t%C4%A0durch%C4%A0
f ahr
For tsch
ol l%C4%A0
e m
hel p
- D
Proz ent
koch st%C4%A0du%C4%A0
brauch e%C4%A0H
= '
ha eng
R hy
il fe
Fortsch rit
1 3
n al
User:%C4%A01 0
Er st%C4%A0
arbei test%C4%A0du%C4%A0
Viel%C4%A0 Erfolg
.%C4%A0N e
K ul
For m
Zei ge%C4%A0
so le.
ess en%C4%A0
Plan et
el ?%C4%A0%C4%8AAssistant:%C4%A0
A ch
geht%C4%A0 es
Ge f%C3%83%C2%BC
I m%C4%A0
a y.
Wetter%C4%A0 ist%C4%A0
e%C4%A0is%C4%A0 the%C4%A0
Demok rati
1 6
Me er
User:%C4%A0 D
k u
un kt
.%C4%A0N icht%C4%A0
.%C4%A0 V
i on.
Schrit te?%C4%A0%C4%8AAssistant:%C4%A0Du%C4%A0
in form
Pro jekt
Rei se
Aufgab en.%C4%A0Dann%C4%A0
Mitt el
%C4%A0%C3%83%C4%B9%C4%A0 2
rei %C4%A0
B us%C4%A0
ar d.
hei%C3%83%C5%81e%C4%A0 Alex
b are%C4%A0
versteh e%C4%A0
our c
User:%C4%A01 2
teil st%C4%A0du%C4%A0
ig e%C4%A0
spiel en%C4%A0
F unktion
User:%C4%A0Wie%C4%A0 bau
Min ut
F ok
u te%C4%A0
qu e.
Gesch ich
bedeu tet%C4%A0
lek tr
Rhy th
Punk te.
sch w
.%C4%A0%C4%8AAssistant:%C4%A0I %C4%A0d
Ge b
.%C4%A0%C4%8AAssistant:%C4%A0Je%C4%A0su is%C4%A0
* x
Vari ab
Str om
.%C4%A0S o%C4%A0
isch e%C4%A0
au to
lie st%C4%A0die%C4%A0
Z eit%C4%A0
imala y
rau s?%C4%A0%C4%8AAssistant:%C4%A0
Ged ank
eh n%C4%A0
sor tier
h ui
m el
%C3%83%C2%BCb st%C4%A0du%C4%A0
ar d
hil ft%C4%A0
mit %C4%A0dem%C4%A0
nutz en.%C4%A0
Pers on
O bje
ar ch
m or
e%C4%A0 ein%C4%A0
User:%C4%A0Was%C4%A0 bedeutet%C4%A0
1 %C4%A0
%C3%83%C2%B6 ff
er%C4%A0 und%C4%A0
nutz en.
9 ,%C4%A0Ergebnis?%C4%A0%C4%8AAssistant:%C4%A0
quest ion.
kommt%C4%A0 raus?%C4%A0%C4%8AAssistant:%C4%A0
W %C3%83%C2%BC
e ck
f ik
au .
b rei
am%C4%A0 Ende.
B is%C4%A0
N or
zi fik
.%C4%A0%C4%8AAssistant:%C4%A0I l%C4%A0
u ali
%C4%A0-%C4%A0 5
Wer t.
v r
i o
it a
t%C4%A0m an%C4%A0
st%C4%A0du%C4%A0d as%C4%A0
Re ss
ung er
en b
Antwor t%C4%A0
Te am
A frik
sole. log
aus aufgab
g ramm
f as
gleich .
User:%C4%A0Was%C4%A0 war
ent ?%C4%A0%C4%8AAssistant:%C4%A0
lei t
si e
Pro gramm
ell en%C4%A0
L it
User:%C4%A0 7%C4%A0+%C4%A0
m us
sch %C3%83%C2%A4tz
Beob acht
.%C4%A0Ne un
In forma
m%C3%83%C2%BC de
entsteh t.
Viel%C4%A0Erfolg .%C4%A0%C4%8AAssistant:%C4%A0
c on
con sole.log
%C3%83%C2%A4r m
st ra
f%C3%83%C2%A4l l
anc e.
0 .%C4%A0
Zeit .%C4%A0Dann%C4%A0
Sch ul
helf en.%C4%A0%C4%8AAssistant:%C4%A0
B ud
HTML .%C4%A0%C4%8AAssistant:%C4%A0Nutze%C4%A0<
User:%C4%A0%C3%83%C4%BEbersetze%C4%A0ins%C4%A0Englische:%C4%A0Ich%C4%A0 bin%C4%A0
?%C4%A0%C4%8AAssistant:%C4%A0 Ver
ha elt%C4%A0
st%C4%A0du%C4%A0d ich%C4%A0
f i
c ri
20 .
Sch utz
Fehl er.
Kannst%C4%A0du%C4%A0 helfen.%C4%A0%C4%8AAssistant:%C4%A0
Kul tur
t.%C4%A0 Wir%C4%A0
p a
e%C4%A0H unger
viel %C4%A0
Ar ch
on lin
list est%C4%A0
ow %C4%A0
E lektr
brauche%C4%A0H ilfe
s icht
wer k
an k%C4%A0
Schrit t%C4%A0f%C3%83%C2%BCr%C4%A0
hal ten.
Plan %C4%A0
4 .
Ress ourc
j e%C4%A0
er warte
ben enn
si on%C4%A0
,%C4%A0wie%C4%A0viel?%C4%A0%C4%8AAssistant:%C4%A0 5
verstehe%C4%A0 nicht
r eh
T %C3%83%C2%BCr
st or
Pr%C3%83%C2%BCf ungs
ru h
8 .
.%C4%A0%C4%8AAssistant:%C4%A0Wher e%C4%A0is%C4%A0the%C4%A0
zu samm
User:%C4%A0%C3%83%C4%BEbersetze%C4%A0ins%C4%A0Franz%C3%83%C2%B6sische:%C4%A0Ich%C4%A0 bin%C4%A0
1 .
oe tig
ar r
Deutsch land
Ergebniss e.
Re ak
Fu%C3%83%C5%81 ball
A t
Ergebni s
le t
Sch lie%C3%83%C5%81
Zu sammen
stell st%C4%A0
H er
er lau
R el
ad d
ben oetig
ah ar
%C3%83%C2%A4h n
Alex .
sch lag
Ein f
f ai
Schritt%C4%A0f%C3%83%C2%BCr%C4%A0 Schritt.
wichtig .
i f
Wetter%C4%A0ist%C4%A0 sch%C3%83%C2%B6n
%C3%83%C2%A4 hr
b lock
Fenst er
g rupp
t%C4%A0 be
beschreib t%C4%A0
En de
Sch leif
en%C4%A0 w
,%C4%A0was%C4%A0 kommt%C4%A0raus?%C4%A0%C4%8AAssistant:%C4%A0
Sch w
auto mati
help .
Beg riff
Check list
pr ends%C4%A0
.%C4%A0%C4%8AAssistant:%C4%A0J' ai
mag %C4%A0
%C4%A0%C3%83%C4%B9%C4%A0 3,%C4%A0Ergebnis?%C4%A0%C4%8AAssistant:%C4%A0
kontr olli
s ist
geht%C4%A0es %C4%A0dir
h %C3%83%C2%B6
G eg
iz z
fu er%C4%A0
te t.
?%C4%A0%C4%8AAssistant:%C4%A0 N
li t
Energ ie%C4%A0
/ 5
ue tz
User:%C4%A0D u%C4%A0
sich erst%C4%A0du%C4%A0
bau st%C4%A0du%C4%A0
e%C4%A0eine%C4%A0 Frage
m en
An nahm
Szen en
ation .
tra in
at or
sp ann
el m
wiederhol st%C4%A0du%C4%A0
g %C3%83%C2%A4n
> <
l ad
l l%C4%A0
C an%C4%A0
Kon tex
t%C4%A0 im%C4%A0
User:%C4%A0Wie%C4%A0schreibe%C4%A0ich%C4%A0 %C3%83%C2%BCber%C4%A0
St und
e ?%C4%A0%C4%8AAssistant:%C4%A0Ein%C4%A0
%C4%A0-%C4%A0 7
mach en.
wir d
Kurz er%C4%A0
be wer
Frag e%C4%A0
ier en%C4%A0
Bud ge
Kl are%C4%A0
f un
t s
Neu e%C4%A0
Schlie%C3%83%C5%81 e%C4%A0die%C4%A0
schreib e%C4%A0eine%C4%A0
.%C4%A0Sech ser
%C4%A0 s
opp el
Guten%C4%A0Morg en.%C4%A0%C4%8AAssistant:%C4%A0
9 %C4%A0%C4%8AAssistant:%C4%A0
Schlie%C3%83%C5%81e%C4%A0die%C4%A0 T%C3%83%C2%BCr
ein em%C4%A0
S ahar
User:%C4%A0 (
er zeu
wer t
schreibe%C4%A0eine%C4%A0 E%C4%A0Mail
V ol
Wie%C4%A0 geht%C4%A0es%C4%A0dir
K%C3%83%C2%B6r per
ar te%C4%A0
User:%C4%A0 H
Risi k
Pflan z
me%C4%A0 la%C4%A0
B ah
ation ?%C4%A0%C4%8AAssistant:%C4%A0Du%C4%A0
un ter%C4%A0
mu li
F all
R %C3%83%C2%A4
ber ei
h %C4%A0
D ing
te%C4%A0d as%C4%A0
?%C4%A0%C4%8AAssistant:%C4%A0Ja.%C4%A0 1
el in
Can%C4%A0 you%C4%A0
A d
li ke%C4%A0
F l%C3%83%C2%A4
C on
te m%C4%A0
te mp
h e.
m org
en%C4%A0d urch%C4%A0
nenn st%C4%A0
en%C4%A0 ist%C4%A0
> </
.%C4%A0F%C3%83%C2%BCn f
geh en%C4%A0
anz %C4%A0
voll zieh
Vokab eln%C4%A0
in d%C4%A0
Bil der.
User:%C4%A0Wie%C4%A0schreibe%C4%A0ich%C4%A0 Figur
Zusammen fass
.%C4%A0Dann%C4%A0 vergleichst%C4%A0du%C4%A0
ig ra
ck en.
o u
sch le
en?%C4%A0%C4%8AAssistant:%C4%A0 St
Temp er
de st%C4%A0
yste m%C4%A0
zusamm en.
D ok
ab er%C4%A0
ver d
x %C4%A0
User:%C4%A0Fasse%C4%A0zusammen:%C4%A0Ich%C4%A0 lerne%C4%A0
en%C4%A0 haben%C4%A0
be steh
n t
W och
Eig en
2 %C4%A0+%C4%A0
Aut or
ag ramm
st a
Kon kre
){%C4%A0 console.log
ier en.%C4%A0
bedeu te
ist %C4%A0das%C4%A0
o c
S %C3%83%C2%BC
se ?%C4%A0%C4%8AAssistant:%C4%A0
H imalay
User:%C4%A0%C3%83%C4%BEbersetze%C4%A0ins%C4%A0Englische:%C4%A0Ich%C4%A0 komme%C4%A0
ich ti
kurz .
Ber g
ach ten.
L%C3%83%C2%A4n der%C4%A0
?%C4%A0%C4%8AAssistant:%C4%A0 L
or i
20 .%C4%A0
User:%C4%A0Was%C4%A0war %C4%A0die%C4%A0
F ol
Sch n
rei .
p li
en%C4%A0 sich%C4%A0
tro tz
Sch ne
de s
ung en?%C4%A0%C4%8AAssistant:%C4%A0
fe st
.%C4%A0Es%C4%A0 gibt%C4%A0
isi er
,%C4%A0 schnell
Zimm er%C4%A0
K in
de m%C4%A0
W or
Pro t
de s%C4%A0
e%C4%A0d en%C4%A0
%C4%A0 plus%C4%A0
sch ri
zeig en.%C4%A0
en%C4%A0 von%C4%A0
Me di
Haup tst
blei ben%C4%A0
rie ch
ge ?%C4%A0%C4%8AAssistant:%C4%A0Du%C4%A0
amer a%C4%A0
O ze
%C3%83%C2%A9 .
Experim ent
en%C4%A0 sich
n e%C4%A0das%C4%A0
st r
st opp
Bil der
b uch
Sin ne
Schrit te.%C4%A0Dann%C4%A0
y m
i p
P uf
Mach t%C4%A0
%C3%83%C2%A4 mpf
User:%C4%A01 1
P reis
a v
an aly
Geg en
klar .
t op
s%C4%A0 il%C4%A0
User:%C4%A0Wie%C4%A0schreibe%C4%A0ich%C4%A0 ein%C4%A0
for %C4%A0
end er%C4%A0
Bei %C4%A0
wei ch
V ul
kn %C3%83%C2%BC
Kein%C4%A0 Problem
.%C4%A0N ull%C4%A0
v ali
enig e%C4%A0
E- Mail
er min
ende s%C4%A0
User:%C4%A0Wie%C4%A0funktioniert%C4%A0 ein%C4%A0
t ard.
k an
en%C4%A0 vor
Ab sch
mi sch
Ab s
JS %C4%A0
.%C4%A0 Oft%C4%A0
schnell .
St at
Detail s%C4%A0
en?%C4%A0%C4%8AAssistant:%C4%A0Du%C4%A0 schreibst%C4%A0
an ke%C4%A0
H au
mark ierst%C4%A0du%C4%A0
User:%C4%A0Wie%C4%A0 reduzierst%C4%A0du%C4%A0
ak ter
schein lichk
L icht
zeich ne
temp s.
Aktion .
umen t.
t%C4%A0 sich
r y.
%C3%83%C2%BCr z
end en%C4%A0
ieder kehr
Per spek
10 ,%C4%A0dann%C4%A0
p or
St and
User:%C4%A0Wie%C4%A0schreibe%C4%A0ich%C4%A0 H
G leich
spielen%C4%A0 Fu%C3%83%C5%81ball
scha f
,%C4%A0 stimm
b %C3%83%C2%BCnd
er .%C4%A0Dann%C4%A0
Gra p
T ra
Sch l%C3%83%C2%BCss
Eur o
er p
U N
e%C4%A0ich%C4%A0 m
Ein heit%C4%A0
Ro ut
Kl asse%C4%A0
M igra
,%C4%A0stimm t%C4%A0
Mensch en.
Ge setz
u n%C4%A0
B lock
ne%C4%A0das%C4%A0 Fenster
An fang
S te
.%C4%A0%C4%8AAssistant:%C4%A0 Sp
W%C3%83%C2%BC st
ent haelt%C4%A0
el le
ti me.
Gr %C3%83%C2%BCn
K amera%C4%A0
W ort
User:%C4%A0%C3%83%C4%BEbersetze%C4%A0ins%C4%A0Franz%C3%83%C2%B6sische:%C4%A0Ich%C4%A0 lerne%C4%A0
ekt or
?%C4%A0%C4%8AAssistant:%C4%A0 In%C4%A0
User:%C4%A0Wie%C4%A0strukturierst%C4%A0du%C4%A0 ein%C4%A0
Kart ei
v i
Hauptst ad
k or
ha st%C4%A0
.%C4%A0%C4%8AAssistant:%C4%A0I%C4%A0 have%C4%A0
Aus nahm
Sch u
g .
.%C4%A0A d
S eit
'); %C4%A0}
rechne st%C4%A0du%C4%A0
N ord
en.%C4%A0 Ein%C4%A0
den%C4%A0 und%C4%A0
pr e
Aufgab en?%C4%A0%C4%8AAssistant:%C4%A0Du%C4%A0
ar n
%C4%A0+%C4%A0 7
8 %C4%A0+%C4%A0
er ci
be ding
w%C3%83%C2%A4hl en.%C4%A0
%C4%A0 eines%C4%A0
Sta a
p lo
User:%C4%A0%C3%83%C4%BEbersetze%C4%A0ins%C4%A0Franz%C3%83%C2%B6sische:%C4%A0Ich%C4%A0 komme%C4%A0
en.%C4%A0 Er%C4%A0
Absch luss
de ck
je k
3 .
e%C4%A0 Zeit
Be deut
e%C4%A0 pro%C4%A0
.%C4%A0Drei mal%C4%A0
%C3%83%C2%BCck .
Pass wor
Kal ender
n am
oto s
W %C3%83%C2%B6rter
b eh
kt ur%C4%A0
Hand el
od e%C4%A0
sch%C3%83%C2%BCtz en%C4%A0
Kl ass
zuerst .%C4%A0Dann%C4%A0
7 %C4%A0
ex am
startest%C4%A0 mit%C4%A0
um %C4%A0die%C4%A0
%C3%83%C2%B6ff ne
User:%C4%A0Wie%C4%A0 %C3%83%C2%BCbst%C4%A0du%C4%A0
se ch
n icht.
.%C4%A0%C4%8AAssistant:%C4%A0H ow%C4%A0
n %C3%83%C2%B6
e%C4%A0 est%C4%A0
User:%C4%A01 4
w %C3%83%C2%B6r
Detail s.
Auf wand
ass %C4%A0
m an%C4%A0
S ig
il ter
Fahrra d%C4%A0
spann end
w el
Ti pp
in %C4%A0den%C4%A0
To ol
bau st%C4%A0
B al
.%C4%A0 Ver
m an
T ermin
Pers on.
kon kre
h at
wech sel
Vul kan
T ei
helf en.
%C3%83%C2%A4 uf
.%C4%A0W ie%C4%A0viel
User:%C4%A0 Er
ma p
M ess
Sel bst
Quell en%C4%A0
ung%C4%A0 und%C4%A0
Rech ne%C4%A0
Gehir n%C4%A0
koch en%C4%A0
eu er
%C4%A0-%C4%A0 6
be w
Kartei kart
e%C4%A0ich%C4%A0 eine%C4%A0
al les%C4%A0
R und
t or
schau st%C4%A0auf%C4%A0
ahr scheinlichk
Zeit d
User:%C4%A0Wie%C4%A0planst%C4%A0du%C4%A0 einen%C4%A0
ref lek
User:%C4%A0Wie%C4%A0starte st%C4%A0du%C4%A0eine%C4%A0
%C3%83%C2%A4t ?%C4%A0%C4%8AAssistant:%C4%A0Du%C4%A0
/ 2
t.%C4%A0 Er%C4%A0
atur .
pr%C3%83%C2%BCf en.
mach t%C4%A0
Mon arch
Beispiel e.
User:%C4%A0Wie%C4%A0bau st%C4%A0du%C4%A0eine%C4%A0
ack up
S uch
schau st%C4%A0du%C4%A0auf%C4%A0
Aus gab
%C3%83%C2%A4 %C3%83%C5%81
User:%C4%A0%C3%83%C4%BEbersetze%C4%A0ins%C4%A0Englische:%C4%A0Ich%C4%A0 lerne%C4%A0
v ari
Rech te%C4%A0
b el
R om
L %C3%83%C2%BCck
sp%C3%83%C2%A4 ter.
9 .
je tz
ar f
f %C3%83%C2%A4hr
%C4%A0ist%C4%A0 eine%C4%A0
igk eit%C4%A0
User:%C4%A0Wie%C4%A0 ordnest%C4%A0du%C4%A0
reg eln%C4%A0
User:%C4%A0Wie%C4%A0 priorisierst%C4%A0du%C4%A0
Su bje
V oll
k lick
re ad
st .%C4%A0
t%C3%83%C2%A4g lich.
12 .
schn it
User:%C4%A0Wie%C4%A0planst%C4%A0du%C4%A0 ein%C4%A0
nach vollzieh
%C4%A0 im%C4%A0
ei se%C4%A0
folg t%C4%A0
F el
%C3%83%C4%B8 ff
Informa tik
elm %C3%83%C2%A4%C3%83%C5%81
et was%C4%A0
en%C4%A0 Sch
9 %C4%A0-%C4%A0
F akt
en %C4%A0die%C4%A0
Ergebni s%C4%A0
t%C4%A0 E
%C3%83%C2%B6 l
B au
.%C4%A0%C4%8AAssistant:%C4%A0 Fr
V ektor
Wiederhol ung%C4%A0
?%C4%A0%C4%8AAssistant:%C4%A0Du%C4%A0 pr%C3%83%C2%BCf
st ant
wei ter.
e%C4%A0d er%C4%A0
you .
st%C4%A0du%C4%A0 ein%C4%A0
Bah n
lan ge%C4%A0
Bon ne%C4%A0
w%C3%83%C2%A4hl en.
Menschen%C4%A0 w%C3%83%C2%A4hl
ch%C4%A0 mit%C4%A0
tiv e?%C4%A0%C4%8AAssistant:%C4%A0
Z ahl%C4%A0
User:%C4%A0Wie%C4%A0 %C3%83%C2%BCber
B lick
mal %C4%A0d
Temp o%C4%A0
kurz .%C4%A0Dann%C4%A0
Ver sion
' %C4%A0
wir k
User:%C4%A0Warum%C4%A0 brauch
K et
en?%C4%A0%C4%8AAssistant:%C4%A0Du%C4%A0 machst%C4%A0
T %C3%83%C2%A4g
Ein gab
Pr%C3%83%C2%BCf ung
ko ste
1 4
S ystem%C4%A0
J ack
eid e%C4%A0ich%C4%A0
7 %C4%A0%C3%83%C2%B7%C4%A0
st%C4%A0 B
st re
?%C4%A0%C4%8AAssistant:%C4%A0 St
t anz
User:%C4%A0Was%C4%A0ist%C4%A0ein%C4%A0 Re
zieh en%C4%A0
mu si
Ziel e.%C4%A0
ra f
hat%C4%A0 eine%C4%A0
Re st%C4%A0
x i
helf en%C4%A0
ad dier
JS O
ek te%C4%A0
Lern ziel
.%C4%A0 Keine%C4%A0
ungen%C4%A0 um?%C4%A0%C4%8AAssistant:%C4%A0Du%C4%A0
Lern en%C4%A0
ho f
ver kn%C3%83%C2%BC
EU R
User:%C4%A0Was%C4%A0ist %C4%A0das%C4%A0
Tipp %C4%A0f%C3%83%C2%BCr%C4%A0
Fig ur%C4%A0
Hinwei se%C4%A0
Wer te%C4%A0
%C3%83%C2%BCn st
N ull
pr o
Elem ent%C4%A0
w ur
Ab end
b ark
en%C4%A0 auf
frag st%C4%A0
ai ser
ti ck
sich er
ma il.
fin dest%C4%A0
Co mm
M a
?%C4%A0%C4%8AAssistant:%C4%A0Eine%C4%A0 Person%C4%A0
te st%C4%A0
kl%C3%83%C2%A4r st%C4%A0
Reak tion
n %C3%83%C2%A4ch
H imm
User:%C4%A0 20
Heute%C4%A0ist%C4%A0 Mon
Staat en.%C4%A0
unk tion%C4%A0
%C3%83 %C2%AE
c lass
mag%C4%A0 Musik
Bu ch%C4%A0
B un
zen e?%C4%A0%C4%8AAssistant:%C4%A0
Mat he
si eh
um ent
r icht
e%C4%A0 G
User:%C4%A0Wie%C4%A0 plan
User:%C4%A0Wie%C4%A0st eu
Lern en?%C4%A0%C4%8AAssistant:%C4%A0Du%C4%A0
Eine%C4%A0 Fahr
ma li
%C4%A0die%C4%A0 Pr%C3%83%C2%BCfung
?%C4%A0%C4%8AAssistant:%C4%A0Du%C4%A0 nennst%C4%A0
ver bess
en%C4%A0w ir%C4%A0
ne%C4%A0das%C4%A0Fenster .%C4%A0%C4%8AAssistant:%C4%A0O
la tz
spar sam.
ap top
Spann ung%C4%A0
ant .
or t.
g en.
b t.
wind ow
t ud
Al ar
trinke%C4%A0 Te
Se e%C4%A0
%C4%A0%C3%83 %C4%A6
er%C4%A0 auf
( x
H und%C4%A0
be such
2 %C4%A0-%C4%A0
i ck
steig t%C4%A0
begr enz
Pr%C3%83%C2%BCf ung%C4%A0ist%C4%A0
wenig er.
d oc
.%C4%A0%C4%8AAssistant:%C4%A0I%C4%A0 ne
en %C4%A0das%C4%A0
%C4%A0+%C4%A05 %C4%A0=%C4%A0
h ank%C4%A0
t,%C4%A0 be
sa me%C4%A0
?%C4%A0%C4%8AAssistant:%C4%A0D at
such e%C4%A0
ung .%C4%A0%C4%8AAssistant:%C4%A0
Zug riff
en ?
Pass end%C4%A0
en%C4%A0 einen%C4%A0
er z%C3%83%C2%A4hl
t%C4%A0 under
t,%C4%A0be vor%C4%A0
a se.
Ver gleich
st en%C4%A0
f%C3%83%C2%BCr %C4%A0die%C4%A0Pr%C3%83%C2%BCfung
Logi k
kurz .%C4%A0
so in
speich erst%C4%A0du%C4%A0
Ein heit
um .
ck sa
K lick
ci le.
jour d%C4%A0
w ohn
B lu
UN O
,%C4%A0wie%C4%A0viel?%C4%A0%C4%8AAssistant:%C4%A0 15
W iss
Kopf h%C3%83%C2%B6r
%C3%83%C2%B9 %C4%A0est%C4%A0
Inter net
jourd%C4%A0 hui
en%C4%A0 f%C3%83%C2%BCr%C4%A0
ck et
mark ierst%C4%A0
d r
Er de
reg ier
Prei se%C4%A0
t%C4%A0 zu%C4%A0
mal%C4%A0d rei.
Migra tion
niss e%C4%A0
ck er%C4%A0
or .
Er%C4%A0 liest%C4%A0
gel %C3%83%C2%B6
H%C3%83%C2%B6 ch
A ender
JSO N
t%C4%A0E ver
ern .
mi t.
User:%C4%A0Wie%C4%A0planst%C4%A0du%C4%A0 Daten
%C4%A0ist%C4%A0 30
cksa ck
tu t%C4%A0m
User:%C4%A02 5
ot ok
Wet ter
25 %C4%A0
%C4%A0%C3%83%C2%B7%C4%A0 4
%C3%83%C2%A4nder n%C4%A0
Er wart
o f
Reihenfol ge.
M asse%C4%A0
sch uetz
%C4%A0%C3%83%C4%B9%C4%A0 (
wur de%C4%A0
um ,%C4%A0
wiederhol st%C4%A0
s en%C4%A0
.%C4%A0%C4%8AAssistant:%C4%A0I%C4%A0ne e
Tex t
L aptop
Info s%C4%A0
f lu
S o
W ahrscheinlichk
Ko hl
Reg en
User:%C4%A0 L
Noti zen%C4%A0
a ge.
zeig en.
lo ss
Wasser%C4%A0 und%C4%A0
w al
Rout in
al le
Bahn hof
en t.
ver schied
3 .%C4%A0
30 .%C4%A0Zehner%C4%A0
User:%C4%A0Wie%C4%A0 be
.%C4%A0M org
Viel%C4%A0 Spa%C3%83%C5%81
en%C4%A0 oder%C4%A0
up .
entsch eidest%C4%A0du%C4%A0
Beding ungen%C4%A0
Fr ist
einf luss
un e%C4%A0
.%C4%A0Neu e%C4%A0
erkl%C3%83%C2%A4r t%C4%A0
a.%C4%A0 Er%C4%A0
.%C4%A0A us%C4%A0
ist%C4%A0der%C4%A0 Bahnhof
t%C4%A0under stand
c us
erp er.
sch utz
en.%C4%A0 Wir%C4%A0
User:%C4%A0Wie%C4%A0schreib st%C4%A0du%C4%A0eine%C4%A0
User:%C4%A0Wie%C4%A0schreibe%C4%A0ich%C4%A0 Szenen
6 .
i der
Temper atur.
Gef%C3%83%C2%BC h
e%C4%A0 la%C4%A0
og ?%C4%A0%C4%8AAssistant:%C4%A0
spr ech
P h
Frie den%C4%A0und%C4%A0
d iere%C4%A0
List e.%C4%A0Dann%C4%A0
t%C4%A0ist%C4%A0 es
Es%C4%A0 gibt%C4%A0
User:%C4%A0Wie%C4%A0verm eidest%C4%A0du%C4%A0
Gruppen arbei
un t%C4%A0Ever
t%C4%A0 sie.
%C3%83%C4%BEber schri
User:%C4%A0%C3%83%C4%BEbersetze%C4%A0ins%C4%A0Franz%C3%83%C2%B6sische:%C4%A0Wo%C4%A0 ist%C4%A0die%C4%A0
F il
b st.
Tr an
reg elm%C3%83%C2%A4%C3%83%C5%81
ab h%C3%83%C2%A4ng
0 %C4%A0%C3%83%C2%B7%C4%A0
%C4%A0%C4%8AAssistant:%C4%A0 9
ib %C4%A0
heu te
lief ert%C4%A0
uali sier
Dat um.%C4%A0Dann%C4%A0
Aut o
.%C4%A0%C4%8AAssistant:%C4%A0T hat%C4%A0
Ar ra
trinke%C4%A0 Wasser
Mod ell
Lit er
,%C4%A0schnell ?%C4%A0%C4%8AAssistant:%C4%A0
akter i
stre u
be ob
%C3%83%C4%B8ff ne%C4%A0das%C4%A0Fenster.%C4%A0%C4%8AAssistant:%C4%A0O
y nt
S ter
){%C4%A0console.log ('
inn er
Stru ktur%C4%A0
D a
st ?%C4%A0%C4%8AAssistant:%C4%A0
e a
ute%C4%A0 Nach
B und%C4%A0
antwor t
t%C4%A0 aus%C4%A0
er r
L A
ei de%C4%A0
In sel
M ark
Ab schnit
l%C3%83%C2%B6 ck
f .
k auf
Hal b
lei d
igk eit.
L %C3%83%C2%A4nder
%C3%83%C2%BC ll%C4%A0
ar %C4%A0
%C3%83 %C2%AA
er -
aus %C4%A0der%C4%A0
.%C4%A0%C4%8AAssistant:%C4%A0J%C4%A0ai %C4%A0
schle ch
%C4%A0%C3%83 %C2%A9
b ell
e%C4%A0 werden%C4%A0
%C3%83%C2%BCll%C4%A0 raus
sp%C3%83%C2%A4 t
stand .%C4%A0Dann%C4%A0
err scher
l '
t en.%C4%A0Dann%C4%A0
?%C4%A0%C4%8AAssistant:%C4%A0Du%C4%A0 listest%C4%A0
User:%C4%A0 Ein%C4%A0
st off
ei m
Tei le.%C4%A0Dann%C4%A0
11 .
An f%C3%83%C2%BChr
z ahl
Z wei
Europ a.
Risi ko
ab .%C4%A0Dann%C4%A0
koste t%C4%A0d
ir%C4%A0 leid
K ap
L%C3%83%C2%A4n ge%C4%A0
eine%C4%A0 Zeit
benenn st%C4%A0du%C4%A0
An teil
%C4%A0be soin
Himalay a
Ko m
orit h
N il
gen au
en?%C4%A0%C4%8AAssistant:%C4%A0Du%C4%A0 setzt%C4%A0
%C3%83 %C2%A8
sp%C3%83%C2%A4 t%C4%A0ist%C4%A0es
User:%C4%A0Was%C4%A0ist%C4%A0ein%C4%A0 Kontin
her r
.%C4%A0 Wasser%C4%A0
User:%C4%A0Wie%C4%A0schreibe%C4%A0ich%C4%A0 T
Aus flu
ar stell
D anke%C4%A0
Rev ie
.%C4%A0S ie
%C4%A0%C4%8AAssistant:%C4%A0 8
O ma
en%C4%A0 k
Wie%C4%A0 sp%C3%83%C2%A4t%C4%A0ist%C4%A0es
P izz
Di kt
Re c
Wer te.%C4%A0Dann%C4%A0
Te ch
le b
sch %C4%A0
pass end
hei %C3%83%C5%81
Reihenfol ge
Sti mm
Le ben
reflek tiert%C4%A0
e?%C4%A0%C4%8AAssistant:%C4%A0Du%C4%A0 pr%C3%83%C2%BCfst%C4%A0
a zier
User:%C4%A0Wie%C4%A0 sicherst%C4%A0du%C4%A0
z on
a s?%C4%A0%C4%8AAssistant:%C4%A0
s zeit
Sy m
li k
m ein
ute%C4%A0Nach t.%C4%A0%C4%8AAssistant:%C4%A0
Info s.
ma zon
ul ti
,%C4%A0wie%C4%A0viel?%C4%A0%C4%8AAssistant:%C4%A0 10
f lex
en.%C4%A0Dann%C4%A0 suchst%C4%A0du%C4%A0
Er z%C3%83%C2%A4hl
Su mm
Kal te%C4%A0
si e.%C4%A0Dann%C4%A0
Bis%C4%A0 sp%C3%83%C2%A4ter.%C4%A0%C4%8AAssistant:%C4%A0
?%C4%A0%C4%8AAssistant:%C4%A0Die%C4%A0 Erde%C4%A0
lich ?%C4%A0%C4%8AAssistant:%C4%A0
User:%C4%A0Wie%C4%A0steu erst%C4%A0du%C4%A0
F unktion%C4%A0
trag %C4%A0
Frag en.
Di agramm
o ut
t%C4%A0 ab
.%C4%A0%C4%8AAssistant:%C4%A0C %C4%A0est%C4%A0
Entschuldig ung.%C4%A0%C4%8AAssistant:%C4%A0
der e%C4%A0
r%C3%83%C2%A4 um
er v
g o
st%C4%A0du%C4%A0dich%C4%A0 sel
?%C4%A0%C4%8AAssistant:%C4%A0 B
b rech
Them en.
Sch all
v oll%C4%A0
ulti pli
Rech te.
Aut o%C4%A0
D arstell
cus e%C4%A0
Re de%C4%A0
sch in
en er%C4%A0
gu t.
0.%C4%A0 Alles%C4%A0
User:%C4%A0W el
%C3%83%C2%A4nder t%C4%A0nicht
sor tierst%C4%A0du%C4%A0
B it
.%C4%A0D ein%C4%A0
Hin der
P ri
ist%C4%A0 einfach
ver m
t d
%C3%83%C2%AE t.
k arte%C4%A0
berei test%C4%A0du%C4%A0
Pa zifik
Ka tze%C4%A0
and el
Zeit en%C4%A0
ein%C4%A0 und%C4%A0
, %C4%A0die%C4%A0
defin ierst%C4%A0du%C4%A0
Sp ort
Prot ok
M ach%C4%A0
Menschen%C4%A0w%C3%83%C2%A4hl en%C4%A0
otos ynt
St off
beob ach
%C4%A0%C4%8AAssistant:%C4%A0 0.
ig in
Ab l
Schu le
to i%C4%A0
nenn en.
kl ing
G ute%C4%A0Nacht.%C4%A0%C4%8AAssistant:%C4%A0
Konflik te%C4%A0
b lau
P unkt
M al
gro%C3%83%C5%81 er%C4%A0
Ende .%C4%A0Dann%C4%A0
Good%C4%A0 mor
en%C4%A0 werden%C4%A0
h eit.
Te am%C4%A0
Su pp
B l
D in
Al g
f%C3%83%C2%BC ll
ord n
te g
tr ie
.%C4%A0S p
Null .
3 %C4%A0%C3%83%C4%B9%C4%A04
ma %C4%A0
doc ument.
Alg orith
User:%C4%A0Wie%C4%A0st opp
In f
.%C4%A0Morg en%C4%A0ist%C4%A0
Ru he
a si
User:%C4%A0Wie%C4%A0schreibe%C4%A0ich%C4%A0 P
Mach%C4%A0 bit
den ti
Heute%C4%A0ist%C4%A0Mon tag
kl einen%C4%A0
Bil der%C4%A0
notier st%C4%A0
b en.
%C4%A0%C4%8AAssistant:%C4%A0 5
alita et%C4%A0
Mach%C4%A0bit te%C4%A0das%C4%A0
Logi k%C4%A0
i v
Vol um
K ern
User:%C4%A01 5
,%C4%A0wie%C4%A0viel?%C4%A0%C4%8AAssistant:%C4%A0 9
stud iere%C4%A0
pr otok
Tech ni
bei%C4%A0 n
fre und
st elle%C4%A0
Mittel wer
Me et
Hand y%C4%A0
sch lie%C3%83%C5%81
ens ystem
end en.
at ?%C4%A0%C4%8AAssistant:%C4%A0
zu .%C4%A0%C4%8AAssistant:%C4%A0
lern en%C4%A0
le ase%C4%A0
ser %C4%A0
ti re
Mo unt%C4%A0Ever
sich%C4%A0 in%C4%A0
er er%C4%A0
P ap
M il
Z ehn
.%C4%A0 Klare%C4%A0
.%C4%A0W as%C4%A0
z ur
Hauptstad t%C4%A0von%C4%A0
w %C3%83%C2%A4ch
User:%C4%A0Wie%C4%A0schreibe%C4%A0ich%C4%A0eine%C4%A0 Szen
ber h
N om
?%C4%A0%C4%8AAssistant:%C4%A0Du%C4%A0teil st%C4%A0in%C4%A0
m us%C4%A0
F a
User:%C4%A0Wie%C4%A0 definierst%C4%A0du%C4%A0
window .
vali d
Unterr icht%C4%A0
leb end
en%C4%A0 W
berh aup
Nach richt
te s
ie tsch
M ehr
User:%C4%A0Wie%C4%A0schreibe%C4%A0ich%C4%A0 ohne%C4%A0
.%C4%A0%C4%8AAssistant:%C4%A0That%C4%A0 is%C4%A0
Ergebnis :%C4%A0
Ab satz
zeu ge%C4%A0
karte%C4%A0 bitte.%C4%A0%C4%8AAssistant:%C4%A0
s mus?%C4%A0%C4%8AAssistant:%C4%A0
Oze an
%C3%83%C2%A4nder st%C4%A0
e%C4%A0 fest.
e uf
ho ch
ali t
An aly
%C4%A0du%C4%A0 temps.
s%C4%A0 und%C4%A0
?%C4%A0%C4%8AAssistant:%C4%A0Du%C4%A0 vergleichst%C4%A0
at m
Sinne s
User:%C4%A01 3
wenig %C4%A0
kehr .%C4%A0
haben%C4%A0 Zeit
.%C4%A0%C4%8AAssistant:%C4%A0J %C4%A0
zieh t%C4%A0
Mag net
,%C4%A0w ie%C4%A0
Sie%C4%A0 f%C3%83%C2%A4hr
scha ft%C4%A0
Ex cuse%C4%A0
v a.
s%C4%A0il%C4%A0 te%C4%A0
in ter
tr %C3%83%C2%A4g
f rei
tut%C4%A0m ir%C4%A0leid
Einheit%C4%A0 fuer%C4%A0
User:%C4%A0Wie%C4%A0 lie
lich es%C4%A0
Punk te%C4%A0
B us
zur %C3%83%C2%BCck.
mis st%C4%A0du%C4%A0
F rei
Z wei%C4%A0
Ver ben%C4%A0
User:%C4%A0Wie%C4%A0 train
sa b
> %C4%A0
Ab l%C3%83%C2%A4uf
Ergebni s.
Ko erper.
Gesch ichte?%C4%A0%C4%8AAssistant:%C4%A0
Re p
on s
t%C4%A0 L
Revie w
Ak tiv
User:%C4%A0Wie%C4%A0schreibe%C4%A0ich%C4%A0 S
ali smus?%C4%A0%C4%8AAssistant:%C4%A0
K aiser
Seite%C4%A0 l%C3%83%C2%A4d
reduz iert%C4%A0
ig it
.%C4%A0%C4%8AAssistant:%C4%A0I%C4%A0nee d%C4%A0
User:%C4%A03 %C4%A0%C3%83%C4%B9%C4%A0
W ar
en.%C4%A0 Keine%C4%A0
tr eff
%C4%A0%C4%8AAssistant:%C4%A0 6
teste st%C4%A0
Es%C4%A0 tut%C4%A0mir%C4%A0leid
Good%C4%A0mor n
best%C3%83%C2%A4tig st%C4%A0du%C4%A0
?%C4%A0%C4%8AAssistant:%C4%A0Du%C4%A0 setzt%C4%A0
C ode%C4%A0
at h
wir d.
Zimmer%C4%A0 ist%C4%A0
User:%C4%A01 8%C4%A0%C3%83%C2%B7%C4%A0
b lick
al ten%C4%A0
ein s%C4%A0
k ri
einfach e%C4%A0
Eine%C4%A0Fahr karte%C4%A0bitte.%C4%A0%C4%8AAssistant:%C4%A0
Ti cket
stab il
studiere%C4%A0 Informatik
z ehn%C4%A0
pla %C3%83%C2%AEt.
st%C4%A0du%C4%A0 nach%C4%A0
ach e%C4%A0
tud ie%C4%A0
otosynt he
Ru cksack
Al te%C4%A0
N enn
8 %C4%A0
7 .
User:%C4%A0Wie%C4%A0verm eide%C4%A0ich%C4%A0
Schl%C3%83%C2%BCss el
trenn t%C4%A0
.%C4%A0%C4%8AAssistant:%C4%A0O %C3%83%C2%B9%C4%A0est%C4%A0
Hinwei se
kostet%C4%A0d as
en tier
um%C4%A0 und%C4%A0
Str a
bleibt%C4%A0 gleich.
morg en.%C4%A0%C4%8AAssistant:%C4%A0
Z y
M iss
e au.
Ab haeng
Neu es%C4%A0
ier t%C4%A0die%C4%A0
en%C4%A0d ar
lau si
me%C4%A0 f
for%C4%A0 the%C4%A0
J ah
.%C4%A0Sie ben
K an
Gesetz e.
Star t%C4%A0und%C4%A0
analy sierst%C4%A0du%C4%A0
Spa%C3%83%C5%81 .
W ichti
jour nal
Erde .%C4%A0
User:%C4%A0Fasse%C4%A0zusammen:%C4%A0 Es%C4%A0
Wasser%C4%A0 ge
st%C4%A0du ,%C4%A0
s ent
stud y%C4%A0
te st
User:%C4%A0%C3%83%C4%BEbersetze%C4%A0ins%C4%A0Franz%C3%83%C2%B6sische:%C4%A0Das%C4%A0 Wetter%C4%A0ist%C4%A0sch%C3%83%C2%B6n
7 5
sch%C3%83%C2%A4tz t%C4%A0du%C4%A0
gen au%C4%A0
anc e?%C4%A0%C4%8AAssistant:%C4%A0
User:%C4%A0%C3%83%C4%BEbersetze%C4%A0ins%C4%A0Franz%C3%83%C2%B6sische:%C4%A0Das%C4%A0Wetter%C4%A0ist%C4%A0sch%C3%83%C2%B6n .%C4%A0%C4%8AAssistant:%C4%A0Il%C4%A0
protok olli
?%C4%A0%C4%8AAssistant:%C4%A0 Im%C4%A0
er es%C4%A0
e%C4%A0 ist%C4%A0
ch -
us .%C4%A0Dann%C4%A0
mit%C4%A0 einer%C4%A0
?%C4%A0%C4%8AAssistant:%C4%A0Du%C4%A0 geh
einfach ?%C4%A0%C4%8AAssistant:%C4%A0
Wie%C4%A0 kann%C4%A0
bo is
Beding ung%C4%A0
abh%C3%83%C2%A4ng ig.
De fin
sch ei
t%C4%A0 W
En er
e%C4%A0eine%C4%A0Frage .%C4%A0%C4%8AAssistant:%C4%A0I%C4%A0have%C4%A0
Jah re
F ak
im%C4%A0 Staat
is%C4%A0 ni
Ma schin
fai m.
pr%C3%83%C2%BCf en.%C4%A0
m ess
se ?%C4%A0%C4%8AAssistant:%C4%A0Du%C4%A0
User:%C4%A0Wie%C4%A0ver bess
Schreib e%C4%A0
se%C4%A0 th
L an
st%C4%A0 sie%C4%A0
R %C3%83%C2%A4t
,%C4%A0w ir%C4%A0
minim ierst%C4%A0du%C4%A0
T ro
Ko st
w%C3%83%C2%A4hl te%C4%A0
User:%C4%A0Was%C4%A0 sind%C4%A0
Schw ier
%C4%A0defin iert%C4%A0
Be d
User:%C4%A0Was%C4%A0 tu
und %C4%A0d
%C3%83%C2%A4ndert%C4%A0nicht s.
sen si
weg en%C4%A0
.%C4%A0%C4%8AAssistant:%C4%A0I%C4%A0am%C4%A0 tire
gu t%C4%A0
?%C4%A0%C4%8AAssistant:%C4%A0 %C3%83%C4%BEber
frag st%C4%A0nach%C4%A0
D ich
,%C4%A0wie%C4%A0viel?%C4%A0%C4%8AAssistant:%C4%A0 6
User:%C4%A0Wie%C4%A0mach st%C4%A0du%C4%A0
mo der
Kurz %C4%A0und%C4%A0
st%C4%A0du%C4%A0dich%C4%A0sel bst.
Wahrscheinlichk eit%C4%A0
Funktion en.
g ern%C4%A0
e as
jeden%C4%A0 Tag
tz %C4%A0d
Pflan zen
u tion
7 ,%C4%A0wie%C4%A0viel?%C4%A0%C4%8AAssistant:%C4%A02
o t.
be komm
) %C4%A0%C3%83%C2%B7%C4%A0
e .%C4%A0Sie%C4%A0
Plan %C4%A0f%C3%83%C2%BCr%C4%A0
f en
tig u
%C4%A0 ein%C4%A0
en ?%C4%A0%C4%8AAssistant:%C4%A0Du%C4%A0definierst%C4%A0
Br %C3%83%C2%BCch
mit%C4%A0 Karteikart
Re stor
sie ben.
Fehl er?%C4%A0%C4%8AAssistant:%C4%A0Du%C4%A0
Frie den.
B et
Far ben%C4%A0
nehm en%C4%A0
User:%C4%A0%C3%83%C4%BEbersetze%C4%A0ins%C4%A0Franz%C3%83%C2%B6sische:%C4%A0Ich%C4%A0 verstehe%C4%A0nicht
User:%C4%A0Wie%C4%A0schreib st%C4%A0du%C4%A0
st and%C4%A0
form en.%C4%A0
User:%C4%A0Was%C4%A0ist%C4%A0die%C4%A0 EU
te%C4%A0d ie%C4%A0
al%C4%A0 eins%C4%A0
F er
P se
?%C4%A0%C4%8AAssistant:%C4%A0Du%C4%A0pr%C3%83%C2%BCf st%C4%A0die%C4%A0
ing s%C4%A0
ier ung.
sche s%C4%A0
fa tigu
F%C3%83%C2%BC r%C4%A0
Wel t.
.%C4%A0 Alle%C4%A0
hei%C3%83%C5%81e%C4%A0Alex .%C4%A0%C4%8AAssistant:%C4%A0M
User:%C4%A0Was%C4%A0ist%C4%A0ein%C4%A0 Staat
F%C3%83%C2%BC ll
neu tr
e?%C4%A0%C4%8AAssistant:%C4%A0Du%C4%A0 schreibst%C4%A0
br ich
ul ar
D uf
sech s.
Pse ud
Medi an%C4%A0
Nutz er
?%C4%A0%C4%8AAssistant:%C4%A0J a
e .%C4%A0Die%C4%A0
Must er.
Schlie%C3%83%C5%81e%C4%A0die%C4%A0T%C3%83%C2%BCr .%C4%A0%C4%8AAssistant:%C4%A0C
V olk
.%C4%A0Ad diere%C4%A0
P lausi
Z ell
igit ale%C4%A0
Ge st
ok .
urch %C4%A0die%C4%A0
Mon d%C4%A0
.%C4%A0Neun er%C4%A0in%C4%A0
Meet ing%C4%A0
Pa ar
Ablauf ?%C4%A0%C4%8AAssistant:%C4%A0Du%C4%A0
.%C4%A0Dann%C4%A0 suchst%C4%A0du%C4%A0
Auto%C4%A0 ist%C4%A0
User:%C4%A0Warum%C4%A0 gibt%C4%A0es%C4%A0
ung%C4%A0 aus%C4%A0
vr e%C4%A0la%C4%A0
beobach te
?%C4%A0%C4%8AAssistant:%C4%A0 Es%C4%A0
erst%C4%A0du%C4%A0 einen%C4%A0
See%C4%A0 you%C4%A0
st%C4%A0d ich%C4%A0
k eit
Entscheid ung.
ko m
reich .
alita et
User:%C4%A0Wie%C4%A0lern e%C4%A0ich%C4%A0
Kli sche
at e%C4%A0
H%C3%83%C2%B6ch ste%C4%A0
Ein leit
m at
Ab stra
g st%C4%A0du%C4%A0
neu er%C4%A0
en.%C4%A0 Wiederhol
User:%C4%A0%C3%83%C4%BEbersetze%C4%A0ins%C4%A0Englische:%C4%A0Ich%C4%A0 brauche%C4%A0Hilfe
Team .
g .%C4%A0%C4%8AAssistant:%C4%A0
User:%C4%A0 Pr%C3%83%C2%BCf
Sprach e%C4%A0
en.%C4%A0Sie%C4%A0 zeigt%C4%A0
um%C4%A0 Beispiel
verm eidest%C4%A0du%C4%A0
el eg
t%C4%A0understand .
20 0
User:%C4%A0%C3%83%C4%BEbersetze%C4%A0ins%C4%A0Englische:%C4%A0 Viel%C4%A0Erfolg.%C4%A0%C4%8AAssistant:%C4%A0
Konfli kt%C4%A0
%C3%83%C2%BCck e.%C4%A0
er t
ste%C4%A0 Schritte.
n on
.%C4%A0%C4%8AAssistant:%C4%A0J' %C3%83%C2%A9
9 .%C4%A0
.%C4%A0%C4%8AAssistant:%C4%A0I%C4%A0 like%C4%A0
k %C3%83%C2%BCrz
si d
le arn
D au
mp f%C4%A0
User:%C4%A0%C3%83%C4%BEbersetze%C4%A0ins%C4%A0Englische:%C4%A0Ich%C4%A0 hei%C3%83%C5%81e%C4%A0Alex.%C4%A0%C4%8AAssistant:%C4%A0M
fall en.
kon sist
f ra
qu ator
punk te.%C4%A0Dann%C4%A0
w as
ge teste
P lu
pa s.
al le.
User:%C4%A0%C3%83%C4%BEbersetze%C4%A0ins%C4%A0Englische:%C4%A0Ich%C4%A0hab e%C4%A0Hunger
F%C3%83%C2%A4l le.%C4%A0Dann%C4%A0
othe se
g st%C4%A0
K%C3%83%C2%B6n ig
Wel t
bar%C4%A0 machen.
G el
Luf t.
f ilter
Aufgab en%C4%A0
Bus%C4%A0 kommt%C4%A0
besteh t%C4%A0aus%C4%A0
i eh
ction (
neu e%C4%A0
une%C4%A0 question.
?%C4%A0%C4%8AAssistant:%C4%A0D er%C4%A0
ahr .
User:%C4%A0Fasse%C4%A0zusammen:%C4%A0Wir%C4%A0 machen%C4%A0
Ding e%C4%A0
Engli sch
Rev ol
.%C4%A0%C4%8AAssistant:%C4%A0J%C4%A0ai %C4%A0besoin
Paus en%C4%A0
Reg el.
Le ist
ig .%C4%A0Dann%C4%A0
h t.
amer ik
te s.
Schwier igkeit.
e%C4%A0 ver
ich %C4%A0d
User:%C4%A0Wie%C4%A0schreibe%C4%A0ich%C4%A0 Ne
.%C4%A0%C4%8AAssistant:%C4%A0Je%C4%A0 vi
kt ,%C4%A0
Sch wei
N A
schuetz t%C4%A0
User:%C4%A0Was%C4%A0ist%C4%A0die%C4%A0 UNO
wohn st%C4%A0du
.%C4%A0%C4%8AAssistant:%C4%A0M erci
od u
S kal
we ath
/ 8
or op
%C4%A0 c
Reg eln.%C4%A0
weath er%C4%A0
w %C3%83%C2%A4rm
lat er.
Einf ach%C4%A0
c a
geteil t%C4%A0durch%C4%A0
cri s%C4%A0
Ver st%C3%83%C2%A4nd
e%C4%A0H ausaufgab
nach%C4%A0 ob
logi sch.
?%C4%A0%C4%8AAssistant:%C4%A0Du%C4%A0 leg
.%C4%A0 Ber
voll .
h %C3%83%C2%A4uf
%C4%A0=%C4%A0 2
startest%C4%A0 bei%C4%A0n
ti z
User:%C4%A0Was%C4%A0ist%C4%A0eine%C4%A0 Monarch
re .%C4%A0
M erk
Frieden%C4%A0und%C4%A0 Hand
10 %C4%A0=%C4%A0
User:%C4%A0Was%C4%A0ist%C4%A0eine%C4%A0 Met
igin al
Person%C4%A0 im%C4%A0Staat
ungen%C4%A0 im%C4%A0
fre ss
Ver antwort
m ierst%C4%A0du%C4%A0
ull .%C4%A0Dann%C4%A0
o or.
Rec y
?%C4%A0%C4%8AAssistant:%C4%A0Du%C4%A0 planst%C4%A0
User:%C4%A0Wie%C4%A0planst%C4%A0du%C4%A0 Pr%C3%83%C2%BCfungs
valid ierst%C4%A0du%C4%A0
e%C4%A0 mit%C4%A0
User:%C4%A0Was%C4%A0ist%C4%A0ein%C4%A0 Par
Kalte%C4%A0 Krieg
for der
oh e%C4%A0
ben %C4%A0d
%C4%A0der%C4%A0 Mit
We ge.
verkn%C3%83%C2%BC pf
In%C4%A0 S%C3%83%C2%BC
r und
Wie%C4%A0geht%C4%A0es%C4%A0dir .%C4%A0%C4%8AAssistant:%C4%A0
z%C3%83%C2%A4hl st%C4%A0
w%C3%83%C2%B6rter .%C4%A0Dann%C4%A0
zwei .
o%C4%A0 no
h under
%C4%A0 ein
Unter schied
User:%C4%A0Was%C4%A0ist%C4%A0die%C4%A0 Hauptstadt%C4%A0von%C4%A0
werden%C4%A0 ge
Demokrati e
.%C4%A0Sechser %C4%A0in%C4%A0
en lich
Sti f
ch%C4%A0 bei%C4%A0
ein deu
rechne st%C4%A0du
at en%C4%A0
User:%C4%A0 Ver
a er
User:%C4%A0F %C3%83%C2%BC
Or te%C4%A0
ungen?%C4%A0%C4%8AAssistant:%C4%A0Du%C4%A0 nutzt%C4%A0
beschreib t%C4%A0die%C4%A0
liches%C4%A0 G
Tra in
und .%C4%A0
.%C4%A0%C4%8AAssistant:%C4%A0 Le
N %C3%83%C2%BCtz
F ab
,%C4%A0wie%C4%A0viel?%C4%A0%C4%8AAssistant:%C4%A0 20
User:%C4%A0Wie%C4%A0schreibe%C4%A0ich%C4%A0 Beschreib
%C4%A0-%C4%A05 %C4%A0=%C4%A0
.%C4%A0%C4%8AAssistant:%C4%A0Je%C4%A0 ne%C4%A0
m ass
isch er%C4%A0
Meer es
ok ing%C4%A0
D on
Str a%C3%83%C5%81
d amerik
User:%C4%A0Was%C4%A0ist%C4%A0 F
us k
.%C4%A0%C4%8AAssistant:%C4%A0Je%C4%A0ne%C4%A0 com
c l
T O
User:%C4%A0Wie%C4%A0 merk
Sp iel
Fer me%C4%A0la%C4%A0
Inter v
Or t,%C4%A0
a tiv
bew es
.%C4%A0 Er
User:%C4%A0%C3%83%C4%BEbersetze%C4%A0ins%C4%A0Englische:%C4%A0Ich%C4%A0habe%C4%A0Hunger .%C4%A0%C4%8AAssistant:%C4%A0I%C4%A0am%C4%A0
lich er%C4%A0
%C3%83%C2%B6r ter%C4%A0
per%C4%A0 JS%C4%A0
al o
E rei
Volk sab
Grupp en.
%C4%A0 pro%C4%A0
%C3%83%C2%B6 g
User:%C4%A0%C3%83%C4%BEbersetze%C4%A0ins%C4%A0Englische:%C4%A0Ich%C4%A0hei%C3%83%C5%81e%C4%A0Alex.%C4%A0%C4%8AAssistant:%C4%A0M y%C4%A0
s ol
.%C4%A0Wie%C4%A0viel e%C4%A0
Ger%C3%83%C2%A4 u
User:%C4%A0Loese%C4%A0 x
er%C4%A0 s
brei tet%C4%A0
h%C3%83%C2%A4ltst%C4%A0du%C4%A0 sie%C4%A0
User:%C4%A0Was%C4%A0ist%C4%A0ein%C4%A0Staat so
p ar
k m%C4%A0
fr iert%C4%A0
Qu elle
User:%C4%A01 00
ei en%C4%A0
gesch loss
enst ein
.%C4%A0Dann%C4%A0 setzt%C4%A0du%C4%A0
User:%C4%A0Was%C4%A0ist%C4%A0ein%C4%A0Staatso berhaup
ra sch
Erfolg .
W LA
speich erst%C4%A0
t.%C4%A0 Es%C4%A0
Zugriff .
enb und.%C4%A0
an leg
nahm en%C4%A0und%C4%A0
Schlie%C3%83%C5%81e%C4%A0die%C4%A0T%C3%83%C2%BCr.%C4%A0%C4%8AAssistant:%C4%A0C lo
Kap itel
Fel der
Kalender .%C4%A0Dann%C4%A0
ist%C4%A0 es%C4%A0
Zeiten%C4%A0 ein.
User:%C4%A0Wie%C4%A0schreibe%C4%A0ich%C4%A0 F
er%C4%A0 aus%C4%A0
.%C4%A0 O
lichk eit
s ,%C4%A0
lief ern%C4%A0
User:%C4%A0%C3%83%C4%BEbersetze%C4%A0ins%C4%A0Englische:%C4%A0Ich%C4%A0bin%C4%A0 m%C3%83%C2%BCde
b un
en.%C4%A0 H
.%C4%A0%C4%8AAssistant:%C4%A0 Ferme%C4%A0la%C4%A0
f luss
A si
%C4%A0%C3%83%C4%B9%C4%A0 0
%C3%83%C2%A4 t?%C4%A0%C4%8AAssistant:%C4%A0
-D ann
%C4%A0ist%C4%A030 .
F o
al ter
Dat en.
Mil li
en.%C4%A0Dann%C4%A0 gibst%C4%A0du%C4%A0
f%C4%A0 abziehen.
steig t.
ko mp
ol z
en%C4%A0 lassen.
Zy kl
?%C4%A0%C4%8AAssistant:%C4%A0Du%C4%A0 testest%C4%A0
User:%C4%A0Wie%C4%A0setzt%C4%A0du%C4%A0 eine%C4%A0
Geb ir
Good%C4%A0 lu
li ert%C4%A0
t od
off enen%C4%A0
c e.
ue b
zu%C4%A0 Hau
t ali
User:%C4%A0F%C3%83%C2%BC ge%C4%A0
zeich en%C4%A0
ar y.
M ehr%C4%A0
al .
User:%C4%A0Fasse%C4%A0zusammen:%C4%A0Wir%C4%A0 besuch
12 %C4%A0
al t.
sin d
User:%C4%A0Was%C4%A0ist%C4%A0eine%C4%A0Monarch ie
,%C4%A0wie%C4%A0viel?%C4%A0%C4%8AAssistant:%C4%A0 30.%C4%A0Zehner%C4%A0
auf .%C4%A0Dann%C4%A0
Daten qu
ne t%C4%A0
Reg el
Ph otosynthe
Grap h
.%C4%A0 Klar
H yp
C O
%C3%83%C4%A6 quator
Zu stand
.%C4%A0%C4%8AAssistant:%C4%A0P lease%C4%A0
ation%C4%A0 wird%C4%A0
User:%C4%A0 Tipp%C4%A0f%C3%83%C2%BCr%C4%A0
H olz
ch ance.
learn ing%C4%A0
ein heit
all gem
ander es%C4%A0
gro%C3%83%C5%81e%C4%A0 Land
nahmen%C4%A0und%C4%A0 Ausgab
eine%C4%A0 Auss
Sauerstoff %C4%A0
Eig ene%C4%A0
mach e%C4%A0Hausaufgab
ordne t%C4%A0
Reg en%C4%A0
Reg eln.
Unterr icht
l%C3%83%C2%B6 st%C4%A0
In st
mehr ere%C4%A0
sich er?%C4%A0%C4%8AAssistant:%C4%A0Du%C4%A0
eil enstein
User:%C4%A0%C3%83%C4%BEbersetze%C4%A0ins%C4%A0Englische:%C4%A0Ich%C4%A0brauche%C4%A0Hilfe .%C4%A0%C4%8AAssistant:%C4%A0I%C4%A0need%C4%A0
fa ir
ann .
mp t
t ha
15 %C4%A0
User:%C4%A0Was%C4%A0tu n%C4%A0
.%C4%A0Es%C4%A0 ist%C4%A0
User:%C4%A0%C3%83%C4%BEbersetze%C4%A0ins%C4%A0Englische:%C4%A0Wo%C4%A0 ist%C4%A0die%C4%A0
Pr%C3%83%C2%A4 sent
User:%C4%A0%C3%83%C4%BEbersetze%C4%A0ins%C4%A0Franz%C3%83%C2%B6sische:%C4%A0 Wie%C4%A0geht%C4%A0es%C4%A0dir.%C4%A0%C4%8AAssistant:%C4%A0
User:%C4%A0Was%C4%A0ist%C4%A0ein%C4%A0 Arch
pr %C3%83%C2%A4
m od
bil det%C4%A0
Bedeut ung%C4%A0
ern ,%C4%A0
Good%C4%A0lu ck
ar e.
w at
!%C4%A0 Wie%C4%A0kann%C4%A0
verbin det%C4%A0
ra ft%C4%A0
fer end
z e%C4%A0
r uf
er le
op ti
ich tige%C4%A0
Gr%C3%83%C2%B6%C3%83%C5%81 ter%C4%A0
ti me%C4%A0
gesch icht
20 %C4%A0
Se tze%C4%A0
User:%C4%A0%C3%83%C4%BEbersetze%C4%A0ins%C4%A0Englische:%C4%A0Ich%C4%A0brauche%C4%A0Hilfe.%C4%A0%C4%8AAssistant:%C4%A0I%C4%A0need%C4%A0 help.
Wer te?%C4%A0%C4%8AAssistant:%C4%A0Du%C4%A0
Good%C4%A0morn ing.
jour .
m eide%C4%A0
pr odu
User:%C4%A09 %C4%A0%C3%83%C4%B9%C4%A0
hei%C3%83%C5%81e%C4%A0Alex .%C4%A0%C4%8AAssistant:%C4%A0Je%C4%A0
Bon jour.
ier%C4%A0 mal%C4%A0
?%C4%A0%C4%8AAssistant:%C4%A0Du%C4%A0 sag
User:%C4%A0%C3%83%C4%BEbersetze%C4%A0ins%C4%A0Englische:%C4%A0Ich%C4%A0habe%C4%A0Hunger.%C4%A0%C4%8AAssistant:%C4%A0I%C4%A0am%C4%A0 h
Start%C4%A0und%C4%A0 Ende.%C4%A0Dann%C4%A0
h ar
rei he.
Te e.
y ?%C4%A0%C4%8AAssistant:%C4%A0
re ss
User:%C4%A0%C3%83%C4%BEbersetze%C4%A0ins%C4%A0Franz%C3%83%C2%B6sische:%C4%A0 Viel%C4%A0Erfolg.%C4%A0%C4%8AAssistant:%C4%A0
.%C4%A0D ann
User:%C4%A0Wie%C4%A0 setze%C4%A0
K %C3%83%C2%BC
User:%C4%A0Wie%C4%A0 mel
K rei
le ase.
ie%C4%A0 ge
for t.
?%C4%A0%C4%8AAssistant:%C4%A0 Zeige%C4%A0
R en
Fr e
Zu st%C3%83%C2%A4n
nach%C4%A0 Nord
b%C3%83%C2%BCnd el
am%C4%A0 Abend
A ud
L%C3%83%C2%B6s ung%C4%A0
.%C4%A0Du%C4%A0 gibst%C4%A0
e ter
User:%C4%A0%C3%83%C4%BEbersetze%C4%A0ins%C4%A0Englische:%C4%A0Ich%C4%A0hab e%C4%A0eine%C4%A0Frage.%C4%A0%C4%8AAssistant:%C4%A0I%C4%A0have%C4%A0
se hr
mazon as?%C4%A0%C4%8AAssistant:%C4%A0
?%C4%A0%C4%8AAssistant:%C4%A0Eine%C4%A0 ge
User:%C4%A0Wie%C4%A0fin dest%C4%A0du%C4%A0
Heu te%C4%A0
,%C4%A0wie%C4%A0viel?%C4%A0%C4%8AAssistant:%C4%A0 4
Son ne
Comm ent%C4%A0
u vre%C4%A0la%C4%A0
an .%C4%A0Dann%C4%A0
t%C4%A0 s
wiederhol e%C4%A0
a .%C4%A0Sehr%C4%A0
Klar %C4%A0
H under
Bild ha
t,%C4%A0bevor%C4%A0 sie%C4%A0
tro ck
User:%C4%A0%C3%83%C4%BEbersetze%C4%A0ins%C4%A0Englische:%C4%A0Ich%C4%A0 verstehe%C4%A0nicht
%C3%83%C2%A4d ik
ant e%C4%A0
ist isch
Wolk en%C4%A0
zeich en.
Bun des
hl orop
t%C4%A0 in%C4%A0den%C4%A0
an .%C4%A0%C4%8AAssistant:%C4%A0
Ener gi
en%C4%A0 ab
.%C4%A0%C4%8AAssistant:%C4%A0T hank%C4%A0
Euro .%C4%A0
ist %C4%A0da
v e.
(' aktiv
Luf t%C4%A0ist%C4%A0
i hr
User:%C4%A0 Eine%C4%A0
t?%C4%A0%C4%8AAssistant:%C4%A0 H%C3%83%C2%B6chste%C4%A0
verteil t%C4%A0
bar ,%C4%A0wenn%C4%A0
%C3%83%C2%A4hn liche%C4%A0
M usk
Ursach e%C4%A0und%C4%A0
nach%C4%A0 vor
r ig
fas st%C4%A0
t ,%C4%A0d
Ursache%C4%A0und%C4%A0 Wirk
ie f
lang sam.
St%C3%83%C2%A4d te
Wasser ?%C4%A0%C4%8AAssistant:%C4%A0
Ein nahmen%C4%A0und%C4%A0Ausgab
tex t
a%C4%A0 va.
User:%C4%A0Wie%C4%A0 teste
kn app
Erei g
f%C3%83%C2%BC hl
in%C4%A0 Berlin
User:%C4%A0%C3%83%C4%BEbersetze%C4%A0ins%C4%A0Franz%C3%83%C2%B6sische:%C4%A0 Schlie%C3%83%C5%81e%C4%A0die%C4%A0T%C3%83%C2%BCr
J u
en%C4%A0 bei%C4%A0
S I%C4%A0
ber ech
the%C4%A0 window.
Ver fass
ung en.%C4%A0
schnell .%C4%A0%C4%8AAssistant:%C4%A0
.%C4%A0Er%C4%A0 wurde%C4%A0
Fok us.
I tali
Kontex t.%C4%A0Dann%C4%A0
mass e.%C4%A0
ut er%C4%A0s
%C3%A2 %C4%A2
en.%C4%A0 W
User:%C4%A0Wie%C4%A0 minimierst%C4%A0du%C4%A0
?%C4%A0%C4%8AAssistant:%C4%A0Du%C4%A0 schreib
User:%C4%A0Wie%C4%A0schreibe%C4%A0ich%C4%A0 starke%C4%A0
aus%C4%A0 Deutschland
li vr
eine%C4%A0 klare%C4%A0
Pri orit
of t.
Ak k
pf lan
Reg el%C4%A0
neu en%C4%A0
.%C4%A0%C4%8AAssistant:%C4%A0I%C4%A0d o%C4%A0no
.%C4%A0%C4%8AAssistant:%C4%A0We%C4%A0 have%C4%A0
User:%C4%A0%C3%83%C4%BEbersetze%C4%A0ins%C4%A0Englische:%C4%A0 Guten%C4%A0Morgen.%C4%A0%C4%8AAssistant:%C4%A0
- Schleif
Defin i
Kannst%C4%A0du%C4%A0helfen.%C4%A0%C4%8AAssistant:%C4%A0 Can%C4%A0you%C4%A0
I ch-
A pp
st%C4%A0du%C4%A0 Ergebnisse.
e%C4%A0 s
Met all
User:%C4%A02 %C4%A0+%C4%A0
Volksab stimm
opp elt%C4%A0
User:%C4%A0Was%C4%A0ist%C4%A0ein%C4%A0Re ferend
P hy
verkn%C3%83%C2%BCpf st%C4%A0
Or t.
User:%C4%A0Wie%C4%A0pr%C3%83%C2%BCfst%C4%A0du%C4%A0 Verst%C3%83%C2%A4nd
lau t.%C4%A0Dann%C4%A0
4 0
tr ><
wird%C4%A0 mit%C4%A0
mali sier
k .
.%C4%A0%C4%8AAssistant:%C4%A0J %C4%A0%C3%83%C2%A9
Gruppenarbei t%C4%A0
User:%C4%A0%C3%83%C4%BEbersetze%C4%A0ins%C4%A0Englische:%C4%A0Viel%C4%A0Erfolg.%C4%A0%C4%8AAssistant:%C4%A0 Good%C4%A0luck
Protok oll
en%C4%A0f%C3%83%C2%BCr%C4%A0 ein%C4%A0
w ah
%C4%A0%C3%83%C4%A6 nder
User:%C4%A0Fasse%C4%A0zusammen:%C4%A0Der%C4%A0 Lehr
anleg en.%C4%A0
User:%C4%A0Wo%C4%A0lieg t%C4%A0die%C4%A0
trotz dem%C4%A0
e de%C4%A0
de t.
I D
nam e%C4%A0is%C4%A0
User:%C4%A0Wie%C4%A0mach t%C4%A0man%C4%A0
Reg eln
User:%C4%A0Fasse%C4%A0zusammen:%C4%A0Der%C4%A0Lehr er%C4%A0
Wie%C4%A0geht%C4%A0es%C4%A0dir .%C4%A0%C4%8AAssistant:%C4%A0How%C4%A0
User:%C4%A0Wer%C4%A0war%C4%A0 G
en%C4%A0 wir
reich en.
User:%C4%A0%C3%83%C4%BEbersetze%C4%A0ins%C4%A0Englische:%C4%A0Das%C4%A0 Wetter%C4%A0ist%C4%A0sch%C3%83%C2%B6n
y%C4%A0 is%C4%A0
User:%C4%A0%C3%83%C4%BEbersetze%C4%A0ins%C4%A0Franz%C3%83%C2%B6sische:%C4%A0Wie%C4%A0geht%C4%A0es%C4%A0dir.%C4%A0%C4%8AAssistant:%C4%A0 Comment%C4%A0
o%C4%A0 you%C4%A0
Beding ung.
in t
W enn
User:%C4%A0Wie%C4%A0 kochst%C4%A0du%C4%A0
Sch all%C4%A0
wird%C4%A0 in%C4%A0
re al
um kre
men ge%C4%A0
15 ,%C4%A0Ergebnis?%C4%A0%C4%8AAssistant:%C4%A0
User:%C4%A0Wie%C4%A0 erstell
.%C4%A0V ier
S ystem
A g
startest%C4%A0bei%C4%A0n ull.%C4%A0Dann%C4%A0
?%C4%A0%C4%8AAssistant:%C4%A0 K
User:%C4%A0Was%C4%A0ist%C4%A0ein%C4%A0Staatsoberhaup t?%C4%A0%C4%8AAssistant:%C4%A0H%C3%83%C2%B6chste%C4%A0
wird %C4%A0durch%C4%A0
n .%C4%A0
User:%C4%A0%C3%83%C4%BEbersetze%C4%A0ins%C4%A0Englische:%C4%A0 Schlie%C3%83%C5%81e%C4%A0die%C4%A0T%C3%83%C2%BCr.%C4%A0%C4%8AAssistant:%C4%A0Clo
tod ay.
in%C4%A0 HTML.%C4%A0%C4%8AAssistant:%C4%A0Nutze%C4%A0<
User:%C4%A0Was%C4%A0ist%C4%A0 Recy
class List
ue ber
User:%C4%A0%C3%83%C4%BEbersetze%C4%A0ins%C4%A0Englische:%C4%A0Ich%C4%A0verstehe%C4%A0nicht .%C4%A0%C4%8AAssistant:%C4%A0I%C4%A0do%C4%A0no
Wie%C4%A0geht%C4%A0es%C4%A0dir.%C4%A0%C4%8AAssistant:%C4%A0How%C4%A0 are%C4%A0
i on
non ym
arbeit en%C4%A0
sch%C3%83%C2%BCtz t%C4%A0d
.%C4%A0Nicht%C4%A0 zu%C4%A0
ek t.
ko p
c tor
zeit en?%C4%A0%C4%8AAssistant:%C4%A0Du%C4%A0
User:%C4%A0%C3%83%C4%BEbersetze%C4%A0ins%C4%A0Franz%C3%83%C2%B6sische:%C4%A0 Kannst%C4%A0du%C4%A0helfen.%C4%A0%C4%8AAssistant:%C4%A0
User:%C4%A0Was%C4%A0ist%C4%A0ein%C4%A0Referend um
User:%C4%A0%C3%83%C4%BEbersetze%C4%A0ins%C4%A0Englische:%C4%A0Schlie%C3%83%C5%81e%C4%A0die%C4%A0T%C3%83%C2%BCr.%C4%A0%C4%8AAssistant:%C4%A0Clo se%C4%A0th
Beweg ung%C4%A0
app elle%C4%A0
Pr %C3%83%C2%A4dik
T ief
eas y.
Them en.%C4%A0Dann%C4%A0
Ren ai
tha t.
E t
schnell %C4%A0
inform ierst%C4%A0du%C4%A0
/ /
entfern st%C4%A0du%C4%A0
ist%C4%A0da s?%C4%A0%C4%8AAssistant:%C4%A0
an pass
at ur%C4%A0
N%C3%83%C2%BCtz liche%C4%A0
ter min
Bonne%C4%A0 chance.
Me tr
S c
.%C4%A0M al%C4%A0eins%C4%A0
D ur
od a
User:%C4%A0Du%C4%A0 hast%C4%A0
Grenz en.
L%C3%83%C2%B6s ung.
ci enc
in %C4%A0die%C4%A0
weather%C4%A0 is%C4%A0ni
User:%C4%A0%C3%83%C4%BEbersetze%C4%A0ins%C4%A0Franz%C3%83%C2%B6sische:%C4%A0Viel%C4%A0Erfolg.%C4%A0%C4%8AAssistant:%C4%A0 Bonne%C4%A0chance.
User:%C4%A0%C3%83%C4%BEbersetze%C4%A0ins%C4%A0Franz%C3%83%C2%B6sische:%C4%A0Ich%C4%A0hab e%C4%A0Hunger
Weg e%C4%A0
lei te
Subje kt%C4%A0
.%C4%A0%C4%8AAssistant:%C4%A0I%C4%A0 study%C4%A0
d und
M om
N umm
Frieden%C4%A0und%C4%A0Hand el.
e .%C4%A0%C4%8AAssistant:%C4%A0
l%C3%83%C2%A4 tz
ier e.
.%C4%A0%C4%8AAssistant:%C4%A0Je%C4%A0 bois
hin dert%C4%A0
bring t%C4%A0
N ull%C4%A0
ung ?%C4%A0%C4%8AAssistant:%C4%A0Du%C4%A0definierst%C4%A0
t .%C4%A0Das%C4%A0
ab ei
Alles%C4%A0 gut
Z w
e%C4%A0ich%C4%A0 Figur
Wenn -Dann
User:%C4%A0%C3%83%C4%BEbersetze%C4%A0ins%C4%A0Englische:%C4%A0Ich%C4%A0hei%C3%83%C5%81e%C4%A0Alex.%C4%A0%C4%8AAssistant:%C4%A0My%C4%A0 name%C4%A0is%C4%A0
a%C4%A0 ist%C4%A0
.%C4%A0%C4%8AAssistant:%C4%A0The%C4%A0 weather%C4%A0is%C4%A0ni
User:%C4%A0Wie%C4%A0 beschreib
%C3%83%C4%BEber g%C3%83%C2%A4n
User:%C4%A0 0.
B i
Rel ea
c ui
en.%C4%A0 Teil
) %C4%A0%C4%8AAssistant:%C4%A0
er che%C4%A0
sich er?%C4%A0%C4%8AAssistant:%C4%A0
classList .
schreib en.
.%C4%A0Du%C4%A0 pr%C3%83%C2%BCfst%C4%A0
ss ance?%C4%A0%C4%8AAssistant:%C4%A0
List e.
ap prends%C4%A0
Stru ktur
fa cile.
a%C4%A0 question.
En d
li br
%C4%A0 *%C4%A0
gut er%C4%A0
.%C4%A0Dann%C4%A0 wiederholst%C4%A0du%C4%A0
Fl%C3%83%C2%A4 ch
sauber .
St elle%C4%A0
%C4%A0 als%C4%A0
E hr
ge wa
Geb ie
Er inner
icht s%C4%A0
Renai ssance?%C4%A0%C4%8AAssistant:%C4%A0
?%C4%A0%C4%8AAssistant:%C4%A0 Sie%C4%A0
ende st%C4%A0du%C4%A0eine%C4%A0
zw anz
im%C4%A0 Kopf
um%C4%A0Beispiel %C4%A0
Ge mein
User:%C4%A0Wie%C4%A0 rechnest%C4%A0du%C4%A0
Wer t%C4%A0
r in
st%C4%A0das%C4%A0 Ziel.%C4%A0Dann%C4%A0
uvre%C4%A0la%C4%A0 fen
viel .
User:%C4%A0Warum%C4%A0 ist%C4%A0
V ir
erkenn t%C4%A0
W andel
we ge
list e?%C4%A0%C4%8AAssistant:%C4%A0
on ne%C4%A0
In%C4%A0S%C3%83%C2%BC damerik
zeichne st%C4%A0
h%C3%83%C2%A4ltst%C4%A0du%C4%A0sie%C4%A0 ein.
N erv
Guten%C4%A0Morgen.%C4%A0%C4%8AAssistant:%C4%A0 Bonjour.
User:%C4%A0%C3%83%C4%BEbersetze%C4%A0ins%C4%A0Franz%C3%83%C2%B6sische:%C4%A0 Guten%C4%A0Morgen.%C4%A0%C4%8AAssistant:%C4%A0Bonjour.
en%C4%A0 lei
Ziel .
te .%C4%A0M
User:%C4%A0Wie%C4%A0 teil
ich%C4%A0 langsam
Ger%C3%83%C2%A4 te%C4%A0
Elektr onen%C4%A0
Sp e
Energi e.
sa gen%C4%A0
User:%C4%A0%C3%83%C4%BEbersetze%C4%A0ins%C4%A0Englische:%C4%A0 Kannst%C4%A0du%C4%A0helfen.%C4%A0%C4%8AAssistant:%C4%A0Can%C4%A0you%C4%A0
viel en%C4%A0
unter weg
putz t%C4%A0du%C4%A0
end s.
?%C4%A0%C4%8AAssistant:%C4%A0 R
Star te%C4%A0
Ro ad
st%C4%A0du%C4%A0 sie%C4%A0
P ark
ru eck
cri p
,%C4%A0wie%C4%A0 rechnest%C4%A0du
%C3%83%C2%BCn kt
.%C4%A0%C4%8AAssistant:%C4%A0Ferme%C4%A0la%C4%A0 por
libr ary.
E v
luss .%C4%A0Dann%C4%A0
Kli ma
User:%C4%A0%C3%83%C4%BEbersetze%C4%A0ins%C4%A0Englische:%C4%A0Kannst%C4%A0du%C4%A0helfen.%C4%A0%C4%8AAssistant:%C4%A0Can%C4%A0you%C4%A0 help.
.%C4%A0%C4%8AAssistant:%C4%A0The%C4%A0weather%C4%A0is%C4%A0ni ce.
an ach
hlorop hy
Tro pf
User:%C4%A0%C3%83%C4%BEbersetze%C4%A0ins%C4%A0Englische:%C4%A0Guten%C4%A0Morgen.%C4%A0%C4%8AAssistant:%C4%A0 Good%C4%A0morning.
e%C4%A0 ich
t%C4%A0 werden.
.%C4%A0Dann%C4%A0 w%C3%83%C2%A4hlst%C4%A0du%C4%A0
er for
%C4%A0%C4%8AAssistant:%C4%A01 /2
User:%C4%A0Wie%C4%A0 validierst%C4%A0du%C4%A0
abei .
%C4%A0+%C4%A0 b
%C3%83%C2%BCber %C4%A0den%C4%A0
en ge.
tiv %C4%A0
riech t%C4%A0
Elem ent
s%C4%A0 sind%C4%A0
st%C4%A0du%C4%A0die%C4%A0 Ursach
er%C4%A0 pro%C4%A0
User:%C4%A0Wer%C4%A0war%C4%A0 K
t%C4%A0 aus
sich .
kon stant
schnell e%C4%A0
,%C4%A0wie%C4%A0viel?%C4%A0%C4%8AAssistant:%C4%A0 18
Geld .%C4%A0
User:%C4%A0%C3%83%C4%BEbersetze%C4%A0ins%C4%A0Englische:%C4%A0Ich%C4%A0hei%C3%83%C5%81e%C4%A0Alex.%C4%A0%C4%8AAssistant:%C4%A0My%C4%A0name%C4%A0is%C4%A0 Alex.
.%C4%A0%C4%8AAssistant:%C4%A0T oda
fehl er?%C4%A0%C4%8AAssistant:%C4%A0Du%C4%A0
30 ?%C4%A0%C4%8AAssistant:%C4%A0Ja.%C4%A0
.%C4%A0Dann%C4%A0 speicherst%C4%A0du%C4%A0
.%C4%A0D oppelt%C4%A0
w %C3%83%C2%BCr
or t%C4%A0
tr et
User:%C4%A0%C3%83%C4%BEbersetze%C4%A0ins%C4%A0Englische:%C4%A0 Wie%C4%A0geht%C4%A0es%C4%A0dir.%C4%A0%C4%8AAssistant:%C4%A0How%C4%A0are%C4%A0
Merk mal
Phy sik
.%C4%A0%C4%8AAssistant:%C4%A0Ferme%C4%A0la%C4%A0por te.
re m
User:%C4%A0%C3%83%C4%BEbersetze%C4%A0ins%C4%A0Englische:%C4%A0Ich%C4%A0verstehe%C4%A0nicht.%C4%A0%C4%8AAssistant:%C4%A0I%C4%A0do%C4%A0no t%C4%A0understand.
O p
Figur en.
ein s
t reib
pl ai
erwarte te%C4%A0
User:%C4%A0%C3%83%C4%BEbersetze%C4%A0ins%C4%A0Franz%C3%83%C2%B6sische:%C4%A0Ich%C4%A0verstehe%C4%A0nicht .%C4%A0%C4%8AAssistant:%C4%A0Je%C4%A0ne%C4%A0com
C hlorophy
User:%C4%A0%C3%83%C4%BEbersetze%C4%A0ins%C4%A0Englische:%C4%A0Ich%C4%A0habe%C4%A0Hunger.%C4%A0%C4%8AAssistant:%C4%A0I%C4%A0am%C4%A0h ung
zi mm
?%C4%A0%C4%8AAssistant:%C4%A0Ein%C4%A0 Teil
Zeit en.%C4%A0Dann%C4%A0
Z eil
p lease.
en%C4%A0 the%C4%A0window.
User:%C4%A0%C3%83%C4%BEbersetze%C4%A0ins%C4%A0Englische:%C4%A0Ich%C4%A0habe%C4%A0Hunger.%C4%A0%C4%8AAssistant:%C4%A0I%C4%A0am%C4%A0hung ry.
trin k
lich%C4%A0 bleib
st ,%C4%A0was%C4%A0
leich ter
lit %C3%83%C2%A4t?%C4%A0%C4%8AAssistant:%C4%A0Du%C4%A0
%C3%83%C2%A4n k
Le bewes
Szen ari
Sp eich
mal .
erfor dert%C4%A0
sch l%C3%83%C2%A4
opti mierst%C4%A0du%C4%A0
.%C4%A0D arum%C4%A0
B lei
Schn ell
Geh eim
teg ori
.%C4%A0%C4%8AAssistant:%C4%A0Je%C4%A0suis%C4%A0 fatigu
6%C4%A0 *%C4%A0
.%C4%A0%C4%8AAssistant:%C4%A0J'ai %C4%A0
Sahar a?%C4%A0%C4%8AAssistant:%C4%A0
mp uter%C4%A0s
kontrolli erst%C4%A0du%C4%A0
schw er.
Ziel e.
User:%C4%A0Was%C4%A0 be
User:%C4%A0%C3%83%C4%BEbersetze%C4%A0ins%C4%A0Franz%C3%83%C2%B6sische:%C4%A0Ich%C4%A0hab e%C4%A0eine%C4%A0Frage
bau en.
Bus .%C4%A0%C4%8AAssistant:%C4%A0
Fehl er%C4%A0
bil d
in%C4%A0 einem%C4%A0
Speich er
W ider
nimm st%C4%A0du%C4%A0
2%C4%A0=%C4%A0 8.
Sy nonym
Re de
e.%C4%A0Dann%C4%A0 pr%C3%83%C2%BCfst%C4%A0du%C4%A0
SI%C4%A0 Einheit%C4%A0fuer%C4%A0
Spr ich%C4%A0langsam
User:%C4%A0%C3%83%C4%BEbersetze%C4%A0ins%C4%A0Franz%C3%83%C2%B6sische:%C4%A0Schlie%C3%83%C5%81e%C4%A0die%C4%A0T%C3%83%C2%BCr .%C4%A0%C4%8AAssistant:%C4%A0Ferme%C4%A0la%C4%A0porte.
li ter
koch t%C4%A0
Kin o
wah r%C4%A0
et er%C4%A0
b ol
Ide en%C4%A0
N atur
appelle%C4%A0 Alex.
bedeute t,%C4%A0d
in k
N ieder
A mazonas?%C4%A0%C4%8AAssistant:%C4%A0
hal ten%C4%A0
sortier st%C4%A0nach%C4%A0
M eilenstein
ang same%C4%A0
User:%C4%A0Wie%C4%A0schreibe%C4%A0ich%C4%A0 M
12 ,%C4%A0Ergebnis?%C4%A0%C4%8AAssistant:%C4%A0
end en?%C4%A0%C4%8AAssistant:%C4%A0
Tim e
e%C4%A0 von%C4%A0
Wer t
t%C4%A0be au.
.%C4%A0Drei %C4%A0
Lin ie%C4%A0
0%C4%A0 Prozent%C4%A0von%C4%A0
bei %C4%A0%C3%83%C4%A6nder
ich wor
Puf f
l am
Entschuldig ung%C4%A0
m itt
f el
k reis
Aus blick
fun ction(
e%C4%A0d oor.
e%C4%A0ich%C4%A0 ein%C4%A0
Afrik a.%C4%A0Sehr%C4%A0
fai t%C4%A0beau.
Gruppen arbeit
User:%C4%A0Was%C4%A0ist%C4%A0Recy cl
ie ?%C4%A0%C4%8AAssistant:%C4%A0Die%C4%A0
Termin e.
el t
K%C3%83%C2%B6n ig.
.%C4%A0%C4%8AAssistant:%C4%A0 Au
Obje kt
?%C4%A0%C4%8AAssistant:%C4%A0Du%C4%A0 w%C3%83%C2%A4hlst%C4%A0
User:%C4%A0%C3%83%C4%BEbersetze%C4%A0ins%C4%A0Franz%C3%83%C2%B6sische:%C4%A0Das%C4%A0Wetter%C4%A0ist%C4%A0sch%C3%83%C2%B6n.%C4%A0%C4%8AAssistant:%C4%A0Il%C4%A0 fait%C4%A0beau.
Ger%C3%83%C2%A4 t%C4%A0
b ie
ung%C4%A0 zeigen.
Ein%C4%A0 B
Ge w%C3%83%C2%A4hlte%C4%A0
Her z
.%C4%A0%C4%8AAssistant:%C4%A0We%C4%A0 are%C4%A0
%C3%83%C4%BEb ung%C4%A0ist%C4%A0
ver st%C3%83%C2%A4nd
we cken.
Aufgabe .
User:%C4%A0%C3%83%C4%BEbersetze%C4%A0ins%C4%A0Franz%C3%83%C2%B6sische:%C4%A0Ich%C4%A0bin%C4%A0 m%C3%83%C2%BCde
en .%C4%A0Du%C4%A0
rin k%C4%A0
Revol ution
sel t
Fre und
User:%C4%A0%C3%83%C4%BEbersetze%C4%A0ins%C4%A0Englische:%C4%A0Schlie%C3%83%C5%81e%C4%A0die%C4%A0T%C3%83%C2%BCr.%C4%A0%C4%8AAssistant:%C4%A0Close%C4%A0th e%C4%A0door.
?%C4%A0%C4%8AAssistant:%C4%A0L eise%C4%A0
('aktiv ');
WLA N
Hyp othese
so fort.
.%C4%A0Mal%C4%A0eins%C4%A0 bleibt%C4%A0gleich.
en%C4%A0 ein
8 ,%C4%A0passt%C4%A0
ich t.%C4%A0
R ad
For scher
ge stell
ie%C4%A0viel %C4%A0
Jahre szeit
Z ita
l %C3%83%C2%A4ng
Ka tegori
List e%C4%A0
.%C4%A0%C4%8AAssistant:%C4%A0I%C4%A0am%C4%A0tire d.
Eigen schaf
0 .%C4%A0Null%C4%A0
el. classList.
er%C4%A0H errscher
Pr%C3%83%C2%A4 sen
%C3%83%C2%A4mpf te%C4%A0
Staa tes
User:%C4%A0Fasse%C4%A0zusammen:%C4%A0Die%C4%A0 Sonne%C4%A0
ver hindert%C4%A0
%C4%A0d ank
auf ?%C4%A0%C4%8AAssistant:%C4%A0Du%C4%A0
Begriff e%C4%A0
G as
en%C4%A0 zu%C4%A0
User:%C4%A0%C3%83%C4%BEbersetze%C4%A0ins%C4%A0Franz%C3%83%C2%B6sische:%C4%A0Ich%C4%A0verstehe%C4%A0nicht.%C4%A0%C4%8AAssistant:%C4%A0Je%C4%A0ne%C4%A0com prends%C4%A0
lu ess
erlau bt%C4%A0
O ut
Ne tz
ein ander
P latz
Der%C4%A0 Text%C4%A0
Vokab eln
e%C4%A0 Bro
Sig nal
Relea se
User:%C4%A0%C3%83%C4%BEbersetze%C4%A0ins%C4%A0Englische:%C4%A0Viel%C4%A0Erfolg.%C4%A0%C4%8AAssistant:%C4%A0Good%C4%A0luck .
M ass
10,%C4%A0dann%C4%A0 +
T ab
.%C4%A0 Un
User:%C4%A0Was%C4%A0ist%C4%A0ein%C4%A0Staatsoberhaupt?%C4%A0%C4%8AAssistant:%C4%A0H%C3%83%C2%B6chste%C4%A0 Person%C4%A0im%C4%A0Staat
Sch werk
Rhyth mus
Must er%C4%A0
W ieder
bei spiel
User:%C4%A0%C3%83%C4%BEbersetze%C4%A0ins%C4%A0Franz%C3%83%C2%B6sische:%C4%A0Ich%C4%A0 brauche%C4%A0Hilfe
,%C4%A0wie%C4%A0rechnest%C4%A0du ?%C4%A0%C4%8AAssistant:%C4%A0
Fehler meld
User:%C4%A0%C3%83%C4%BEbersetze%C4%A0ins%C4%A0Englische:%C4%A0Ich%C4%A0habe%C4%A0eine%C4%A0Frage.%C4%A0%C4%8AAssistant:%C4%A0I%C4%A0have%C4%A0 a%C4%A0question.
Haup t
User:%C4%A04 %C4%A0%C3%83%C4%B9%C4%A0
m%C4%A0 mit%C4%A0
User:%C4%A0Wie%C4%A0schreibe%C4%A0ich%C4%A0 klare%C4%A0
User:%C4%A0Wie%C4%A0 sortierst%C4%A0du%C4%A0
vo m%C4%A0
User:%C4%A0%C3%83%C4%BEbersetze%C4%A0ins%C4%A0Englische:%C4%A0Wie%C4%A0geht%C4%A0es%C4%A0dir.%C4%A0%C4%8AAssistant:%C4%A0How%C4%A0are%C4%A0 you.
User:%C4%A0Wie%C4%A0schreibe%C4%A0ich%C4%A0Beschreib ungen%C4%A0
enig %C4%A0
Ergebniss e.%C4%A0Dann%C4%A0
Jack e%C4%A0
wat er.
ip elin
Abs %C3%83%C2%A4tze%C4%A0
k%C3%83%C2%BChl t%C4%A0ab
User:%C4%A0%C3%83%C4%BEbersetze%C4%A0ins%C4%A0Englische:%C4%A0Das%C4%A0Wetter%C4%A0ist%C4%A0sch%C3%83%C2%B6n .%C4%A0%C4%8AAssistant:%C4%A0The%C4%A0weather%C4%A0is%C4%A0nice.
%C3%83 %C2%A7
User:%C4%A0%C3%83%C4%BEbersetze%C4%A0ins%C4%A0Franz%C3%83%C2%B6sische:%C4%A0Ich%C4%A0 hei%C3%83%C5%81e%C4%A0Alex.%C4%A0%C4%8AAssistant:%C4%A0Je%C4%A0
U p
User:%C4%A0 G
f te%C4%A0
K er
tex te?%C4%A0%C4%8AAssistant:%C4%A0
kor re
R%C3%83%C2%A4t sel
Fortschrit t%C4%A0
ch en
9 %C4%A0+%C4%A01
%C4%A0%C4%8AAssistant:%C4%A0 7
User:%C4%A0Wie%C4%A0%C3%83%C2%BCber pr%C3%83%C2%BCfst%C4%A0du%C4%A0
ach e?%C4%A0%C4%8AAssistant:%C4%A0
Spr %C3%83%C2%BCn
.%C4%A0%C4%8AAssistant:%C4%A0Toda y%C4%A0is%C4%A0
defin iert%C4%A0
10 .
logi sch
Prei s%C4%A0
User:%C4%A0%C3%83%C4%BEbersetze%C4%A0ins%C4%A0Franz%C3%83%C2%B6sische:%C4%A0Ich%C4%A0bin%C4%A0m%C3%83%C2%BCde .%C4%A0%C4%8AAssistant:%C4%A0Je%C4%A0suis%C4%A0fatigu
User:%C4%A0Fasse%C4%A0kurz%C4%A0zusammen:%C4%A0 Der%C4%A0Text%C4%A0
l%C3%83%C2%A4 s
regelm%C3%83%C2%A4%C3%83%C5%81 ig.
User:%C4%A0%C3%83%C4%BEbersetze%C4%A0ins%C4%A0Englische:%C4%A0Ich%C4%A0bin%C4%A0m%C3%83%C2%BCde .%C4%A0%C4%8AAssistant:%C4%A0I%C4%A0am%C4%A0tired.
r %C3%83%C2%B6
gleich e%C4%A0
ch er%C4%A0
gew ich
Stand ard
Po li
Konkre te%C4%A0
ih n.
plai t.
Nieder schlag
Bu g
ge setz
Stat us.%C4%A0Dann%C4%A0
ein .%C4%A0Dann%C4%A0
Bro w
en te%C4%A0
N ud
um or
User:%C4%A0Was%C4%A0ist%C4%A0Recycl ing
Aus wert
a de?%C4%A0%C4%8AAssistant:%C4%A0
Staat enbund.%C4%A0
s%C4%A0il%C4%A0te%C4%A0 plait.
Fr %C3%83%C2%BCh
User:%C4%A0%C3%83%C4%BEbersetze%C4%A0ins%C4%A0Franz%C3%83%C2%B6sische:%C4%A0Ich%C4%A0verstehe%C4%A0nicht.%C4%A0%C4%8AAssistant:%C4%A0Je%C4%A0ne%C4%A0comprends%C4%A0 pas.
Szenari en.
.%C4%A0%C4%8AAssistant:%C4%A0Nous%C4%A0 av
Erkl%C3%83%C2%A4r e%C4%A0
po ur%C4%A0
ch en%C4%A0
.%C4%A0%C4%8AAssistant:%C4%A0I%C4%A0d rink%C4%A0
R%C3%83%C2%A4 um
kurz ?%C4%A0%C4%8AAssistant:%C4%A0
Leben s
t en?%C4%A0%C4%8AAssistant:%C4%A0
Komm un
en?%C4%A0%C4%8AAssistant:%C4%A0W enige%C4%A0
kl ein.
helf en?
Aufgabe ?%C4%A0%C4%8AAssistant:%C4%A0Du%C4%A0
e?%C4%A0%C4%8AAssistant:%C4%A0 Sie%C4%A0
tr an
.%C4%A0 Menschen%C4%A0
e t.
.%C4%A0Dann%C4%A0 7%C4%A0+%C4%A0
te%C4%A0 Daten
zeig t%C4%A0die%C4%A0
Summ e%C4%A0der%C4%A0
en%C4%A0vor ?%C4%A0%C4%8AAssistant:%C4%A0Du%C4%A0definierst%C4%A0
add ierst%C4%A0
dier e%C4%A0die%C4%A0
%C3%83%C2%A7 a%C4%A0va.
Wahl rech
xi d%C4%A0
w och
are%C4%A0 wel
je dem%C4%A0
Le ser%C4%A0
%C4%A0die%C4%A0 Mond
au m%C4%A0
zen%C4%A0 Bl
richtig .
%C3%83%C2%BCnst ig
?%C4%A0%C4%8AAssistant:%C4%A0Ein%C4%A0 Plan%C4%A0f%C3%83%C2%BCr%C4%A0
); %C4%A0}
bewer test%C4%A0du%C4%A0
t ail
Ursach e.%C4%A0Dann%C4%A0
Ordn er?%C4%A0%C4%8AAssistant:%C4%A0Du%C4%A0
e -
st%C4%A0d oppel
ing er.
t ni
entsch ei
wach sen%C4%A0
er b
bark eit%C4%A0
n%C3%83%C2%A4ch ste%C4%A0Schritte.
tion s
erzeu g
te ck
Inhal t%C4%A0
et eil
Supp e.
tet%C4%A0 f%C3%83%C2%BCr%C4%A0
tion%C4%A0 mit%C4%A0
CO 2.
e.%C4%A0 Keine%C4%A0
verteil st%C4%A0du%C4%A0
.%C4%A0 Luft%C4%A0
Ste h%C4%A0
End zu
st %C3%83%C2%A4r
User:%C4%A0Wie%C4%A0mach st%C4%A0du%C4%A0einen%C4%A0
ko enn
kl ern
off ene%C4%A0
User:%C4%A0 Median%C4%A0
User:%C4%A0Wie%C4%A0schreibe%C4%A0ich%C4%A0 B
Tag ?%C4%A0%C4%8AAssistant:%C4%A0Du%C4%A0
User:%C4%A0W hat
Erwart ungen%C4%A0
se%C4%A0 Musik
en.%C4%A0Dann%C4%A0 lief
%C4%A0d a%C4%A0
%C3%83%C2%BCll%C4%A0raus .%C4%A0Es%C4%A0
en -
%C4%A0%C4%8AAssistant:%C4%A0 30
te.%C4%A0 Ein%C4%A0
Arch %C3%83%C2%A4
User:%C4%A0 0
I mpf
f%C4%A0 gut
brauch .
geteilt%C4%A0durch%C4%A0 Zeit.
Deutschland s
User:%C4%A0Wie%C4%A0fin d
ent or
ste x
,%C4%A0Ergebnis?%C4%A0%C4%8AAssistant:%C4%A0 8
sp are%C4%A0
Poli tik
fehl er
n%C4%A0 bil
is%C4%A0 that.
en%C4%A0k ann.
e?%C4%A0%C4%8AAssistant:%C4%A0Ein%C4%A0 fr
fra ge
User:%C4%A02 4
Lern en%C4%A0mit%C4%A0
1 %C4%A0-%C4%A0
%C4%A0der%C4%A0Mit te%C4%A0
User:%C4%A0%C3%83%C4%BEbersetze%C4%A0ins%C4%A0Englische:%C4%A0Ich%C4%A0 schreibe%C4%A0eine%C4%A0E%C4%A0Mail
Sahara?%C4%A0%C4%8AAssistant:%C4%A0 In%C4%A0
P l%C3%83%C2%A4tz
Ziel %C4%A0ist%C4%A0
User:%C4%A0Warum%C4%A0 ist%C4%A0der%C4%A0
schl%C3%83%C2%A4 ft
mm un
tanz k
War um,%C4%A0
.%C4%A0%C4%8AAssistant:%C4%A0M %C3%83%C2%BCll%C4%A0raus
.%C4%A0%C4%8AAssistant:%C4%A0O%C3%83%C2%B9%C4%A0est%C4%A0 la%C4%A0
%C4%A0%C4%8AAssistant:%C4%A00. 75
ch%C4%A0 an%C4%A0
Ent w
User:%C4%A0Wie%C4%A0 pr%C3%83%C2%BCf
.%C4%A0G ib%C4%A0
Aud io
ar re.%C4%A0
ri en.
The se
Grund gesetz
W%C3%83%C2%B6rter .%C4%A0
Version en.
?%C4%A0%C4%8AAssistant:%C4%A0Ein%C4%A0 Bund%C4%A0
e.%C4%A0 Menschen%C4%A0w%C3%83%C2%A4hlen%C4%A0
User:%C4%A0%C3%83%C4%BEbersetze%C4%A0ins%C4%A0Franz%C3%83%C2%B6sische:%C4%A0Wo%C4%A0ist%C4%A0die%C4%A0 Schule
?%C4%A0%C4%8AAssistant:%C4%A0Du%C4%A0defin ier
en%C4%A0Sch l
real ist
%C4%A0in%C4%A0 Mathe
er%C4%A0 als%C4%A0
0 );
Voll er%C4%A0
Ver sch
or malisier
User:%C4%A0Fasse%C4%A0kurz%C4%A0zusammen:%C4%A0Ein%C4%A0Text%C4%A0%C3%83%C2%BCber%C4%A0 St%C3%83%C2%A4dte
Elektr on
ein e.
z ig
L im
Meeres h%C3%83%C2%B6
wechsel ?%C4%A0%C4%8AAssistant:%C4%A0
User:%C4%A0Warum%C4%A0 kn
K arten%C4%A0
?%C4%A0%C4%8AAssistant:%C4%A0Du%C4%A0leg st%C4%A0
St%C3%83%C2%A4d te.%C4%A0%C4%8AAssistant:%C4%A0
h r%C4%A0
.%C4%A0O der%C4%A0
es%C4%A0 Ver
User:%C4%A0Fasse%C4%A0zusammen:%C4%A0 Im%C4%A0
akt uali
?%C4%A0%C4%8AAssistant:%C4%A0Du%C4%A0nutzt%C4%A0 klare%C4%A0
*x %C4%A0=%C4%A0
lau t.%C4%A0
eig ene%C4%A0
hunder t%C4%A0
?%C4%A0%C4%8AAssistant:%C4%A0Du%C4%A0 pr%C3%83%C2%BCfst%C4%A0
User:%C4%A0%C3%83%C4%BEbersetze%C4%A0ins%C4%A0Franz%C3%83%C2%B6sische:%C4%A0Ich%C4%A0 mag%C4%A0Musik
kontr oll
kreis en%C4%A0
ere%C4%A0 Zahl%C4%A0
lat te%C4%A0
n a
Ereig nisse%C4%A0
Ab frag
3 %C4%A0+%C4%A04
Erst%C4%A0 -
R ol
Kamera%C4%A0 bleibt%C4%A0
e tr
r aus.
User:%C4%A0Wie%C4%A0entsteht%C4%A0 eine%C4%A0
?%C4%A0%C4%8AAssistant:%C4%A0D en
%C3%83%C2%BCch e?%C4%A0%C4%8AAssistant:%C4%A0Du%C4%A0
sp%C3%83%C2%A4 te
%C4%A0%C4%8AAssistant:%C4%A01 8
H ausaufgab
' hui
.%C4%A0 Fr
Hinwei se.
Jahr .
%C4%A0%C3%83%C2%B7%C4%A0 3%C4%A0=%C4%A0
reduz iert%C4%A0die%C4%A0
al t.%C4%A0Er%C4%A0
Pr%C3%83%C2%BCf e%C4%A0
Gef%C3%83%C2%BCh le
nach%C4%A0vor n.
User:%C4%A0Wie%C4%A0strukturierst%C4%A0du%C4%A0 einen%C4%A0
er%C4%A0in%C4%A0 4
User:%C4%A0Wie%C4%A0nutzt%C4%A0du%C4%A0 Beispiele%C4%A0
Abstra k
arf st%C4%A0du%C4%A0
Mon ol
gut ?%C4%A0%C4%8AAssistant:%C4%A0
Erd be
%C4%A0ist%C4%A0 20.
schnell er.
be acht
%C3%83%C2%AA tr
pro%C4%A0 Woch
9 0%C4%A0
Spiel .
%C4%A0+%C4%A0 0
ist%C4%A0 m
.%C4%A0S tro
B o
K ant
t le
a%C4%A0 co
und%C4%A0 bell
S er
en.%C4%A0Sie%C4%A0zeigt%C4%A0 Tr
User:%C4%A0Fasse%C4%A0zusammen:%C4%A0Das%C4%A0 Fahrrad%C4%A0
ation?%C4%A0%C4%8AAssistant:%C4%A0Du%C4%A0 startest%C4%A0mit%C4%A0
Inf l
%C4%A0de termin
?%C4%A0%C4%8AAssistant:%C4%A0Ein%C4%A0 Fluss
samm eln.
d rueck
Ide e?%C4%A0%C4%8AAssistant:%C4%A0Du%C4%A0pr%C3%83%C2%BCfst%C4%A0
%C3%83%C5%81 en.%C4%A0
User:%C4%A0%C3%83%C4%BEbersetze%C4%A0ins%C4%A0Franz%C3%83%C2%B6sische:%C4%A0 Entschuldigung.%C4%A0%C4%8AAssistant:%C4%A0
%C4%A0%C4%8AAssistant:%C4%A0 20
Eine%C4%A0Fahrkarte%C4%A0bitte.%C4%A0%C4%8AAssistant:%C4%A0 U
%C4%A0d ehn
Rei se%C4%A0
eh ol
e%C4%A0 t%C3%83%C2%A4g
e%C4%A0 F
en%C4%A0im%C4%A0 Tex
einfluss en.
User:%C4%A0 Rechne%C4%A0
rei f
JSON %C4%A0
exam .
?%C4%A0%C4%8AAssistant:%C4%A0Du%C4%A0sag st%C4%A0
il t%C4%A0
2. 5%C4%A0
User:%C4%A0Was%C4%A0ist%C4%A0das%C4%A0 neutr
ruh ig.%C4%A0Dann%C4%A0
bleibt%C4%A0 ein%C4%A0
Einf luss.%C4%A0Dann%C4%A0
User:%C4%A0Fasse%C4%A0kurz%C4%A0zusammen:%C4%A0Ein%C4%A0Bericht%C4%A0 %C3%83%C2%BCber%C4%A0den%C4%A0
g %C4%A0in%C4%A0
Wasser .%C4%A0Dann%C4%A0
st%C4%A0du%C4%A0d oppel
Reih e.
frag st%C4%A0du%C4%A0
qu ietsch
App -
User:%C4%A0%C3%83%C4%BEbersetze%C4%A0ins%C4%A0Franz%C3%83%C2%B6sische:%C4%A0 Bit
Me er.
h%C3%83%C2%B6r e%C4%A0d
st%C4%A0in%C4%A0 Teile.%C4%A0Dann%C4%A0
%C3%83%C2%A4 ischer%C4%A0
sieh st%C4%A0
geh t.
tem%C4%A0 Duf
Salz %C4%A0
en?%C4%A0%C4%8AAssistant:%C4%A0W ort
trenn en.%C4%A0
User:%C4%A0Wie%C4%A0st ell
au co
ben ,%C4%A0
%C4%A0+%C4%A07 ,%C4%A0Ergebnis?%C4%A0%C4%8AAssistant:%C4%A0
S en
,%C4%A0wir%C4%A0 blei
man y.
d ow
ing !%C4%A0%C4%8AAssistant:%C4%A0
quietsch t.%C4%A0Ich%C4%A0
User:%C4%A0Fasse%C4%A0zusammen:%C4%A0Wir%C4%A0 pflan
Mat he%C4%A0
leg en.
l ere%C4%A0
p u
ueb er%C4%A0
e?%C4%A0%C4%8AAssistant:%C4%A0 N
an ag
aktiv %C4%A0
Kurz e,%C4%A0
lei ten%C4%A0
li tz
St %C3%83%C2%BCtz
se qu
neu .
Par d
%C3%83%C4%BEbung%C4%A0ist%C4%A0 leich
P eu
all en.
st%C4%A0 Schritte%C4%A0
ur e%C4%A0est%C4%A0
ier%C4%A0 ist%C4%A0
.%C4%A0Sehr%C4%A0 tief
Dikt atur
T on.
zeich en.%C4%A0
?%C4%A0%C4%8AAssistant:%C4%A0Den ke%C4%A0
Op tion
end lich
Fakt en.%C4%A0Dann%C4%A0
t%C4%A0 bis%C4%A0
ist%C4%A0 vor
%C4%A0 es%C4%A0
St ark
User:%C4%A0Was%C4%A0 machst%C4%A0du%C4%A0
al og
ieren.%C4%A0 H
( e%C4%A0
el ek
Gro %C3%83%C5%81
t -
Rech t%C4%A0zu%C4%A0
.%C4%A0 Teil
ie d
tausch en.
ge fal
2%C4%A0+%C4%A0 3
w ie
ant a
t s.
gebni ss
k eit%C4%A0
h ref
ation%C4%A0 verhindert%C4%A0
ick l
%C3%83%C2%A4 t.
en ?%C4%A0%C4%8AAssistant:%C4%A0D
Din ge.%C4%A0Dann%C4%A0
%C3%83%C2%B9 .
bei%C4%A0 0
reg eln
en%C4%A0 eine%C4%A0
e%C4%A0ein%C4%A0 Bild
Le ben%C4%A0
Gr%C3%83%C2%BCn de.
m ,%C4%A0
Re trie
grupp e.%C4%A0
M ind
f e%C4%A0
%C3%83%C4%BEb e%C4%A0
i denti
mp fehl
User:%C4%A0Wie%C4%A0 beginn
Ak ku
enig%C4%A0 Frei
List e?%C4%A0%C4%8AAssistant:%C4%A0Du%C4%A0
.%C4%A0%C4%8AAssistant:%C4%A0L eise%C4%A0
Abhaeng igkeit
User:%C4%A0Was%C4%A0ist%C4%A0 Ge
User:%C4%A0Wie%C4%A0stell st%C4%A0du%C4%A0
and hi
en re
D up
ungen?%C4%A0%C4%8AAssistant:%C4%A0Du%C4%A0 notierst%C4%A0
und%C4%A0 gefal
Les ende
Team%C4%A0 gew
h %C3%83%C2%A4r
stimm en%C4%A0ab
%C3%83%C2%A8 me.
>< li
Budge t.
User:%C4%A0Wie%C4%A0schreibe%C4%A0ich%C4%A0eine%C4%A0 E-Mail
Wasser%C4%A0 schnell
ro b
en?%C4%A0%C4%8AAssistant:%C4%A0Du%C4%A0schreibst%C4%A0 kurz.%C4%A0Dann%C4%A0
Pers onen%C4%A0
2 %C4%A0%C3%83%C4%B9%C4%A05
su ch%C4%A0mit%C4%A0
Himalaya ?%C4%A0%C4%8AAssistant:%C4%A0Ein%C4%A0
satz %C4%A0
%C4%A0ai de.
.%C4%A0So%C4%A0 entsteh
Darstell ung%C4%A0von%C4%A0
.%C4%A0Dann%C4%A0 such
User:%C4%A0Was%C4%A0ist%C4%A0ein%C4%A0Arch ip
Fe atur
Budge t
zimm er
g ie
%C4%A0den%C4%A0 Plan
,%C4%A0 T
S or
User:%C4%A0Wie%C4%A0gehst%C4%A0du%C4%A0 bei%C4%A0%C3%83%C4%A6nder
(e%C4%A0 =
sich er.
he p
ou t%C4%A0
rieg ?%C4%A0%C4%8AAssistant:%C4%A0
auf %C4%A0und%C4%A0
kon sequ
en.%C4%A0Dann%C4%A0 benennst%C4%A0du%C4%A0
Kohl end
st%C4%A0 Nor
Lin k%C4%A0
f ei
rech n
ti tle
Paar e.%C4%A0
in%C4%A0JS.%C4%A0%C4%8AAssistant:%C4%A0let%C4%A0 s%C4%A0
el si
.%C4%A0Es%C4%A0 be
iz iert.
Gesch wind
c ap
ver liert%C4%A0
Se m
.%C4%A0Dann%C4%A0 no
kart en?%C4%A0%C4%8AAssistant:%C4%A0
grupp ierst%C4%A0
n%C3%83%C2%B6 ti
u%C4%A0 p
Akk u%C4%A0
Ein gabe
ta et
un st
eri al%C4%A0
?%C4%A0%C4%8AAssistant:%C4%A0B akteri
lebend ig
%C3%83%C4%B8ffne%C4%A0das%C4%A0Fenster.%C4%A0%C4%8AAssistant:%C4%A0O p
Ausflu g.
Schrit t
User:%C4%A0%C3%83%C4%BEbersetze%C4%A0ins%C4%A0Franz%C3%83%C2%B6sische:%C4%A0 Eine%C4%A0Fahrkarte%C4%A0bitte.%C4%A0%C4%8AAssistant:%C4%A0U
ich%C4%A0 geh
User:%C4%A0%C3%83%C4%BEbersetze%C4%A0ins%C4%A0Franz%C3%83%C2%B6sische:%C4%A0 Wie%C4%A0sp%C3%83%C2%A4t%C4%A0ist%C4%A0es
User:%C4%A0%C3%83%C4%BEbersetze%C4%A0ins%C4%A0Englische:%C4%A0 Er%C4%A0liest%C4%A0
tig %C4%A0
im um?%C4%A0%C4%8AAssistant:%C4%A0Du%C4%A0
angsame%C4%A0 Erkl%C3%83%C2%A4r
Antwort%C4%A0 sp%C3%83%C2%A4ter.
a zu
St ichwor
.%C4%A0%C4%8AAssistant:%C4%A0I%C4%A0am%C4%A0 sor
3 0%C4%A0
Die%C4%A0 Pr%C3%83%C2%BCfung%C4%A0ist%C4%A0
User:%C4%A0Fasse%C4%A0zusammen:%C4%A0Wir%C4%A0 h%C3%83%C2%B6r
niss e?%C4%A0%C4%8AAssistant:%C4%A0
schlie%C3%83%C5%81 t%C4%A0du%C4%A0
User:%C4%A0%C3%83%C4%BEbersetze%C4%A0ins%C4%A0Englische:%C4%A0Wir%C4%A0 spielen%C4%A0Fu%C3%83%C5%81ball
f%C3%83%C2%BCr %C4%A0d
her ?%C4%A0%C4%8AAssistant:%C4%A0Ein%C4%A0
er folgt%C4%A0
Lernen?%C4%A0%C4%8AAssistant:%C4%A0Du%C4%A0 startest%C4%A0mit%C4%A0
Ein%C4%A0 In
all en%C4%A0
H e
Afrik a.%C4%A0Er%C4%A0
User:%C4%A0Fasse%C4%A0zusammen:%C4%A0Der%C4%A0 Laptop
?%C4%A0%C4%8AAssistant:%C4%A0 U
lo est%C4%A0
?%C4%A0%C4%8AAssistant:%C4%A0Ja.%C4%A0 Ach
f%C3%83%C2%BCr s%C4%A0
ung%C4%A0 nah
lie f%C4%A0gut
Pf eil
.%C4%A0%C4%8AAssistant:%C4%A0 Sch
g lei
auco up.
Rel ation
in for
Good%C4%A0 n
li ti
sp%C3%83%C2%A4ter.%C4%A0%C4%8AAssistant:%C4%A0 E%C4%A0Mail
liest%C4%A0die%C4%A0 Aufgabe
li o
.%C4%A0%C4%8AAssistant:%C4%A0Je%C4%A0bois %C4%A0de%C4%A0
au%C4%A0 fo
.%C4%A0Dann%C4%A0pr%C3%83%C2%BCfst%C4%A0du%C4%A0 sie%C4%A0
spare%C4%A0 Geld
Z it
.%C4%A0Du%C4%A0 nimm
euf ig
ung?%C4%A0%C4%8AAssistant:%C4%A0Du%C4%A0 vergleichst%C4%A0
um?%C4%A0%C4%8AAssistant:%C4%A0Du%C4%A0 planst%C4%A0
Star tz
d 'hui
.%C4%A0 In%C4%A0
User:%C4%A0%C3%83%C4%BEbersetze%C4%A0ins%C4%A0Franz%C3%83%C2%B6sische:%C4%A0 Gute%C4%A0Nacht.%C4%A0%C4%8AAssistant:%C4%A0
r at
w oll
%C4%A2 %C4%A0plus%C4%A0
in de%C4%A0
.%C4%A0%C4%8AAssistant:%C4%A0Je%C4%A0 ch
en%C4%A0Schl achten.
eines%C4%A0 Problem
d a
.%C4%A0Das%C4%A0 Budge
tail s%C4%A0
d%C4%A0 C
User:%C4%A0Warum%C4%A0brauch en%C4%A0wir%C4%A0
Mount%C4%A0Ever est
- 1.
Nud eln
reich ?%C4%A0%C4%8AAssistant:%C4%A0
User:%C4%A0Fasse%C4%A0kurz%C4%A0zusammen:%C4%A0Ein%C4%A0 Bei
lad e%C4%A0das%C4%A0
u te.
User:%C4%A0Fasse%C4%A0zusammen:%C4%A0Der%C4%A0 Hund%C4%A0
.%C4%A0Die%C4%A0 Antwort%C4%A0
Fl%C3%83%C2%A4ch e.
scha ft
Reak tion%C4%A0mit%C4%A0
tr%C3%83%C2%A4g st%C4%A0du%C4%A0
0 %C4%A0-%C4%A0
Ein%C4%A0 Daten
h%C3%83%C2%B6 h
mp lem
off .
fahr en%C4%A0
r el
mag%C4%A0Musik .%C4%A0%C4%8AAssistant:%C4%A0I%C4%A0like%C4%A0
ich%C4%A0 bitte.%C4%A0%C4%8AAssistant:%C4%A0
Gro%C3%83%C5%81 e?%C4%A0%C4%8AAssistant:%C4%A0Ein%C4%A0fr
?%C4%A0%C4%8AAssistant:%C4%A0Ja.%C4%A0 Bei%C4%A0
?%C4%A0%C4%8AAssistant:%C4%A0Du%C4%A0 fragst%C4%A0nach%C4%A0
Kaiser .
User:%C4%A0Wie%C4%A0planst%C4%A0du%C4%A0eine%C4%A0 Ab
Beispiele%C4%A0 geben.
st ation.
com e.
Viel%C4%A0Spa%C3%83%C5%81 .%C4%A0%C4%8AAssistant:%C4%A0H
H on
mplem entier
ne un
0. 5
e%C4%A0ein%C4%A0 Arra
ir %C4%A0das%C4%A0
em%C4%A0 Budget.
toi%C4%A0 s%C4%A0il%C4%A0te%C4%A0plait.
sp e
Wahl en.%C4%A0
3%C4%A0=%C4%A0 2
ist%C4%A0es%C4%A0 sauber
?%C4%A0%C4%8AAssistant:%C4%A0Du%C4%A0 kl%C3%83%C2%A4rst%C4%A0
User:%C4%A0Wie%C4%A0schreibe%C4%A0ich%C4%A0 D
User:%C4%A0%C3%83%C4%BEbersetze%C4%A0ins%C4%A0Franz%C3%83%C2%B6sische:%C4%A0 Sie%C4%A0f%C3%83%C2%A4hr
Detail s.%C4%A0
/%C4%A0 (
.%C4%A0%C4%8AAssistant:%C4%A0Merci %C4%A0be
Beispiel .
f %C3%83%C2%B6r
?%C4%A0%C4%8AAssistant:%C4%A0 Staatenbund.%C4%A0
%C4%A0-%C4%A0 0
eu x
iz iert%C4%A0
S and
Modell %C4%A0
pr%C3%83%C2%BCfst%C4%A0 Einfluss.%C4%A0Dann%C4%A0
Hal lo
mis st%C4%A0die%C4%A0
wird%C4%A0 er
Hunder tst
User:%C4%A0Wie%C4%A0nutzt%C4%A0du%C4%A0 eine%C4%A0
zeichnest%C4%A0 K
User:%C4%A0Wie%C4%A0schreibe%C4%A0ich%C4%A0 Or
od ca
ok u
.%C4%A0Sie%C4%A0 hat%C4%A0
Annahm en%C4%A0
n %C4%A0d
ta pp
Mond ay.
el li
%C4%A0%C3%83%C4%B9%C4%A02 ,%C4%A0wie%C4%A0viel?%C4%A0%C4%8AAssistant:%C4%A02
For ma
in%C4%A0JS.%C4%A0%C4%8AAssistant:%C4%A0 document.
mp ot
lade%C4%A0das%C4%A0 Hand
besser .%C4%A0%C4%8AAssistant:%C4%A0M%C3%83%C2%BCll%C4%A0raus
?%C4%A0%C4%8AAssistant:%C4%A0Ein%C4%A0 Or
ro t
Kon sist
tro cken.
User:%C4%A0Warum%C4%A0 schw
st%C4%A0B ackup
unter sch
Ber ei
age .%C4%A0Dann%C4%A0
t%C4%A0 nicht.
Mind map
%C3%83%C4%A6nder ungen%C4%A0
ch e
pr %C3%83%C2%AA
ungen%C4%A0 vor?%C4%A0%C4%8AAssistant:%C4%A0Du%C4%A0
in%C4%A0 B
lade%C4%A0das%C4%A0Hand y
bereit .%C4%A0%C4%8AAssistant:%C4%A0Je%C4%A0suis%C4%A0
K reis
pr%C3%83%C2%BCf st%C4%A0du%C4%A0die%C4%A0
A ction
ons%C4%A0 au%C4%A0fo
be einflussen.
?%C4%A0%C4%8AAssistant:%C4%A0J ede%C4%A0
ern%C4%A0 gel%C3%83%C2%B6
In%C4%A0 Europa.
Zeitd ruck
ie%C4%A0 und%C4%A0
u .%C4%A0Dann%C4%A0
h%C3%83%C2%A4lt st%C4%A0du%C4%A0die%C4%A0
er st.
an ?%C4%A0%C4%8AAssistant:%C4%A0Du%C4%A0
User:%C4%A0%C3%83%C4%BEbersetze%C4%A0ins%C4%A0Franz%C3%83%C2%B6sische:%C4%A0Ich%C4%A0habe%C4%A0eine%C4%A0Frage .%C4%A0%C4%8AAssistant:%C4%A0J%C4%A0ai%C4%A0
en?%C4%A0%C4%8AAssistant:%C4%A0Du%C4%A0 listest%C4%A0
hel ern
Schritt fol
.%C4%A0Der%C4%A0 Bal
=' st
e.%C4%A0 W
Ko ord
tier t%C4%A0und%C4%A0
er%C4%A0H o
Spr%C3%83%C2%BCn ge.
?%C4%A0%C4%8AAssistant:%C4%A0Ein%C4%A0 Anf%C3%83%C2%BChr
mit%C4%A0 klein
t%C4%A0 oder%C4%A0
Mach%C4%A0bitte%C4%A0das%C4%A0 Fenst
User:%C4%A0Wie%C4%A0funktion ieren%C4%A0
ern%C4%A0 um?%C4%A0%C4%8AAssistant:%C4%A0Du%C4%A0
su mm
ohne%C4%A0 Klische
.%C4%A0Danach%C4%A0 ist%C4%A0es%C4%A0sauber
w ahl%C4%A0
oder%C4%A0 n
gehen%C4%A0 sp
%C4%A0+%C4%A0 6
en.%C4%A0K %C3%83%C2%BCrz
%C3%83%C2%B6 t
lich en%C4%A0
hin zu.%C4%A0%C4%8AAssistant:%C4%A0
gut .%C4%A0%C4%8AAssistant:%C4%A0O
bar %C4%A0und%C4%A0
en%C4%A0 Schrit
User:%C4%A0Fasse%C4%A0zusammen:%C4%A0Wir%C4%A0 plan
ch mal%C4%A0
t,%C4%A0 alles%C4%A0
pass ende%C4%A0
E s
ver a
stellst%C4%A0 Frag
,%C4%A0passt%C4%A0 2
User:%C4%A0Fasse%C4%A0zusammen:%C4%A0Das%C4%A0Fahrrad%C4%A0 quietscht.%C4%A0Ich%C4%A0
Kommun ik
User:%C4%A0%C3%83%C4%BEbersetze%C4%A0ins%C4%A0Franz%C3%83%C2%B6sische:%C4%A0Ich%C4%A0 trinke%C4%A0Wasser
.%C4%A0%C4%8AAssistant:%C4%A0 Der%C4%A0
%C3%83 %C4%A2%C4%A0plus%C4%A0
zw ass
ern%C4%A0gel%C3%83%C2%B6 st.
EU .%C4%A0
,%C4%A0was%C4%A0 ist%C4%A0das?%C4%A0%C4%8AAssistant:%C4%A0
Ne bel
%C4%A0est%C4%A0 l
t u%C4%A0
leg st%C4%A0in%C4%A0Teile.%C4%A0Dann%C4%A0
%C3%83%C2%BC her
d%C4%A0C elsi
At om
Mach t.
m%C4%A0mit%C4%A0 Kopfh%C3%83%C2%B6r
User:%C4%A0Fasse%C4%A0zusammen:%C4%A0Ich%C4%A0 spare%C4%A0Geld
el f.
Audio .%C4%A0Du%C4%A0
w%C3%83%C2%A4hl t.%C4%A0
D enk
ander s.
Zita te.
le.%C4%A0Dann%C4%A0 w%C3%83%C2%A4hlst%C4%A0du%C4%A0
spannend .%C4%A0%C4%8AAssistant:%C4%A0
ern euer
?%C4%A0%C4%8AAssistant:%C4%A0 Menschen%C4%A0
ein%C4%A0 K%C3%83%C2%B6nig.
Buch%C4%A0 ist%C4%A0
breitet%C4%A0 sich%C4%A0in%C4%A0
t%C4%A0L icht.
Gegen beispiel
t%C4%A0 wird%C4%A0
gewa schen%C4%A0
%C4%A0das%C4%A0 auf
umen .%C4%A0Der%C4%A0Bal
User:%C4%A0Fasse%C4%A0zusammen:%C4%A0Das%C4%A0 Zimmer%C4%A0ist%C4%A0
4 %C4%A0%C3%83%C4%B9%C4%A0
User:%C4%A0Wie%C4%A0be endest%C4%A0du%C4%A0eine%C4%A0
beginn en%C4%A0
i ti
t p
ar ri
knapp .
m om
Beweg ung.
11 .%C4%A0Du%C4%A0
machst%C4%A0 einen%C4%A0
uf all
ech er%C4%A0
langsam .%C4%A0Alle%C4%A0
Dat en.%C4%A0Dann%C4%A0
ar en%C4%A0f%C3%83%C2%BCr%C4%A0ein%C4%A0
Info s
wird%C4%A0 bun
c c
Tempo%C4%A0 und%C4%A0
y%C4%A0 so
en?%C4%A0%C4%8AAssistant:%C4%A0 Liste%C4%A0
User:%C4%A0Wie%C4%A0schreibe%C4%A0ich%C4%A0eine%C4%A0 L
.%C4%A0%C4%8AAssistant:%C4%A0I%C4%A0am%C4%A0 learning%C4%A0
%C4%A0=%C4%A0 9.
Subjekt%C4%A0 hand
.%C4%A0Klar er%C4%A0
te?%C4%A0%C4%8AAssistant:%C4%A0 Rechte%C4%A0
W ichtig
gr %C3%83%C2%A4
%C3%83%C2%BCh m
einf lu
4 4
Rest%C4%A0 weg
steig en.%C4%A0
t,%C4%A0alles%C4%A0 sauber.
tet%C4%A0f%C3%83%C2%BCr%C4%A0 Frieden.
Regen wal
Jahreszeit en
und%C4%A0 Gedank
a es
Sch la
sch%C3%83%C2%BCtzen%C4%A0 Rechte.
Sahar a
zu erst.
nach%C4%A0 Schwierigkeit.
0%C4%A0%C3%83%C2%B7%C4%A0 10
ons%C4%A0 au
l%C3%83%C2%A4s st%C4%A0du%C4%A0
User:%C4%A0Wie%C4%A0merk st%C4%A0du%C4%A0d
in%C4%A0JS.%C4%A0%C4%8AAssistant:%C4%A0let%C4%A0s%C4%A0 =%C4%A0
Mach%C4%A0bitte%C4%A0das%C4%A0Fenst er%C4%A0auf
?%C4%A0%C4%8AAssistant:%C4%A0 Preise%C4%A0
,%C4%A0was%C4%A0 pass
g il
Seite%C4%A0l%C3%83%C2%A4d t%C4%A0nicht
Er%C4%A0 lern
.%C4%A0%C4%8AAssistant:%C4%A0 G
I f
ist%C4%A0eine%C4%A0 SI%C4%A0Einheit%C4%A0fuer%C4%A0
User:%C4%A0 Kannst%C4%A0du%C4%A0
antwor ten.
gu tem%C4%A0Duf
Mensch en
User:%C4%A0Fasse%C4%A0zusammen:%C4%A0Das%C4%A0Zimmer%C4%A0ist%C4%A0 lau
ing%C4%A0 a%C4%A0
.%C4%A0%C4%8AAssistant:%C4%A0 Stark
alo ge%C4%A0
G ol
Nach t
V ali
Begriff e.%C4%A0Dann%C4%A0
User:%C4%A0%C3%83%C4%BEbersetze%C4%A0ins%C4%A0Franz%C3%83%C2%B6sische:%C4%A0Wie%C4%A0geht%C4%A0es%C4%A0dir.%C4%A0%C4%8AAssistant:%C4%A0Comment%C4%A0 %C3%83%C2%A7a%C4%A0va.
User:%C4%A0%C3%83%C4%BEbersetze%C4%A0ins%C4%A0Franz%C3%83%C2%B6sische:%C4%A0Ich%C4%A0bin%C4%A0 bereit.%C4%A0%C4%8AAssistant:%C4%A0Je%C4%A0suis%C4%A0
w ie%C4%A0
%C3%83%C2%B6 d
Aufgab en%C4%A0vor?%C4%A0%C4%8AAssistant:%C4%A0Du%C4%A0
in%C4%A0 m
27 .
en%C4%A0 re
f eln
s formen.%C4%A0
y I
er%C4%A0 geht.
Br %C3%83%C2%B6t
umm er
j unktion
misch er%C4%A0
Minut en.%C4%A0Dann%C4%A0
%C3%83%C2%BCnkt lich
it %C4%A0dem%C4%A0
Gleich gew
Pr%C3%83%C2%A4sent ation?%C4%A0%C4%8AAssistant:%C4%A0Du%C4%A0
9.%C4%A0 Halb
m e
st%C4%A0du%C4%A0d igitale%C4%A0
steigen.%C4%A0 Gel
F oto
si muli
mm t.
Pro mpt
brauch e%C4%A0
User:%C4%A0%C3%83%C4%BEbersetze%C4%A0ins%C4%A0Franz%C3%83%C2%B6sische:%C4%A0Gute%C4%A0Nacht.%C4%A0%C4%8AAssistant:%C4%A0 Bonne%C4%A0
teil st%C4%A0
z it
us%C4%A0 pla%C3%83%C2%AEt.
Was%C4%A0 kostet%C4%A0das
l en.%C4%A0Dann%C4%A0
T%C3%83%C2%A4g liches%C4%A0G
User:%C4%A02 /
bei%C4%A0 Fehl
Nam en?%C4%A0%C4%8AAssistant:%C4%A0
azier gang
x%C4%A0 tu%C4%A0
k m
Sprach e.
Wer te.
.%C4%A0%C4%8AAssistant:%C4%A0We%C4%A0 pla
H %C3%83%C2%A4l
%C4%A0+%C4%A0 12
h%C3%83%C2%B6r en.
.%C4%A0Zehner%C4%A0 teil
De pre
Kann st%C4%A0du%C4%A0das%C4%A0
Ger %C3%83%C2%BCch
Ver besser
User:%C4%A0Wie%C4%A0schreibe%C4%A0ich%C4%A0Figur en
ist%C4%A0eine%C4%A0 gute%C4%A0
f%C3%83%C2%BCr %C4%A0den%C4%A0
- Ket
sehr .%C4%A0%C4%8AAssistant:%C4%A0
en.%C4%A0 Neues%C4%A0
ur op
ver ur
%C3%83%C4%A2%C4%A0plus%C4%A0 tard.
si klern
Afrika.%C4%A0Sehr%C4%A0 trocken.
t%C4%A0d urch
und zwanz
addier st%C4%A0die%C4%A0
einer%C4%A0 Zahl
ihr e%C4%A0
bau en.%C4%A0
b en?%C4%A0%C4%8AAssistant:%C4%A0
%C3%83%C2%A4ch tige%C4%A0
Elemen te.
%C4%A0ist%C4%A0 ein%C4%A0
l%C4%A0 eau.
20 ?%C4%A0%C4%8AAssistant:%C4%A0Ja.%C4%A01
.%C4%A0%C4%8AAssistant:%C4%A0Je%C4%A0su is
steh en%C4%A0im%C4%A0
Frage .%C4%A0Oder%C4%A0
si k%C4%A0
pl ant
st%C4%A0du%C4%A0einen%C4%A0 Ablauf
anach .
.%C4%A0%C4%8AAssistant:%C4%A0I%C4%A0 w
sol %C3%83%C2%A9.
Koord in
t%C4%A0d ass
ung%C4%A0nah t,%C4%A0
Se tz%C4%A0d
se%C4%A0Musik .%C4%A0Wir%C4%A0
User:%C4%A0%C3%83%C4%BEbersetze%C4%A0ins%C4%A0Franz%C3%83%C2%B6sische:%C4%A0 Kein%C4%A0Problem
Setz%C4%A0d ich%C4%A0bitte.%C4%A0%C4%8AAssistant:%C4%A0
User:%C4%A0Wie%C4%A0stopp st%C4%A0du%C4%A0eine%C4%A0
.%C4%A0Stro m%C4%A0
j ou
st%C4%A0du%C4%A0 D
urop %C3%83%C2%A4ischer%C4%A0
Zug %C4%A0
m%C4%A0mit%C4%A0Kopfh%C3%83%C2%B6r ern%C4%A0gel%C3%83%C2%B6st.
arn ing
Heute%C4%A0ist%C4%A0Montag .%C4%A0%C4%8AAssistant:%C4%A0Today%C4%A0is%C4%A0
Bed arf
l %C3%83%C2%A8me.
eg en%C4%A0
per%C4%A0 JS.%C4%A0%C4%8AAssistant:%C4%A0
e%C4%A0die%C4%A0 Bibliothek
Satz zeichen%C4%A0
.%C4%A0%C4%8AAssistant:%C4%A0Where%C4%A0is%C4%A0the%C4%A0 tra
t%C4%A0mit%C4%A0 gut
er en%C4%A0
en%C4%A0vor %C4%A0dem%C4%A0
gel es
ess ant
User:%C4%A0Fasse%C4%A0zusammen:%C4%A0Die%C4%A0 Stra
W arte
Ru h
U S
st%C4%A0 und%C4%A0
si sch
Ziel .%C4%A0
.%C4%A0%C4%8AAssistant:%C4%A0We%C4%A0pla y%C4%A0so
Wasser%C4%A0 um
mmun s
i um%C4%A0
Con t
iere%C4%A0 mit%C4%A0dem%C4%A0
Vor schlag
in%C4%A0 Wolk
u ben%C4%A0
User:%C4%A0Median%C4%A0 von%C4%A0
K n
Programm %C4%A0f%C3%83%C2%BCr%C4%A0
hat%C4%A0 time%C4%A0
e?%C4%A0%C4%8AAssistant:%C4%A0Du%C4%A0 sammelst%C4%A0
en?%C4%A0%C4%8AAssistant:%C4%A0Du%C4%A0 nutzt%C4%A0
es%C4%A0 einer%C4%A0
bleiben%C4%A0 zu%C4%A0Hau
Puf fer
Ver mehr
User:%C4%A0Was%C4%A0ist%C4%A0ein%C4%A0 Nerv
%C3%83%C2%A4 t%C4%A0
al ten.
Pr%C3%83%C2%BCf ung%C4%A0naht,%C4%A0
fest er%C4%A0
Kalte%C4%A0Krieg ?%C4%A0%C4%8AAssistant:%C4%A0
essen%C4%A0 konstant
les en.
M or
ssch rit
User:%C4%A0%C3%83%C4%BEbersetze%C4%A0ins%C4%A0Franz%C3%83%C2%B6sische:%C4%A0 Viel%C4%A0Spa%C3%83%C5%81
ab ?%C4%A0%C4%8AAssistant:%C4%A0Du%C4%A0
tudie%C4%A0 pour%C4%A0
end ?%C4%A0%C4%8AAssistant:%C4%A0Du%C4%A0vergleichst%C4%A0
.%C4%A0%C4%8AAssistant:%C4%A0Where%C4%A0is%C4%A0the%C4%A0 library.
%C3%83%C2%BC %C3%83%C5%81
Kriterien.%C4%A0Dann%C4%A0 bewertest%C4%A0du%C4%A0
Klima wand
.%C4%A0Dann%C4%A0testest%C4%A0du%C4%A0 Beispiele.
h erstell
ide e.
st%C4%A0du%C4%A0 zur%C3%83%C2%BCck.
zehn%C4%A0 weg.
.%C4%A0%C4%8AAssistant:%C4%A0L %C3%83%C2%A4r
Mat ri
User:%C4%A0Wie%C4%A0schreibe%C4%A0ich%C4%A0H umor
treff ende%C4%A0
e ma%C4%A0
lo s
Zu cker%C4%A0
E is%C4%A0
Koordin at
add ierst%C4%A0du%C4%A0
B %C3%83%C2%BCch
T at
Roll en.
?%C4%A0%C4%8AAssistant:%C4%A0Preise%C4%A0 steigen.%C4%A0Gel
Insel gruppe.%C4%A0
.%C4%A0Dann%C4%A0 teilst%C4%A0du%C4%A0
o le
geschicht en?%C4%A0%C4%8AAssistant:%C4%A0
Aufwand .
Volksabstimm ung.%C4%A0
E m
st%C4%A0 im%C4%A0
ist%C4%A0 inter
Bro t%C4%A0mit%C4%A0
Antwor ten.%C4%A0Dann%C4%A0
on d%C4%A0
in%C4%A0JS.%C4%A0%C4%8AAssistant:%C4%A0 se
ob j
Par is
t%C4%A0die%C4%A0 Reg
berech ne
w enden.
ver gibst%C4%A0
is ualisier
Ver such
t.%C4%A0%C4%8AAssistant:%C4%A0 B
a%C4%A0co %C3%83
Excuse%C4%A0 me.
zeig en%C4%A0
tes%C4%A0 o
?%C4%A0%C4%8AAssistant:%C4%A0Ein%C4%A0 Bild%C4%A0
2 3.%C4%A0
n ie
nam e
Sei fe%C4%A0
Zimmer%C4%A0ist%C4%A0 sauber
Alltag %C4%A0
e%C4%A0d o%C4%A0you%C4%A0
mag%C4%A0Musik.%C4%A0%C4%8AAssistant:%C4%A0I%C4%A0like%C4%A0 musi
t%C4%A0gut .%C4%A0%C4%8AAssistant:%C4%A0W
Zehn er
k eine%C4%A0
Blei be%C4%A0
en%C4%A0 le
User:%C4%A0Wie%C4%A0lie st%C4%A0du%C4%A0eine%C4%A0
e%C4%A0 Aufgaben%C4%A0
regier t.%C4%A0
User:%C4%A0Loese%C4%A0 3
n ui
User:%C4%A0Was%C4%A0ist%C4%A0eine%C4%A0 Diktatur
User:%C4%A0%C3%83%C4%BEbersetze%C4%A0ins%C4%A0Englische:%C4%A0Wir%C4%A0 kochen%C4%A0
.%C4%A0Danach%C4%A0 trink
?%C4%A0%C4%8AAssistant:%C4%A0Ein%C4%A0 Ger%C3%83%C2%A4t%C4%A0
Alltag .%C4%A0N
Ad jek
en,%C4%A0 guter%C4%A0
an gab
K uch
klar %C4%A0und%C4%A0
ru ch%C4%A0
o ge?%C4%A0%C4%8AAssistant:%C4%A0
weich ung%C4%A0
klick st%C4%A0du%C4%A0auf%C4%A0
t ?%C4%A0%C4%8AAssistant:%C4%A0Du%C4%A0nutzt%C4%A0
1 .%C4%A0
be such%C4%A0mit%C4%A0
User:%C4%A014 %C4%A0+%C4%A0
ich%C4%A0geh en.%C4%A0%C4%8AAssistant:%C4%A0
User:%C4%A0Wie%C4%A0erstell st%C4%A0du%C4%A0ein%C4%A0
K rie
sche%C4%A0 gewaschen%C4%A0
t.%C4%A0Dann%C4%A0 testest%C4%A0du%C4%A0
Po in
Stad t.
El f%C4%A0abziehen.
.%C4%A0%C4%8AAssistant:%C4%A0I%C4%A0am%C4%A0 lo
Akku ,%C4%A0
User:%C4%A0Fasse%C4%A0zusammen:%C4%A0Der%C4%A0 Unterricht%C4%A0
User:%C4%A0%C3%83%C4%BEbersetze%C4%A0ins%C4%A0Englische:%C4%A0 Eine%C4%A0Fahrkarte%C4%A0bitte.%C4%A0%C4%8AAssistant:%C4%A0
en%C4%A0 Oma
arte s%C4%A0
le se%C4%A0
erkl%C3%83%C2%A4r st%C4%A0
P il
%C3%83%C2%A4hl e%C4%A0
ek tiere%C4%A0
S kri
si tiv
bis%C4%A0 es%C4%A0
sind%C4%A0 gut.%C4%A0%C4%8AAssistant:%C4%A0O
et ,%C4%A0
User:%C4%A015 %C4%A0+%C4%A0
Akku,%C4%A0 Handy%C4%A0
en.%C4%A0%C4%8AAssistant:%C4%A0 Sp
sich .%C4%A0
t Element
B all
ein%C4%A0 Element%C4%A0
b le%C4%A0
Zahl en.
.%C4%A0%C4%8AAssistant:%C4%A0I%C4%A0am%C4%A0sor ry.
Himalaya?%C4%A0%C4%8AAssistant:%C4%A0Ein%C4%A0 Gebir
hand l
gen utz
k on%C4%A0
Ster n.
.%C4%A0Danach%C4%A0 fal
tst a
im%C4%A0Kopf .
rie si
hat%C4%A0time%C4%A0 is%C4%A0
Inhal t.
sik%C4%A0 beim%C4%A0
eit er%C4%A0
t s?%C4%A0%C4%8AAssistant:%C4%A0
be achten.
%C3%83%C4%BEber gab
f te.
.%C4%A0Null%C4%A0 %C3%83%C2%A4ndert%C4%A0nichts.
ich t%C4%A0d
folg st%C4%A0du%C4%A0
Auf %C4%A0dem%C4%A0
ut ?%C4%A0%C4%8AAssistant:%C4%A0Das%C4%A0
User:%C4%A0Fasse%C4%A0zusammen:%C4%A0Der%C4%A0Lehrer%C4%A0 erkl%C3%83%C2%A4rt%C4%A0
%C4%A0 tick
Danke%C4%A0 sch%C3%83%C2%B6n
User:%C4%A0Wie%C4%A0 z%C3%83%C2%A4hl
y%C4%A0 in%C4%A0JS.%C4%A0%C4%8AAssistant:%C4%A0
ent%C4%A0 wird%C4%A0mit%C4%A0
ku ss
er%C4%A0aus%C4%A0 In
Ergebniss e?%C4%A0%C4%8AAssistant:%C4%A0Du%C4%A0
Elemen t%C4%A0der%C4%A0
.%C4%A0Z eit%C4%A0
ro ut
User:%C4%A05 %C4%A0+%C4%A0
s zen
Gra v
Str ings%C4%A0
%C4%A0+%C4%A0 9
en %C4%A0%C4%8AAssistant:%C4%A01
riesi g
Miss brauch.
t.%C4%A0%C4%8AAssistant:%C4%A0 Katze%C4%A0
Bedarf .%C4%A0Dann%C4%A0
se%C4%A0 C
entsteh en%C4%A0durch%C4%A0
Sie%C4%A0 tanz
Bi enen%C4%A0
il l
?%C4%A0%C4%8AAssistant:%C4%A0R und%C4%A0
en.%C4%A0 Kleine%C4%A0
B .
.%C4%A0Die%C4%A0 Farben%C4%A0
fli k
begr %C3%83%C2%BCn
vergleichst%C4%A0du%C4%A0 mit%C4%A0
hin zu.
Arbei tet%C4%A0f%C3%83%C2%BCr%C4%A0Frieden.
ann%C4%A0 ich%C4%A0gehen.%C4%A0%C4%8AAssistant:%C4%A0
ctor ing%C4%A0
Es%C4%A0tut%C4%A0mir%C4%A0leid .%C4%A0%C4%8AAssistant:%C4%A0Je%C4%A0suis
t%C4%A0im%C4%A0 Team
,%C4%A0stimmt%C4%A0 30?%C4%A0%C4%8AAssistant:%C4%A0Ja.%C4%A0
en.%C4%A0 Ver
We ge
dund anz
sp%C3%83%C2%A4ter.%C4%A0%C4%8AAssistant:%C4%A0E%C4%A0Mail %C4%A0
arbei tet%C4%A0
.%C4%A0S zen
User:%C4%A0Wie%C4%A0 l%C3%83%C2%A4d
kal t.%C4%A0Ich%C4%A0
tr %C3%83%C2%B6
bedeute t%C4%A0dass
B eh
oe ste%C4%A0
ch%C4%A0bei%C4%A0 Oma
St uf
e%C4%A0do%C4%A0you%C4%A0 li
w ohne%C4%A0
en%C4%A0 g
Le arning
sind%C4%A0gut.%C4%A0%C4%8AAssistant:%C4%A0O bst
er- Reihe.
me%C4%A0la%C4%A0 musi
lin k
at enz
sch on
%C4%A0der%C4%A0Mitte%C4%A0 der%C4%A0
au ss
User:%C4%A0Wie%C4%A0struktur ier
en%C4%A0vor%C4%A0dem%C4%A0 Te
Ausnahm en.
sch%C3%83%C2%A4tz t%C4%A0
Preis en.
zeit ?%C4%A0%C4%8AAssistant:%C4%A0Du%C4%A0
lin e%C4%A0
st%C4%A0den%C4%A0 Ablauf
ten%C4%A0 Bedingungen%C4%A0
o u%C4%A0
erstell st%C4%A0
.%C4%A0%C4%8AAssistant:%C4%A0 %C3%83
end .
.%C4%A0%C4%8AAssistant:%C4%A0Leise%C4%A0 Mu
13 .%C4%A0
.%C4%A0Dann%C4%A0testest%C4%A0du%C4%A0 sofort.
Les en.
W elle%C4%A0
ich te
gro%C3%83%C5%81e%C4%A0Land masse.%C4%A0
, %C4%A0der%C4%A0
For m%C4%A0
.%C4%A0%C4%8AAssistant:%C4%A0P as
frag en%C4%A0vor?%C4%A0%C4%8AAssistant:%C4%A0Du%C4%A0
tive%C4%A0 La
Schutz %C4%A0
lieg en%C4%A0
2 .%C4%A0Doppelt%C4%A0
Menschen rech
User:%C4%A0Was%C4%A0ist%C4%A0 K
User:%C4%A0Was%C4%A0ist%C4%A0die%C4%A0UNO ?%C4%A0%C4%8AAssistant:%C4%A0Staatenbund.%C4%A0
si v
hilf t%C4%A0d
?%C4%A0%C4%8AAssistant:%C4%A0Ein%C4%A0 fr
?%C4%A0%C4%8AAssistant:%C4%A0 Bildha
Roll e%C4%A0
st%C3%83%C2%A4nd lich%C4%A0bleib
User:%C4%A0Wer%C4%A0war%C4%A0 N
age ?%C4%A0%C4%8AAssistant:%C4%A0
sches%C4%A0 Brot%C4%A0mit%C4%A0
Stad tsta
%C3%83%C5%81e%C4%A0 ist%C4%A0
Bundes land
?%C4%A0%C4%8AAssistant:%C4%A0Eine%C4%A0Person%C4%A0 regiert.%C4%A0
lieg t%C4%A0
t%C4%A0 wird.
hin dere%C4%A0
ar l
.%C4%A0Zehner%C4%A0teil en.
User:%C4%A0%C3%83%C4%BEbersetze%C4%A0ins%C4%A0Franz%C3%83%C2%B6sische:%C4%A0Wo%C4%A0 wohnst%C4%A0du
kommt%C4%A0 nach%C4%A0vorn.
T a
er%C4%A0 Wandel
User:%C4%A0Was%C4%A0ist%C4%A0ein%C4%A0 Algorith
brauche%C4%A0 Ruhe
li en.
.%C4%A0Neun er
%C3%83%C2%A4h e.
18 .
?%C4%A0%C4%8AAssistant:%C4%A0Ein%C4%A0 r%C3%83%C2%B6
I mmuns
Dok u.%C4%A0Dann%C4%A0
ap ole
Reihenfolge%C4%A0 an.
t%C4%A0mit%C4%A0gut en%C4%A0
mag%C4%A0Musik.%C4%A0%C4%8AAssistant:%C4%A0I%C4%A0like%C4%A0musi c
?%C4%A0%C4%8AAssistant:%C4%A0Ein%C4%A0fr anz%C3%83%C2%B6si
kann%C4%A0 in%C4%A0
azu .%C4%A0%C4%8AAssistant:%C4%A0Leise%C4%A0Mu
arr en
kal t.
%C4%A0=%C4%A0 7.
.%C4%A0Es%C4%A0 ist%C4%A0sehr%C4%A0
erg %C3%83%C2%A4n
.%C4%A0Z um%C4%A0Beispiel%C4%A0
La v
au l
.%C4%A0%C4%8AAssistant:%C4%A0 Ber
brich st%C4%A0du%C4%A0
sche%C4%A0gewaschen%C4%A0 und%C4%A0gefal
setze%C4%A0 Kopfh%C3%83%C2%B6r
kling en%C4%A0
.%C4%A0Dann%C4%A0 nutzt%C4%A0du%C4%A0
Road map
fal l%C4%A0
en?%C4%A0%C4%8AAssistant:%C4%A0Du%C4%A0schreibst%C4%A0 sie%C4%A0
genau e%C4%A0
verbin dest%C4%A0du%C4%A0
der alismus?%C4%A0%C4%8AAssistant:%C4%A0
%C4%A0 bleibt.
t%C4%A0ist%C4%A0 klein
st%C4%A0Nor mal
User:%C4%A0Was%C4%A0ist%C4%A0ein%C4%A0Staatsoberhaupt?%C4%A0%C4%8AAssistant:%C4%A0H%C3%83%C2%B6chste%C4%A0Person%C4%A0im%C4%A0Staat .%C4%A0Oft%C4%A0
N %C3%83%C2%A4ch
ru ch
a%C4%A0 oder%C4%A0n
User:%C4%A0%C3%83%C4%BEbersetze%C4%A0ins%C4%A0Englische:%C4%A0 Entschuldigung.%C4%A0%C4%8AAssistant:%C4%A0
e%C4%A0ich%C4%A0m ir%C4%A0
%C3%83%C2%B6rter%C4%A0 sammeln.
ein mal
w%C3%83%C2%A4hl st%C4%A0die%C4%A0
ti bi
te%C4%A0 sehr.%C4%A0%C4%8AAssistant:%C4%A0
bau ten%C4%A0
D ow
sten%C4%A0 Schritt.
ad el%C4%A0
User:%C4%A0%C3%83%C4%BEbersetze%C4%A0ins%C4%A0Englische:%C4%A0Ich%C4%A0lerne%C4%A0 f%C3%83%C2%BCr%C4%A0die%C4%A0Pr%C3%83%C2%BCfung
Routin e%C4%A0
.%C4%A0 Sch
r e%C4%A0
er zeichen.
t bewer
beginn st%C4%A0
EUR %C4%A0und%C4%A0
User:%C4%A01 6
%C4%A0und%C4%A0 G
io xid%C4%A0
en,%C4%A0guter%C4%A0 Erfolg.
User:%C4%A0%C3%83%C4%BEbersetze%C4%A0ins%C4%A0Franz%C3%83%C2%B6sische:%C4%A0Ich%C4%A0bin%C4%A0m%C3%83%C2%BCde.%C4%A0%C4%8AAssistant:%C4%A0Je%C4%A0suis%C4%A0fatigu %C3%83%C2%A9.
!%C4%A0 Was%C4%A0
Form ular
User:%C4%A0%C3%83%C4%BEbersetze%C4%A0ins%C4%A0Englische:%C4%A0 Gute%C4%A0Nacht.%C4%A0%C4%8AAssistant:%C4%A0
wer te.%C4%A0Dann%C4%A0
sta a
User:%C4%A0Warum%C4%A0 sind%C4%A0
User:%C4%A0Was%C4%A0be wirk
User:%C4%A0Was%C4%A0ist%C4%A0ein%C4%A0 Magnet
ung?%C4%A0%C4%8AAssistant:%C4%A0 Nenn
nutzt%C4%A0 klare%C4%A0
sp%C3%83%C2%A4 ter%C4%A0
Kohlend ioxid%C4%A0
%C3%83%C2%B6 deralismus?%C4%A0%C4%8AAssistant:%C4%A0
te st%C4%A0du%C4%A0eine%C4%A0
kri ti
im%C4%A0 Text
ro m%C4%A0
odca st
imm %C4%A0
tanzk riteri
r%C4%A0 gut%C4%A0
.%C4%A0%C4%8AAssistant:%C4%A0J%C4%A0ai%C4%A0 faim.
ch%C4%A0 is%C4%A0that.
tr alit
User:%C4%A0Wie%C4%A0verbess erst%C4%A0du%C4%A0
%C4%A0%C3%83%C4%B9%C4%A0 7
Antwort%C4%A0 hin
art eien%C4%A0
Mark t%C4%A0
st%C4%A0du%C4%A0 zusammen.
z iere%C4%A0mit%C4%A0dem%C4%A0
Aufgab en.%C4%A0
O ff
en.%C4%A0Dann%C4%A0 baust%C4%A0du%C4%A0
?%C4%A0%C4%8AAssistant:%C4%A0 Teil
kl einer%C4%A0
.%C4%A0%C4%8AAssistant:%C4%A0I%C4%A0am%C4%A0 read
g ni
L%C3%83%C2%BCck en.
e%C4%A0ich%C4%A0 einen%C4%A0
w ass
bess er%C4%A0geht.
User:%C4%A0%C3%83%C4%BEbersetze%C4%A0ins%C4%A0Englische:%C4%A0Das%C4%A0 ist%C4%A0einfach
euch te%C4%A0
kurz en%C4%A0
Gef%C3%83%C2%BCh le.
anc e%C4%A0
st ag
ein bauen.
.%C4%A0Er%C4%A0 ist%C4%A0sehr%C4%A0
Lim it
Fo lien.
D ruck
Ein%C4%A0 C
e%C4%A0 rien.
lauf .
nach%C4%A0 Zeit.
zwei er%C4%A0
bitte.%C4%A0%C4%8AAssistant:%C4%A0 Excuse%C4%A0
%C3%83%C2%BCtz t.
tiz en?%C4%A0%C4%8AAssistant:%C4%A0
liche%C4%A0 Rede%C4%A0
%C4%A0c %C4%A0est%C4%A0l
Schutz%C4%A0 vor%C4%A0
t%C4%A0 auf%C4%A0
en%C4%A0 Menschen.
wech s
%C3%83%C2%BCr bar%C4%A0machen.
En de%C4%A0
.%C4%A0Neu er%C4%A0
%C3%83%C4%B8ffne%C4%A0das%C4%A0Fenster.%C4%A0%C4%8AAssistant:%C4%A0Op en%C4%A0the%C4%A0window.
Fahrra d.
w a%C4%A0
8%C4%A0%C3%83%C2%B7%C4%A0 4
schei be%C4%A0
.%C4%A0%C4%8AAssistant:%C4%A0Au jourd%C4%A0hui
User:%C4%A0Warum%C4%A0 seh
Wasser%C4%A0um geben.
C SS
User:%C4%A0Was%C4%A0ist%C4%A0 Arch%C3%83%C2%A4
sik%C4%A0beim%C4%A0 Lesen.
Anfang s
ad e%C4%A0
.%C4%A0Er%C4%A0wurde%C4%A0 Kaiser.
f%C3%83%C2%BChr st%C4%A0
.%C4%A0G il
benoetig t%C4%A0
umm e%C4%A0ist%C4%A0
w%C3%83%C2%A4rm t%C4%A0gut.%C4%A0%C4%8AAssistant:%C4%A0W
L%C3%83%C2%A4nge%C4%A0 und%C4%A0
andhi ?%C4%A0%C4%8AAssistant:%C4%A0Ein%C4%A0Anf%C3%83%C2%BChr
Heute%C4%A0ist%C4%A0Montag .%C4%A0%C4%8AAssistant:%C4%A0Aujourd%C4%A0hui
%C3%83%C2%A4 sche%C4%A0gewaschen%C4%A0und%C4%A0gefal
ge geb
e?%C4%A0%C4%8AAssistant:%C4%A0 M
?%C4%A0%C4%8AAssistant:%C4%A0 Ergebnis%C4%A0
Ar t.%C4%A0Dann%C4%A0
%C4%A0 reich
D e%C4%A0rien.
,%C4%A0 Wasser%C4%A0und%C4%A0
P an
f unktion
tr ick
.%C4%A0Sech s%C4%A0
?%C4%A0%C4%8AAssistant:%C4%A0 F
M au
Gro essen%C4%A0konstant
studiere%C4%A0Informatik .%C4%A0%C4%8AAssistant:%C4%A0I%C4%A0study%C4%A0
fress er%C4%A0
pr ess
kor rig
ni s.%C4%A0
n%C3%83%C2%A4ch sten%C4%A0Schritt.
ak ehol
iel e?%C4%A0%C4%8AAssistant:%C4%A0
ft war
.%C4%A0%C4%8AAssistant:%C4%A0Nous%C4%A0av ons
Buch%C4%A0ist%C4%A0 spannend
User:%C4%A0Fasse%C4%A0zusammen:%C4%A0Die%C4%A0 Pr%C3%83%C2%BCfung%C4%A0ist%C4%A0
.%C4%A0Danach%C4%A0ist%C4%A0es%C4%A0sauber .%C4%A0%C4%8AAssistant:%C4%A0
User:%C4%A0Wer%C4%A0war%C4%A0N apole
f ri
en.%C4%A0K lang
Handl ung.%C4%A0
U se%C4%A0C
el le.
sin ons%C4%A0au
Sch at
angab en?%C4%A0%C4%8AAssistant:%C4%A0
bin d
?%C4%A0%C4%8AAssistant:%C4%A0Du %C4%A0de
lernen%C4%A0 Englisch
Berg %C4%A0der%C4%A0
Revolution ?%C4%A0%C4%8AAssistant:%C4%A0
antwor test%C4%A0du%C4%A0
R%C3%83%C2%A4um e.%C4%A0
a mit.
G eteil
seh e%C4%A0den%C4%A0
An forder
User:%C4%A0%C3%83%C4%BEbersetze%C4%A0ins%C4%A0Franz%C3%83%C2%B6sische:%C4%A0 Heute%C4%A0ist%C4%A0Montag.%C4%A0%C4%8AAssistant:%C4%A0Aujourd%C4%A0hui
mark ieren.%C4%A0
t%C4%A0 un%C4%A0
Kohl enst
ation en?%C4%A0%C4%8AAssistant:%C4%A0
Danke%C4%A0 f%C3%83%C2%BCr%C4%A0d
User:%C4%A0Wie%C4%A0planst%C4%A0du%C4%A0 Erfolg
Inf o%C4%A0
ur g
User:%C4%A0Fasse%C4%A0zusammen:%C4%A0Ich%C4%A0 schreib
User:%C4%A0Fasse%C4%A0zusammen:%C4%A0Ich%C4%A0 bring
en%C4%A0d azu.%C4%A0%C4%8AAssistant:%C4%A0Leise%C4%A0Mu
- Fakt
al lem
User:%C4%A0Wie%C4%A0planst%C4%A0du%C4%A0 Wiederholung%C4%A0
beweg t%C4%A0sich%C4%A0
geschloss ener%C4%A0
e fin
luess el
User:%C4%A0Wie%C4%A0schreibe%C4%A0ich%C4%A0 Wet
User:%C4%A0Wie%C4%A0funktioniert%C4%A0 eine%C4%A0
b us%C4%A0
Rep u
hol st%C4%A0du%C4%A0
.%C4%A0Eine%C4%A0 Seite%C4%A0
koch t.
Ein%C4%A0 System%C4%A0
s crip
15 .
%C4%A0de%C4%A0 prob
rit e%C4%A0
einen%C4%A0 Plan
k ap
User:%C4%A0%C3%83%C4%BEbersetze%C4%A0ins%C4%A0Franz%C3%83%C2%B6sische:%C4%A0 Er%C4%A0liest%C4%A0
glei ch%C4%A0
Puff er.
jour d'hui
%C4%A0%C3%83%C4%B9%C4%A0 3%C4%A0=%C4%A0
Ar g
L %C4%A0
User:%C4%A0Wo%C4%A0liegt%C4%A0die%C4%A0 Sahara?%C4%A0%C4%8AAssistant:%C4%A0In%C4%A0
mark t%C4%A0mit%C4%A0guten%C4%A0
eine%C4%A0 Sei
wach t.
%C4%A0tick et%C4%A0
Gro %C3%83%C5%81e%C4%A0
mati que.
User:%C4%A0%C3%83%C4%BEbersetze%C4%A0ins%C4%A0Englische:%C4%A0Ich%C4%A0bin%C4%A0 bereit
t%C4%A0 statt%C4%A0
Antwort%C4%A0hin ten.
.%C4%A0%C4%8AAssistant:%C4%A0H artes%C4%A0
wir ft%C4%A0
Die%C4%A0Pr%C3%83%C2%BCfung%C4%A0ist%C4%A0 schwer
St akehol
Sym bol
such e%C4%A0die%C4%A0Bibliothek
P lat
%C3%83%C2%A4r chen
Kon stant
tran sp
st%C4%A0du%C4%A0einen%C4%A0 Prozess
JSON%C4%A0 in%C4%A0JS.%C4%A0%C4%8AAssistant:%C4%A0let%C4%A0
loest%C4%A0 sich%C4%A0in%C4%A0
Chlorophy ll%C4%A0
bi b
.%C4%A0Du%C4%A0 f%C3%83%C2%BChl
er mo
nach .
Rest%C4%A0weg lassen.
benoetig en%C4%A0
Ressourc en?%C4%A0%C4%8AAssistant:%C4%A0Du%C4%A0
Groessen%C4%A0konstant %C4%A0bleibt.
te%C4%A0 auf
e%C4%A0 sind%C4%A0
Linie%C4%A0 um%C4%A0die%C4%A0
ste%C4%A0 und%C4%A0
Fl%C3%83%C2%A4 che%C4%A0
User:%C4%A0Er stelle%C4%A0
Quell en.%C4%A0
Bis%C4%A0sp%C3%83%C2%A4ter.%C4%A0%C4%8AAssistant:%C4%A0 See%C4%A0you%C4%A0
Fab rik
5 00
User:%C4%A0Wie%C4%A0teste st%C4%A0du%C4%A0eine%C4%A0
User:%C4%A0Wo%C4%A0liegt%C4%A0der%C4%A0 %C3%83%C4%A6quator
komm un
Menschenrech te?%C4%A0%C4%8AAssistant:%C4%A0Rechte%C4%A0
Wie%C4%A0sp%C3%83%C2%A4t%C4%A0ist%C4%A0es .%C4%A0%C4%8AAssistant:%C4%A0W
ti de
User:%C4%A0Was%C4%A0ist%C4%A0die%C4%A0 Renaissance?%C4%A0%C4%8AAssistant:%C4%A0
Sprich%C4%A0langsam er
User:%C4%A0Wie%C4%A0planst%C4%A0du%C4%A0 Lern
er h%C3%83%C2%B6h
no ch%C4%A0
rei s?%C4%A0%C4%8AAssistant:%C4%A0
User:%C4%A0Wie%C4%A0train ierst%C4%A0du%C4%A0
Viel%C4%A0Spa%C3%83%C5%81.%C4%A0%C4%8AAssistant:%C4%A0H a
Auss ag
sid ent%C4%A0
Dial og
User:%C4%A0Wie%C4%A0 klingen%C4%A0
.%C4%A0S auerstoff
her gestell
entsch eid
d .%C4%A0%C4%8AAssistant:%C4%A0
imum?%C4%A0%C4%8AAssistant:%C4%A0Du%C4%A0 merk
User:%C4%A0%C3%83%C4%BEbersetze%C4%A0ins%C4%A0Englische:%C4%A0Entschuldigung.%C4%A0%C4%8AAssistant:%C4%A0 Excuse%C4%A0me.
%C4%A0eines%C4%A0 Staates
wa ert
User:%C4%A0Fasse%C4%A0zusammen:%C4%A0Das%C4%A0Fahrrad%C4%A0quietscht.%C4%A0Ich%C4%A0 %C3%83%C2%B6l
St %C3%83%C2%A4r
4 %C4%A0%C4%8AAssistant:%C4%A08
neun .
tElement B
G ib%C4%A0
P ipelin
T%C3%83%C2%A4gliches%C4%A0G it
0 0%C4%A0
spr ache?%C4%A0%C4%8AAssistant:%C4%A0
?%C4%A0%C4%8AAssistant:%C4%A0Ein%C4%A0r%C3%83%C2%B6 mischer%C4%A0
Ent deck
Such e%C4%A0
en.%C4%A0 L
User:%C4%A0Fasse%C4%A0zusammen:%C4%A0Ich%C4%A0 lese%C4%A0
s eln%C4%A0
ol on
Minuten.%C4%A0Dann%C4%A0 machst%C4%A0du%C4%A0
helern en%C4%A0mit%C4%A0
bi ssch
User:%C4%A08 %C4%A0%C3%83%C4%B9%C4%A0
User:%C4%A0%C3%83%C4%BEbersetze%C4%A0ins%C4%A0Franz%C3%83%C2%B6sische:%C4%A0Viel%C4%A0Spa%C3%83%C5%81 .%C4%A0%C4%8AAssistant:%C4%A0
c a.
b ank
ale%C4%A0 Element%C4%A0
O hr
logi k%C4%A0
Berg %C4%A0mit%C4%A0
z er
noch%C4%A0 schnell.%C4%A0%C4%8AAssistant:%C4%A0
User:%C4%A0Fasse%C4%A0zusammen:%C4%A0Das%C4%A0 WLAN
flex i
User:%C4%A0Was%C4%A0ist%C4%A0eine%C4%A0Met ap
Vor trag
!%C4%A0Wie%C4%A0kann%C4%A0 ich%C4%A0
gang en
Auf%C4%A0dem%C4%A0 Markt%C4%A0
te.%C4%A0%C4%8AAssistant:%C4%A0 Nous%C4%A0
Bund%C4%A0 und%C4%A0
ermo eg
m y%C4%A0
B akteri
m ond%C4%A0
en%C4%A0 an
Pizz a
Gew ohn
u%C4%A0p eux
User:%C4%A0%C3%83%C4%BEbersetze%C4%A0ins%C4%A0Franz%C3%83%C2%B6sische:%C4%A0Ich%C4%A0habe%C4%A0Hunger .%C4%A0%C4%8AAssistant:%C4%A0J%C4%A0ai%C4%A0faim.
r ist
bin den%C4%A0
Schrit ten.
les en%C4%A0dazu.%C4%A0%C4%8AAssistant:%C4%A0Leise%C4%A0Mu
machst%C4%A0du%C4%A0 sie%C4%A0
User:%C4%A0Fasse%C4%A0zusammen:%C4%A0Ich%C4%A0 %C3%83%C2%BCb
er%C4%A0 oder%C4%A0
User:%C4%A0Was%C4%A0ist%C4%A0Arch%C3%83%C2%A4 ol
Rei b
en?%C4%A0%C4%8AAssistant:%C4%A0Du%C4%A0 frag
Audio.%C4%A0Du%C4%A0 h%C3%83%C2%B6r
itt stelle%C4%A0
Satz .%C4%A0
st%C4%A0du%C4%A0einen%C4%A0 Plan
.%C4%A0%C4%8AAssistant:%C4%A0Il%C4%A0 li
St or
.%C4%A0Du%C4%A0f%C3%83%C2%BChl st%C4%A0dich%C4%A0
b s
%C3%83%C5%81 en.
ung%C4%A0 wecken.
t,%C4%A0 Hund%C4%A0
User:%C4%A0%C3%83%C4%BEbersetze%C4%A0ins%C4%A0Franz%C3%83%C2%B6sische:%C4%A0Wie%C4%A0sp%C3%83%C2%A4t%C4%A0ist%C4%A0es .%C4%A0%C4%8AAssistant:%C4%A0
n at
User:%C4%A0%C3%83%C4%BEbersetze%C4%A0ins%C4%A0Franz%C3%83%C2%B6sische:%C4%A0Ich%C4%A0habe%C4%A0eine%C4%A0Frage.%C4%A0%C4%8AAssistant:%C4%A0J%C4%A0ai%C4%A0 une%C4%A0question.
exam en.
be .
schie bt%C4%A0
User:%C4%A0Wie%C4%A0planst%C4%A0du%C4%A0 Test
H all
.%C4%A0%C4%8AAssistant:%C4%A0O%C3%83%C2%B9%C4%A0est%C4%A0la%C4%A0 g
gel oeste%C4%A0
%C4%A0%C3%83%C2%B7%C4%A0 7
e%C4%A0d reh
Vir en%C4%A0
mit%C4%A0 Plan
iss verst%C3%83%C2%A4nd
.%C4%A0 B
User:%C4%A0Wel cher%C4%A0
w ahr.
kochen%C4%A0 heu
t%C4%A0m an
i tz
fi x
8 .%C4%A0S
Gro%C3%83%C5%81e?%C4%A0%C4%8AAssistant:%C4%A0Ein%C4%A0fr %C3%83%C2%A4nk
%C4%A0-%C4%A06 )
.%C4%A0D er%C4%A0H
User:%C4%A04 5
hab i
la te.
schein t.%C4%A0Wir%C4%A0
.%C4%A0Dein%C4%A0 K%C3%83%C2%B6rper%C4%A0
en.%C4%A0Sie%C4%A0 helfen%C4%A0
v ier
automati sch.
?%C4%A0%C4%8AAssistant:%C4%A0 Rechne%C4%A0
N%C3%83%C2%BCtzliche%C4%A0 Notizen%C4%A0
User:%C4%A0Fasse%C4%A0zusammen:%C4%A0Das%C4%A0Fahrrad%C4%A0quietscht.%C4%A0Ich%C4%A0%C3%83%C2%B6l e%C4%A0die%C4%A0
raft%C4%A0 zieht%C4%A0
ein%C4%A0 Kon
.%C4%A0Dann%C4%A0pr%C3%83%C2%BCfst%C4%A0du%C4%A0 Grenzen.
User:%C4%A0%C3%83%C4%BEbersetze%C4%A0ins%C4%A0Franz%C3%83%C2%B6sische:%C4%A0Eine%C4%A0Fahrkarte%C4%A0bitte.%C4%A0%C4%8AAssistant:%C4%A0U n%C4%A0bil
t.%C4%A0 Keine%C4%A0
ho de
User:%C4%A0Wie%C4%A0 protokolli
komp lex
%C4%A0ist%C4%A0 12.
User:%C4%A0Fasse%C4%A0zusammen:%C4%A0Ich%C4%A0lese%C4%A0 ein%C4%A0Buch
A ha
R au
User:%C4%A0%C3%83%C4%BEbersetze%C4%A0ins%C4%A0Franz%C3%83%C2%B6sische:%C4%A0 Es%C4%A0tut%C4%A0mir%C4%A0leid.%C4%A0%C4%8AAssistant:%C4%A0Je%C4%A0suis
ung%C4%A0ist%C4%A0 wichtig.
u%C4%A0peux %C4%A0ai
Variab le%C4%A0
ab le
User:%C4%A0%C3%83%C4%BEbersetze%C4%A0ins%C4%A0Franz%C3%83%C2%B6sische:%C4%A0Wo%C4%A0 ist%C4%A0der%C4%A0Bahnhof
ing t%C4%A0gut
Kamera%C4%A0 an.
s?%C4%A0%C4%8AAssistant:%C4%A0Du%C4%A0 setzt%C4%A0
il f
Ber ge
mit%C4%A0klein em%C4%A0Budget.
schwer .%C4%A0%C4%8AAssistant:%C4%A0
.%C4%A0%C4%8AAssistant:%C4%A0 Vokabeln%C4%A0
en .%C4%A0Drei%C4%A0
s%C4%A0 im%C4%A0
G ang
en%C4%A0eine%C4%A0 Reise
alitaet%C4%A0 bedeutet,%C4%A0d
Himm el
og raf
i sches%C4%A0Brot%C4%A0mit%C4%A0
auf %C4%A0dem%C4%A0
erzeu gen%C4%A0
uvre%C4%A0la%C4%A0fen %C3%83%C2%AAtr
Kl einer%C4%A0
la euf
t.%C4%A0Keine%C4%A0 offenen%C4%A0
User:%C4%A0Was%C4%A0ist%C4%A0ein%C4%A0Staatsoberhaupt?%C4%A0%C4%8AAssistant:%C4%A0H%C3%83%C2%B6chste%C4%A0Person%C4%A0im%C4%A0Staat.%C4%A0Oft%C4%A0 Pr%C3%83%C2%A4
Eine%C4%A0 klare%C4%A0
La de
User:%C4%A0%C3%83%C4%BEbersetze%C4%A0ins%C4%A0Franz%C3%83%C2%B6sische:%C4%A0Wo%C4%A0ist%C4%A0die%C4%A0Schule .%C4%A0%C4%8AAssistant:%C4%A0O%C3%83%C2%B9%C4%A0est%C4%A0
Bibliothek .%C4%A0%C4%8AAssistant:%C4%A0Where%C4%A0is%C4%A0the%C4%A0library.
Co des%C4%A0
G l
L ei
Mat helernen%C4%A0mit%C4%A0
En de?%C4%A0%C4%8AAssistant:%C4%A0
ohn e%C4%A0d
besteh en%C4%A0
%C3%83%C2%BCber %C4%A0die%C4%A0
Pro du
en?%C4%A0%C4%8AAssistant:%C4%A0Du%C4%A0 suchst%C4%A0
Ak zep
.%C4%A0%C4%8AAssistant:%C4%A0Nous%C4%A0avons %C4%A0du%C4%A0temps.
R%C3%83%C2%BCck meld
en%C4%A0 ordn
n ummer
P fa
Schreib e%C4%A0eine%C4%A0
lesen%C4%A0dazu.%C4%A0%C4%8AAssistant:%C4%A0Leise%C4%A0Mu sik%C4%A0beim%C4%A0Lesen.
User:%C4%A0Fasse%C4%A0zusammen:%C4%A0Ich%C4%A0 mal
.%C4%A0Sauerstoff %C4%A0
Z %C3%83%C2%A4h
Be ss
Person ?%C4%A0%C4%8AAssistant:%C4%A0
teil en
fa ctoring%C4%A0
User:%C4%A01 9%C4%A0-%C4%A0
at ,%C4%A0
keit .%C4%A0Dann%C4%A0
ruh t,%C4%A0Hund%C4%A0
t%C4%A0das%C4%A0 Internet
Ger many.
.%C4%A0S onne%C4%A0
g reif
User:%C4%A0Was%C4%A0machst%C4%A0du%C4%A0 bei%C4%A00
Vali dier
en?%C4%A0%C4%8AAssistant:%C4%A0Du%C4%A0 pr%C3%83%C2%BCfst%C4%A0
User:%C4%A0%C3%83%C4%BEbersetze%C4%A0ins%C4%A0Englische:%C4%A0 %C3%83%C4%B8ffne%C4%A0das%C4%A0Fenster.%C4%A0%C4%8AAssistant:%C4%A0Open%C4%A0the%C4%A0window.
4 %C4%A0+%C4%A0
i t.
dig t.
User:%C4%A0%C3%83%C4%BEbersetze%C4%A0ins%C4%A0Franz%C3%83%C2%B6sische:%C4%A0Viel%C4%A0Spa%C3%83%C5%81.%C4%A0%C4%8AAssistant:%C4%A0 A
les%C4%A0 Bild%C4%A0
%C4%A0ticket%C4%A0 please.
User:%C4%A0Wo%C4%A0liegt%C4%A0der%C4%A0%C3%83%C4%A6quator ?%C4%A0%C4%8AAssistant:%C4%A0
User:%C4%A0Was%C4%A0ist%C4%A0ein%C4%A0Staatsoberhaupt?%C4%A0%C4%8AAssistant:%C4%A0H%C3%83%C2%B6chste%C4%A0Person%C4%A0im%C4%A0Staat.%C4%A0Oft%C4%A0Pr%C3%83%C2%A4 sident%C4%A0
Ger%C3%83%C2%A4u sch
er gebniss
ensystem ?%C4%A0%C4%8AAssistant:%C4%A0Eine%C4%A0
Sel ektiere%C4%A0
buch st%C4%A0du%C4%A0
ation%C4%A0 beschreibt%C4%A0
.%C4%A0Sie%C4%A0 l%C3%83%C2%B6st%C4%A0
ie?%C4%A0%C4%8AAssistant:%C4%A0Die%C4%A0 Lehr
riecht%C4%A0 besser.%C4%A0%C4%8AAssistant:%C4%A0M%C3%83%C2%BCll%C4%A0raus
User:%C4%A0Was%C4%A0ist%C4%A0ein%C4%A0Referendum ?%C4%A0%C4%8AAssistant:%C4%A0
t%C4%A0m it%C4%A0dem%C4%A0
%C3%83%C2%A4rm ender%C4%A0
Ver lag
Einfach%C4%A0 und%C4%A0
Geschwind igkeit%C4%A0
prob lem
Volum en.
notier st%C4%A0den%C4%A0
Sinnes de
lern en.
let s%C4%A0
st%C4%A0du%C4%A0 Daten?%C4%A0%C4%8AAssistant:%C4%A0Du%C4%A0
De ad
t.%C4%A0Dann%C4%A0 baust%C4%A0du%C4%A0
HTML %C4%A0ein
C rout
Gra d%C4%A0Celsi
se%C4%A0Musik.%C4%A0Wir%C4%A0 lesen%C4%A0dazu.%C4%A0%C4%8AAssistant:%C4%A0Leise%C4%A0Musik%C4%A0beim%C4%A0Lesen.
f%C3%83%C2%BC n
Pr%C3%83%C2%A4sen s%C4%A0
.%C4%A0G u
eindeu tig
geloeste%C4%A0 Salz
t ung.
User:%C4%A0Wie%C4%A0 sch%C3%83%C2%A4tzt%C4%A0du%C4%A0
Sp ur
Kannst%C4%A0du%C4%A0das%C4%A0 wiederhol
User:%C4%A0Wie%C4%A0planst%C4%A0du%C4%A0 Abschluss
e%C4%A0 %C4%8AAssistant:%C4%A0
User:%C4%A0Was%C4%A0ist%C4%A0eine%C4%A0 Verfass
,%C4%A0was%C4%A0kommt%C4%A0raus?%C4%A0%C4%8AAssistant:%C4%A0 0.%C4%A0Null%C4%A0
el%C4%A0 sind%C4%A0
verteil en.
Y ou%C4%A0
reich en.%C4%A0
Gr%C3%83%C2%B6%C3%83%C5%81 te%C4%A0
zeigt%C4%A0 nach%C4%A0Nord
ist%C4%A0 le
Grund regeln%C4%A0
iederkehr ende%C4%A0
ge .%C4%A0Sie%C4%A0l%C3%83%C2%B6st%C4%A0
Metr ik
6 %C4%A0+%C4%A0
Ju li
fei erst%C4%A0
Grap h%C4%A0
Kl ein
Weg .
g %C3%83%C2%BCnstig
zen%C4%A0Bl umen.%C4%A0Der%C4%A0Bal
Repu b
Weg %C4%A0
Peu x%C4%A0tu%C4%A0
Fol gen%C4%A0
ander e%C4%A0
r%C4%A0gut%C4%A0 zu.%C4%A0%C4%8AAssistant:%C4%A0
geloeste%C4%A0Salz e.
ung leich
%C4%A0dehn t%C4%A0sich%C4%A0
en.%C4%A0%C4%8AAssistant:%C4%A0 T%C3%83%C2%A4gliches%C4%A0Git
t.%C4%A0Ich%C4%A0 setze%C4%A0Kopfh%C3%83%C2%B6r
/ 4
ben%C4%A0d ah
ho ch%C4%A0
i s?%C4%A0%C4%8AAssistant:%C4%A0
F %C3%83%C2%A4h
ser v
Fol ge%C4%A0
Zit at
sche h
erlau bt.
Wasser%C4%A0ge friert%C4%A0
g.%C4%A0%C4%8AAssistant:%C4%A0 Rucksack
User:%C4%A0%C3%83%C4%BEbersetze%C4%A0ins%C4%A0Franz%C3%83%C2%B6sische:%C4%A0Ich%C4%A0 studiere%C4%A0Informatik
r c
Brow ser
Sonn enlich
z ahl%C4%A0
t.%C4%A0Dann%C4%A0 pr%C3%83%C2%BCfst%C4%A0du%C4%A0
?%C4%A0%C4%8AAssistant:%C4%A0W ind%C4%A0
isches%C4%A0Brot%C4%A0mit%C4%A0 gutem%C4%A0Duf
en%C4%A0 %C3%83%C2%BCber%C4%A0
trinke%C4%A0Wasser .%C4%A0%C4%8AAssistant:%C4%A0I%C4%A0drink%C4%A0
Eigenschaf ten%C4%A0
T it
.%C4%A0Die%C4%A0Antwort%C4%A0 kommt%C4%A0
Wieder herstell
.%C4%A0%C4%8AAssistant:%C4%A0How%C4%A0 mu
kuss ion
bleib t?%C4%A0%C4%8AAssistant:%C4%A0
ar ?%C4%A0%C4%8AAssistant:%C4%A0Ein%C4%A0r%C3%83%C2%B6mischer%C4%A0
Infl ation
st%C4%A0d amit.
Er%C4%A0 s
Perspek tive%C4%A0
z %C3%83%C2%BC
Sch ad
N o%C4%A0
Selektiere%C4%A0 per%C4%A0
hilft%C4%A0 beim%C4%A0
Sti l%C4%A0
.%C4%A0%C4%8AAssistant:%C4%A0Nous%C4%A0 jou
ein%C4%A0 Gehirn%C4%A0
mach st%C4%A0du%C4%A0einen%C4%A0
gro b
User:%C4%A0Was%C4%A0ist%C4%A0ein%C4%A0 Experiment
st euer
planst%C4%A0du%C4%A0 Termine.
Al ter%C4%A0
begr%C3%83%C2%BCn det.
User:%C4%A0Wie%C4%A0schreibe%C4%A0ich%C4%A0 im%C4%A0
.%C4%A0Die%C4%A0 Preise%C4%A0
wer tet%C4%A0
auf %C4%A0die%C4%A0
.%C4%A0Neu es%C4%A0
K%C3%83%C2%BC ste
Lav a
.%C4%A0Dann%C4%A0testest%C4%A0du%C4%A0 mit%C4%A0
.%C4%A0%C4%8AAssistant:%C4%A0Je%C4%A0bois%C4%A0de%C4%A0 l%C4%A0eau.
p ut?%C4%A0%C4%8AAssistant:%C4%A0Das%C4%A0
t%C4%A0die%C4%A0Reg ierung.
en%C4%A0 sie.
st er
L au
imm el%C4%A0
zusammen haeng
Mag ma%C4%A0
bedeutet%C4%A0dass %C4%A0die%C4%A0Mond
habi tes%C4%A0o
User:%C4%A0Was%C4%A0ist%C4%A0 Inflation
y (
erer%C4%A0 Akku,%C4%A0Handy%C4%A0
Bis%C4%A0sp%C3%83%C2%A4ter.%C4%A0%C4%8AAssistant:%C4%A0See%C4%A0you%C4%A0 later.
problem .
User:%C4%A0%C3%83%C4%BEbersetze%C4%A0ins%C4%A0Englische:%C4%A0 Viel%C4%A0Spa%C3%83%C5%81.%C4%A0%C4%8AAssistant:%C4%A0Ha
Luf td
mess bar
User:%C4%A0Was%C4%A0ist%C4%A0 Schall
ueber wacht.
gesch %C3%83%C2%BCtzt.
w%C3%83%C2%B6r t
bekomm st%C4%A0
er%C4%A0auf .%C4%A0%C4%8AAssistant:%C4%A0L%C3%83%C2%A4r
ch%C4%A0bei%C4%A0Oma %C4%A0mit%C4%A0
leich t?%C4%A0%C4%8AAssistant:%C4%A0
st ri
mit%C4%A0 kurzen%C4%A0
Z ufall
com bien.
sch%C3%83%C2%BCtzen%C4%A0 Menschen.
User:%C4%A0Fasse%C4%A0zusammen:%C4%A0Ich%C4%A0 pack
e s?%C4%A0%C4%8AAssistant:%C4%A0
ier t.%C4%A0
eig enen%C4%A0
k %C3%83%C2%BCr
.%C4%A0%C4%8AAssistant:%C4%A0We%C4%A0have%C4%A0 time.
ha eufig
Nachricht en.
%C4%A0und%C4%A0 R
et was
User:%C4%A0%C3%83%C4%BEbersetze%C4%A0ins%C4%A0Franz%C3%83%C2%B6sische:%C4%A0Eine%C4%A0Fahrkarte%C4%A0bitte.%C4%A0%C4%8AAssistant:%C4%A0Un%C4%A0bil let%C4%A0
beginnen%C4%A0 jetz
en%C4%A0vor%C4%A0dem%C4%A0Te st.
T u%C4%A0peux%C4%A0ai
euchte%C4%A0 Luft%C4%A0
F lo
a%C4%A0co%C3%83 %C2%BB
zieh en%C4%A0in%C4%A0
te%C4%A0 combien.
User:%C4%A0%C3%83%C4%BEbersetze%C4%A0ins%C4%A0Franz%C3%83%C2%B6sische:%C4%A0Entschuldigung.%C4%A0%C4%8AAssistant:%C4%A0 Pard
User:%C4%A0%C3%83%C4%BEbersetze%C4%A0ins%C4%A0Englische:%C4%A0Ich%C4%A0hab e%C4%A0Zeit
ar me%C4%A0f
T iere.
haeufig %C4%A0
en.%C4%A0%C4%8AAssistant:%C4%A0T%C3%83%C2%A4gliches%C4%A0Git arren
St%C3%83%C2%A4d te%C4%A0
isier ung?%C4%A0%C4%8AAssistant:%C4%A0
rom%C4%A0 Germany.
ein ig
spr ing
User:%C4%A0Fasse%C4%A0zusammen:%C4%A0Ich%C4%A0 schreibe%C4%A0eine%C4%A0E%C4%A0Mail
m eng
R icht
stex te?%C4%A0%C4%8AAssistant:%C4%A0
a tibi
an%C4%A0 e
K ann%C4%A0ich%C4%A0gehen.%C4%A0%C4%8AAssistant:%C4%A0
entsteh en%C4%A0
s '
Mo tiv
t%C4%A0 les
Checklist e.%C4%A0Dann%C4%A0
(e%C4%A0= >%C4%A0
P as
Pa y
Stra%C3%83%C5%81 e,%C4%A0
User:%C4%A0Was%C4%A0ist%C4%A0Arch%C3%83%C2%A4ol og
%C4%A0ist%C4%A0 alt.%C4%A0Er%C4%A0
User:%C4%A0Fasse%C4%A0zusammen:%C4%A0 Er%C4%A0lern
gern%C4%A0 Wasser
U hr
on%C4%A0 von%C4%A0
bei%C4%A0Fehl ern.
%C4%A0determin istisch
Kon junktion
Entw ickl
User:%C4%A0Wie%C4%A0 teilst%C4%A0du%C4%A0
><li >
pr%C3%83%C2%AA t.
trinke%C4%A0Te e
se .%C4%A0%C4%8AAssistant:%C4%A0Stark
erle digt.
m%C4%A0 appelle%C4%A0Alex.
Thema%C4%A0 w%C3%83%C2%A4hlen.%C4%A0
User:%C4%A0Fasse%C4%A0zusammen:%C4%A0Wir%C4%A0pflan zen%C4%A0Blumen.%C4%A0Der%C4%A0Bal
arfst%C4%A0du%C4%A0 tauschen.
oder%C4%A0 fal
spiel t%C4%A0
M entor
in .%C4%A0
lin e?%C4%A0%C4%8AAssistant:%C4%A0
stab en%C4%A0
n ale%C4%A0
wor k.
T re
Bis%C4%A0sp%C3%83%C2%A4ter.%C4%A0%C4%8AAssistant:%C4%A0 %C3%83%C4%A2%C4%A0plus%C4%A0tard.
hei%C3%83%C5%81 t%C4%A0die%C4%A0
Sch %C3%83%C2%A4tz
Sig nale%C4%A0
kauf en%C4%A0
putz t,%C4%A0alles%C4%A0sauber.
.%C4%A0%C4%8AAssistant:%C4%A0P hy
Akku%C4%A0 ist%C4%A0le
Geschich te%C4%A0
Bl um
User:%C4%A0Was%C4%A0ist%C4%A0eine%C4%A0 Quelle%C4%A0
Konflik te.
.%C4%A0%C4%8AAssistant:%C4%A0%C3%83 %C4%A9
se?%C4%A0%C4%8AAssistant:%C4%A0 Pflanzen%C4%A0
Re dundanz
Heute%C4%A0ist%C4%A0Montag.%C4%A0%C4%8AAssistant:%C4%A0Today%C4%A0is%C4%A0 Monday.
konkre te%C4%A0
.%C4%A0Was%C4%A0 steh
Impf stoff
?%C4%A0%C4%8AAssistant:%C4%A0Du%C4%A0 markierst%C4%A0
mi sier
t%C4%A0 sie%C4%A0
.%C4%A0%C4%8AAssistant:%C4%A0%C3%83%C4%A9 a%C4%A0co%C3%83%C2%BB
Kannst%C4%A0du%C4%A0das%C4%A0wiederhol en.%C4%A0%C4%8AAssistant:%C4%A0
antwor tet%C4%A0
You%C4%A0 are%C4%A0wel
%C3%83%C2%A4rmender%C4%A0 Tee.
sa t
hat %C4%A0die%C4%A0
pro%C4%A0 Tag
an%C4%A0e mail.
Menschenrechte?%C4%A0%C4%8AAssistant:%C4%A0Rechte%C4%A0 f%C3%83%C2%BCr%C4%A0
User:%C4%A0Fasse%C4%A0zusammen:%C4%A0Ich%C4%A0%C3%83%C2%BCb e%C4%A0G
tr ischen%C4%A0
Viel en%C4%A0
Unter brech
ell .%C4%A0%C4%8AAssistant:%C4%A0H
e.%C4%A0Die%C4%A0 Kamera%C4%A0bleibt%C4%A0
N ahr
User:%C4%A0%C3%83%C4%BEbersetze%C4%A0ins%C4%A0Franz%C3%83%C2%B6sische:%C4%A0Ich%C4%A0brauche%C4%A0Hilfe .%C4%A0%C4%8AAssistant:%C4%A0J%C4%A0ai%C4%A0besoin
er%C4%A0auf.%C4%A0%C4%8AAssistant:%C4%A0L%C3%83%C2%A4r m%C4%A0mit%C4%A0Kopfh%C3%83%C2%B6rern%C4%A0gel%C3%83%C2%B6st.
e er-
er%C4%A0Wandel .%C4%A0Oft%C4%A0
User:%C4%A0Er zeuge%C4%A0
Quelle%C4%A0 he
User:%C4%A0%C3%83%C4%BEbersetze%C4%A0ins%C4%A0Englische:%C4%A0 Kein%C4%A0Problem
Sinnesde tails%C4%A0
.%C4%A0%C4%8AAssistant:%C4%A0Je%C4%A0vi ens
.%C4%A0Das%C4%A0Budge t%C4%A0ist%C4%A0klein
.%C4%A0%C4%8AAssistant:%C4%A0I%C4%A0am%C4%A0read y.
%C3%83%C4%A6nder ungen.
en%C4%A0re tard.
it ch%C4%A0an%C4%A0
?%C4%A0%C4%8AAssistant:%C4%A0Preise%C4%A0steigen.%C4%A0Gel d%C4%A0
Rech er
User:%C4%A0Fasse%C4%A0zusammen:%C4%A0Die%C4%A0Pr%C3%83%C2%BCfung%C4%A0ist%C4%A0 b
R %C3%83%C2%B6
lau t.
Strings%C4%A0 in%C4%A0JS.%C4%A0%C4%8AAssistant:%C4%A0let%C4%A0s%C4%A0=%C4%A0
%C4%A0-%C4%A03 )
JSON .
To -D
ist%C4%A0eine%C4%A0gute%C4%A0 Ide
and%C4%A0 und%C4%A0
,%C4%A0wir%C4%A0blei ben%C4%A0dah
User:%C4%A0%C3%83%C4%BEbersetze%C4%A0ins%C4%A0Franz%C3%83%C2%B6sische:%C4%A0Wo%C4%A0ist%C4%A0der%C4%A0Bahnhof .%C4%A0%C4%8AAssistant:%C4%A0O%C3%83%C2%B9%C4%A0est%C4%A0la%C4%A0g
Rhyth mus%C4%A0
e?%C4%A0%C4%8AAssistant:%C4%A0Du%C4%A0 fragst%C4%A0
langsam.%C4%A0Alle%C4%A0 versteh
zweier%C4%A0 Groessen%C4%A0konstant%C4%A0bleibt.
for muli
i lit
User:%C4%A0%C3%83%C4%BEbersetze%C4%A0ins%C4%A0Englische:%C4%A0 Wie%C4%A0sp%C3%83%C2%A4t%C4%A0ist%C4%A0es.%C4%A0%C4%8AAssistant:%C4%A0W
nach%C4%A0ob en.%C4%A0Es%C4%A0
Licht%C4%A0 wird%C4%A0in%C4%A0
Fa zi
%C4%A0d %C3%83%C2%A9
User:%C4%A0Wie%C4%A0schreibe%C4%A0ich%C4%A0Or ts
ist%C4%A0eine%C4%A0gute%C4%A0Ide e
spar t%C4%A0
Kategori en.%C4%A0Dann%C4%A0
ist%C4%A0m ein%C4%A0Buch
0%C4%A0 EUR%C4%A0und%C4%A0
Block .
%C4%A0d %C4%A0aide.
st%C4%A0du,%C4%A0 ob
.%C4%A0%C4%8AAssistant:%C4%A0Fr ische%C4%A0
St art
Entscheid ungs
Dat um%C4%A0und%C4%A0
regeln%C4%A0 ein
g lie
Br%C3%83%C2%B6t ch
F%C3%83%C2%BCn f%C4%A0
Per form
Rucksack .%C4%A0Morgen%C4%A0ist%C4%A0
setzt%C4%A0 klare%C4%A0
li ff
Ket te.%C4%A0%C4%8AAssistant:%C4%A0
be schreibst%C4%A0
un abh%C3%83%C2%A4ngig.
Skri p
A %C4%A0ticket%C4%A0please.
Obje kt%C4%A0
staa t%C4%A0in%C4%A0
User:%C4%A0Was%C4%A0ist%C4%A0ein%C4%A0Kontin ent?%C4%A0%C4%8AAssistant:%C4%A0
User:%C4%A0Wie%C4%A0 suchst%C4%A0du%C4%A0
User:%C4%A0Wie%C4%A0mel de
Qu ad
arr .
e?%C4%A0%C4%8AAssistant:%C4%A0Du%C4%A0 w%C3%83%C2%A4hlst%C4%A0
Entschuldigung%C4%A0 bitte.%C4%A0%C4%8AAssistant:%C4%A0Excuse%C4%A0
Z we
sier ung?%C4%A0%C4%8AAssistant:%C4%A0
Ver gangen
arme%C4%A0f euchte%C4%A0Luft%C4%A0
Punkt .%C4%A0Dann%C4%A0
tr iff
.%C4%A0%C4%8AAssistant:%C4%A0Le erer%C4%A0Akku,%C4%A0Handy%C4%A0
Sti ck
.%C4%A0 An
= =
User:%C4%A0%C3%83%C4%BEbersetze%C4%A0ins%C4%A0Franz%C3%83%C2%B6sische:%C4%A0Ich%C4%A0 schreibe%C4%A0eine%C4%A0E%C4%A0Mail
ve%C4%A0 fun
oku ss
sin n
0 ,%C4%A0
asi s%C4%A0
?%C4%A0%C4%8AAssistant:%C4%A0Du%C4%A0 ordne
o%C4%A0 Welt
erneuer bare%C4%A0
.%C4%A0%C4%8AAssistant:%C4%A0Wher e%C4%A0do%C4%A0you%C4%A0li
Blick .
Seite%C4%A0l%C3%83%C2%A4d t%C4%A0nicht.
.%C4%A0%C4%8AAssistant:%C4%A0How%C4%A0mu ch%C4%A0is%C4%A0that.
5 6
.%C4%A0Wir%C4%A0 bleiben%C4%A0zu%C4%A0Hau
?%C4%A0%C4%8AAssistant:%C4%A0F l%C3%83%C2%BC
notier en.
u%C4%A0 habites%C4%A0o
,%C4%A0wie%C4%A0viel?%C4%A0%C4%8AAssistant:%C4%A0 Erst%C4%A0
Schreib %C4%A0das%C4%A0auf
elek trischen%C4%A0
%C3%83%C2%A4sche%C4%A0gewaschen%C4%A0und%C4%A0gefal tet.
.%C4%A0 Passend%C4%A0
Programm ier
Good%C4%A0n ig
noch%C4%A0schnell.%C4%A0%C4%8AAssistant:%C4%A0 Alter%C4%A0
Er neu
erg%C3%83%C2%A4n z
.%C4%A0%C4%8AAssistant:%C4%A0The%C4%A0 ex
verliert%C4%A0 Wert.
wer k%C4%A0
.%C4%A0Du%C4%A0nimm st%C4%A0
User:%C4%A0%C3%83%C4%BEbersetze%C4%A0ins%C4%A0Englische:%C4%A0 Bis%C4%A0sp%C3%83%C2%A4ter.%C4%A0%C4%8AAssistant:%C4%A0See%C4%A0you%C4%A0later.
geh %C3%83%C2%B6r
transp or
i let
ver b
User:%C4%A03 /
arri ve%C4%A0
%C4%A0%C3%83%C4%B9%C4%A0 6
bring en%C4%A0
User:%C4%A0Was%C4%A0ist%C4%A0ein%C4%A0Par lam
k ra
Aus gabe
.%C4%A0Das%C4%A0Budget%C4%A0ist%C4%A0klein .%C4%A0%C4%8AAssistant:%C4%A0
te%C4%A0 gern%C4%A0Wasser
Les en
.%C4%A0M erk
al te%C4%A0
W %C3%83%C2%A4
en?%C4%A0%C4%8AAssistant:%C4%A0 Un
i aloge%C4%A0
Auf%C4%A0dem%C4%A0Markt%C4%A0 gibt%C4%A0es%C4%A0
( function(
User:%C4%A07%C4%A0+%C4%A0 5
?%C4%A0%C4%8AAssistant:%C4%A0Wind%C4%A0 schiebt%C4%A0
in .
andhi?%C4%A0%C4%8AAssistant:%C4%A0Ein%C4%A0Anf%C3%83%C2%BChr er%C4%A0aus%C4%A0In
Pass iv
t.%C4%A0%C4%8AAssistant:%C4%A0Katze%C4%A0 ruht,%C4%A0Hund%C4%A0
.%C4%A0Du%C4%A0 addierst%C4%A0die%C4%A0
.%C4%A0%C4%8AAssistant:%C4%A0Fr isches%C4%A0Brot%C4%A0mit%C4%A0gutem%C4%A0Duf
.%C4%A0%C4%8AAssistant:%C4%A0That%C4%A0is%C4%A0 easy.
Startz u
Schrittfol ge.%C4%A0Sie%C4%A0l%C3%83%C2%B6st%C4%A0
Abl enk
ben,%C4%A0 Antwort%C4%A0sp%C3%83%C2%A4ter.
a mm
?%C4%A0%C4%8AAssistant:%C4%A0Du%C4%A0 misst%C4%A0
b %C4%A0
in%C4%A0der%C4%A0 Bibliothek
teste st%C4%A0du%C4%A0dich%C4%A0selbst.
yste m.
Relation en%C4%A0
ita et%C4%A0
ti mmt.
Din ge
Gef%C3%83%C2%BC hl
User:%C4%A0Wie%C4%A0schreibe%C4%A0ich%C4%A0P itch%C4%A0an%C4%A0
Arbei t%C4%A0
teil st%C4%A0du.
Notiz en.%C4%A0Sie%C4%A0helfen%C4%A0
sp ekt
Sp %C3%83%C2%A4
klar .%C4%A0
10,%C4%A0dann%C4%A0+ 2.
on ?%C4%A0%C4%8AAssistant:%C4%A0Ein%C4%A0franz%C3%83%C2%B6si
fin den.
hat%C4%A0time%C4%A0is%C4%A0 it.
en%C4%A0einen%C4%A0 Test
sehe%C4%A0den%C4%A0 Mond
fluss ?%C4%A0%C4%8AAssistant:%C4%A0Du%C4%A0
verbess ert%C4%A0
s zene?%C4%A0%C4%8AAssistant:%C4%A0
te?%C4%A0%C4%8AAssistant:%C4%A0Du%C4%A0 beginnst%C4%A0
us%C4%A0 C
en unter
on%C4%A0 und%C4%A0
h%C3%83%C2%A4ltst%C4%A0du%C4%A0 Zeiten%C4%A0ein.
%C4%A0d%C3%83%C2%A9 sol%C3%83%C2%A9.
User:%C4%A0Wie%C4%A0 back
?%C4%A0%C4%8AAssistant:%C4%A0Ein%C4%A0 Programm%C4%A0f%C3%83%C2%BCr%C4%A0
De f
war m%C4%A0
l in%C4%A0
User:%C4%A0Fasse%C4%A0zusammen:%C4%A0Der%C4%A0Laptop %C4%A0ist%C4%A0alt.%C4%A0Er%C4%A0
der n%C4%A0
Fazi t.
wird %C4%A0d
K re
ung%C4%A0 reduziert%C4%A0
W%C3%83%C2%A4 sche
User:%C4%A0Wie%C4%A0 sch
ein%C4%A0 Ziel
st ich
e urop%C3%83%C2%A4ischer%C4%A0
ier ung%C4%A0
block iert%C4%A0
Pr%C3%83%C2%A4dik at,%C4%A0
en%C4%A0eine%C4%A0Reise .%C4%A0Das%C4%A0Budget%C4%A0ist%C4%A0klein.%C4%A0%C4%8AAssistant:%C4%A0
Da mpf
N ur%C4%A0
Schall%C4%A0 breitet%C4%A0sich%C4%A0in%C4%A0
sin d.
T age.
Test .%C4%A0%C4%8AAssistant:%C4%A0Phy
d ('
W art
korre kt%C4%A0
D er%C4%A0H
bei%C4%A0 Ab
Depre c
Neu tralit
vor .
' est%C4%A0
User:%C4%A0%C3%83%C4%BEbersetze%C4%A0ins%C4%A0Englische:%C4%A0Ich%C4%A0komme%C4%A0 aus%C4%A0Deutschland
Konflikt en%C4%A0vor?%C4%A0%C4%8AAssistant:%C4%A0Du%C4%A0
%C4%A0de%C4%A0prob l%C3%83%C2%A8me.
ungs fehl
Mach%C4%A0bitte%C4%A0das%C4%A0 Licht%C4%A0
ation ?%C4%A0%C4%8AAssistant:%C4%A0Du%C4%A0definierst%C4%A0
ungen.%C4%A0Dann%C4%A0 pr%C3%83%C2%BCfst%C4%A0du%C4%A0
auf%C4%A0 Meeresh%C3%83%C2%B6
steh en.
User:%C4%A0Was%C4%A0ist%C4%A0die%C4%A0UNO?%C4%A0%C4%8AAssistant:%C4%A0Staatenbund.%C4%A0 Arbeitet%C4%A0f%C3%83%C2%BCr%C4%A0Frieden.
.%C4%A0Morgen%C4%A0ist%C4%A0 Test.%C4%A0%C4%8AAssistant:%C4%A0Phy
bo ar
User:%C4%A0W ann%C4%A0
at en
Don au
?%C4%A0%C4%8AAssistant:%C4%A0Eine%C4%A0 Bedingung%C4%A0
Zahl en
ver sp%C3%83%C2%A4te
er %C4%A0dazu.
ge tElementB
bo x
Er de.
User:%C4%A0Wie%C4%A0 bereitest%C4%A0du%C4%A0
en.%C4%A0Wir%C4%A0 kaufen%C4%A0
sch er%C4%A0Herrscher
sp%C3%83%C2%A4ter.%C4%A0%C4%8AAssistant:%C4%A0E%C4%A0Mail%C4%A0 gesch
.%C4%A0%C4%8AAssistant:%C4%A0L a%C4%A0
el les%C4%A0Bild%C4%A0
mputer%C4%A0s cienc
T%C3%83%C2%A4g lich%C4%A0
tr%C3%83%C2%B6 pf
ent?%C4%A0%C4%8AAssistant:%C4%A0 Gew%C3%83%C2%A4hlte%C4%A0
nah .
Rech n
ur siv
Tu%C4%A0peux%C4%A0ai der.
en.%C4%A0Ein%C4%A0 Satz
User:%C4%A0Fasse%C4%A0zusammen:%C4%A0Wir%C4%A0h%C3%83%C2%B6r en%C4%A0lei
?%C4%A0%C4%8AAssistant:%C4%A0Du%C4%A0de ck
K no
Qu ietsch
rc ='
for%C4%A0the%C4%A0 exam.
Konflikt .%C4%A0Gib%C4%A0
Vergangen heit
Ge s
tion alitaet%C4%A0bedeutet,%C4%A0d
Ver halten%C4%A0
.%C4%A0Die%C4%A0Preise%C4%A0 sind%C4%A0gut.%C4%A0%C4%8AAssistant:%C4%A0Obst
ie ?%C4%A0%C4%8AAssistant:%C4%A0Eine%C4%A0
in%C4%A0 station.
Nom en?%C4%A0%C4%8AAssistant:%C4%A0
Tool %C4%A0
suche%C4%A0 Arbeit
spiel %C4%A0mit%C4%A0
User:%C4%A0Fasse%C4%A0zusammen:%C4%A0Die%C4%A0 Katze%C4%A0
User:%C4%A0Wie%C4%A0sortierst%C4%A0du%C4%A0 Zahl
Grenz en.%C4%A0
Daten bank
R%C3%83%C2%B6 m
w%C3%83%C2%B6rt liche%C4%A0Rede%C4%A0
gni tive%C4%A0La
back e%C4%A0Bro
%C3%83%C4%BEber gang
mputer%C4%A0scienc e.
a%C4%A0oder%C4%A0n ein.
Auto%C4%A0ist%C4%A0 schnell
User:%C4%A0Fasse%C4%A0zusammen:%C4%A0Ich%C4%A0 wa
erwarte tes%C4%A0
der ?%C4%A0%C4%8AAssistant:%C4%A0
e%C4%A0t%C3%83%C2%A4g lich%C4%A0
Teil e%C4%A0in%C4%A0
B el
l%C3%83%C2%B6 sen.
herr sch
?%C4%A0%C4%8AAssistant:%C4%A0Du%C4%A0 liest%C4%A0
User:%C4%A0Was%C4%A0ist%C4%A0das%C4%A0neutr ale%C4%A0Element%C4%A0
w .
H o
enz iele?%C4%A0%C4%8AAssistant:%C4%A0
User:%C4%A0Fasse%C4%A0zusammen:%C4%A0Die%C4%A0Pr%C3%83%C2%BCfung%C4%A0ist%C4%A0b al
User:%C4%A0Wie%C4%A0protokolli erst%C4%A0du%C4%A0
nachvollzieh bare%C4%A0
liti sch.
Mag ma
HTML%C4%A0ein .%C4%A0%C4%8AAssistant:%C4%A0Nutze%C4%A0<
1 %C4%A0%C3%83%C2%B7%C4%A0
Komm as%C4%A0
User:%C4%A0Wel che%C4%A0
?%C4%A0%C4%8AAssistant:%C4%A0M asse%C4%A0
In str
%C3%83%C4%BEb ungs
User:%C4%A0%C3%83%C4%BEbersetze%C4%A0ins%C4%A0Franz%C3%83%C2%B6sische:%C4%A0Ich%C4%A0lerne%C4%A0 f%C3%83%C2%BCr%C4%A0die%C4%A0Pr%C3%83%C2%BCfung
w%C3%83%C2%BCr feln
Be wei
wach sen.
Reihenfol ge.%C4%A0Dann%C4%A0
Kl ein%C4%A0und%C4%A0
?%C4%A0%C4%8AAssistant:%C4%A0Du%C4%A0definierst%C4%A0 Ziele.%C4%A0Dann%C4%A0
zwei%C4%A0 Aus
K enn
spring st%C4%A0du%C4%A0
siklern en%C4%A0vor%C4%A0dem%C4%A0Test.
spielen%C4%A0Fu%C3%83%C5%81ball .%C4%A0%C4%8AAssistant:%C4%A0Nous%C4%A0jou
Kurzer%C4%A0 Ausblick
L%C3%83%C2%BCck en%C4%A0
3 .%C4%A0F%C3%83%C2%BCnf
w%C3%83%C2%A4ch st.
Jahreszeiten ?%C4%A0%C4%8AAssistant:%C4%A0Die%C4%A0Erde%C4%A0
anpass en.
bestehen%C4%A0 aus%C4%A0
Erkl%C3%83%C2%A4r ung.%C4%A0
6%C4%A0%C3%83%C2%B7%C4%A0 3%C4%A0=%C4%A02
Steh%C4%A0 bit
sp %C3%83%C2%BCrbar%C4%A0machen.
t.%C4%A0 Ver
User:%C4%A0 Selektiere%C4%A0per%C4%A0
Seit en.%C4%A0
%C3%83%C2%A4t te%C4%A0gern%C4%A0Wasser
,%C4%A0wir%C4%A0bleiben%C4%A0dah ei
en.%C4%A0%C4%8AAssistant:%C4%A0T%C3%83%C2%A4gliches%C4%A0Gitarren %C3%83%C2%BCb
te?%C4%A0%C4%8AAssistant:%C4%A0 Neue%C4%A0
B lau
Notiz en?%C4%A0%C4%8AAssistant:%C4%A0
aren%C4%A0f%C3%83%C2%BCr%C4%A0ein%C4%A0 Fahrrad.
un n%C3%83%C2%B6
Amazonas?%C4%A0%C4%8AAssistant:%C4%A0 In%C4%A0S%C3%83%C2%BCdamerik
Berei ch%C4%A0mit%C4%A0
3 %C4%A0-%C4%A04
%C3%83%C2%A4nder t%C4%A0sich
er setzen.
ender t%C4%A0
Ausflu g.%C4%A0%C4%8AAssistant:%C4%A0Rucksack
komplex en%C4%A0
st%C4%A0du%C4%A0die%C4%A0Ursach e.
.%C4%A0Dann%C4%A0 beobachte
W%C3%83%C2%A4sche .%C4%A0Danach%C4%A0fal
Dau er.%C4%A0Dann%C4%A0
)%C4%A0%C4%8AAssistant:%C4%A0 2
User:%C4%A0Wo%C4%A0liegt%C4%A0der%C4%A0 Amazonas?%C4%A0%C4%8AAssistant:%C4%A0In%C4%A0S%C3%83%C2%BCdamerik
%C3%A2%C4%A2 %C4%BB
User:%C4%A0Wie%C4%A0 hei%C3%83%C5%81t%C4%A0die%C4%A0
schreib en%C4%A0einen%C4%A0Test
Pass w%C3%83%C2%B6rter
h .
op er
st ern,%C4%A0
en.%C4%A0Dann%C4%A0 wiederholst%C4%A0du%C4%A0
ho eh
Time out
User:%C4%A0Was%C4%A0ist%C4%A0die%C4%A0 NA
kochen%C4%A0heu te.%C4%A0%C4%8AAssistant:%C4%A0Nous%C4%A0
User:%C4%A0%C3%83%C4%BEbersetze%C4%A0ins%C4%A0Englische:%C4%A0Wo%C4%A0 ist%C4%A0der%C4%A0Bahnhof
Dat en.%C4%A0Sie%C4%A0zeigt%C4%A0Tr
Ein er%C4%A0
User:%C4%A0Wie%C4%A0 wirkt%C4%A0
bil de
Bund%C4%A0und%C4%A0 L%C3%83%C2%A4nder%C4%A0
Wider spr
kon%C4%A0 wird%C4%A0bun
.%C4%A0Dann%C4%A0no tierst%C4%A0du%C4%A0
ir ekte%C4%A0
Mittelwer t%C4%A0von%C4%A0
m ultipli
Mensch en.%C4%A0Sie%C4%A0
User:%C4%A0Wer%C4%A0war%C4%A0G andhi?%C4%A0%C4%8AAssistant:%C4%A0Ein%C4%A0Anf%C3%83%C2%BChrer%C4%A0aus%C4%A0In
Akku%C4%A0ist%C4%A0le er
h%C3%83%C2%A4ng igkeit
verur sach
User:%C4%A0%C3%83%C4%BEbersetze%C4%A0ins%C4%A0Franz%C3%83%C2%B6sische:%C4%A0Es%C4%A0tut%C4%A0mir%C4%A0leid.%C4%A0%C4%8AAssistant:%C4%A0Je%C4%A0suis %C4%A0d%C3%83%C2%A9sol%C3%83%C2%A9.
.%C4%A0Drei er%C4%A0in%C4%A0
ung .%C4%A0Dann%C4%A0pr%C3%83%C2%BCfst%C4%A0du%C4%A0
.%C4%A0%C4%8AAssistant:%C4%A0We%C4%A0play%C4%A0so cc
:%C4%A0 5
k%C4%A0 w%C3%83%C2%A4hlt.%C4%A0
.%C4%A0%C4%8AAssistant:%C4%A0Je%C4%A0 vo
Frage%C4%A0 vor
a d%C4%A0
User:%C4%A0 Mittelwert%C4%A0von%C4%A0
j a%C4%A0oder%C4%A0nein.
Tool s.%C4%A0Dann%C4%A0
Erd e%C4%A0dreh
.%C4%A0An dere%C4%A0
User:%C4%A0Fasse%C4%A0zusammen:%C4%A0Ich%C4%A0mal e%C4%A0ein%C4%A0Bild
Signale%C4%A0 im%C4%A0
vo us%C4%A0pla%C3%83%C2%AEt.
User:%C4%A0%C3%83%C4%BEbersetze%C4%A0ins%C4%A0Englische:%C4%A0Ich%C4%A0komme%C4%A0aus%C4%A0Deutschland .%C4%A0%C4%8AAssistant:%C4%A0I%C4%A0am%C4%A0
ad en.
einflu s
M it%C4%A0
k aum%C4%A0
User:%C4%A0%C3%83%C4%BEbersetze%C4%A0ins%C4%A0Franz%C3%83%C2%B6sische:%C4%A0Heute%C4%A0ist%C4%A0Montag.%C4%A0%C4%8AAssistant:%C4%A0Aujourd%C4%A0hui %C4%A0c%C4%A0est%C4%A0l
Spr echer%C4%A0
St ell
Ver d
co le.
jourd%C4%A0hui .
User:%C4%A0Was%C4%A0ist%C4%A0der%C4%A0 Himalaya?%C4%A0%C4%8AAssistant:%C4%A0Ein%C4%A0Gebir
enig%C4%A0Frei heit.
</ li
.%C4%A0Sonne%C4%A0 und%C4%A0W
User:%C4%A0Was%C4%A0ist%C4%A0Ge ograf
.%C4%A0Wir%C4%A0bleiben%C4%A0zu%C4%A0Hau se.%C4%A0%C4%8AAssistant:%C4%A0Stark
You%C4%A0are%C4%A0wel come.
auf%C4%A0Meeresh%C3%83%C2%B6 he.
K%C3%83%C2%B6rper .%C4%A0So%C4%A0
User:%C4%A0Was%C4%A0ist%C4%A0ein%C4%A0Staatsoberhaupt?%C4%A0%C4%8AAssistant:%C4%A0H%C3%83%C2%B6chste%C4%A0Person%C4%A0im%C4%A0Staat.%C4%A0Oft%C4%A0Pr%C3%83%C2%A4sident%C4%A0 oder%C4%A0
su ch%C4%A0bei%C4%A0Oma%C4%A0mit%C4%A0
Kont ak
Zeit en.
.%C4%A0%C4%8AAssistant:%C4%A0I%C4%A0 will%C4%A0
User:%C4%A0Wie%C4%A0schreibe%C4%A0ich%C4%A0eine%C4%A0 Figur
o m%C4%A0
User:%C4%A0Fasse%C4%A0kurz%C4%A0zusammen:%C4%A0Ein%C4%A0Bei trag%C4%A0
Details%C4%A0 weg.
C h
g lich
%C4%A0+%C4%A04 %C4%A0=%C4%A0
User:%C4%A0Fasse%C4%A0zusammen:%C4%A0Das%C4%A0Fahrrad%C4%A0quietscht.%C4%A0Ich%C4%A0%C3%83%C2%B6le%C4%A0die%C4%A0 Kette.%C4%A0%C4%8AAssistant:%C4%A0
Beding ung.%C4%A0Dann%C4%A0
Figur ,%C4%A0
.%C4%A0%C4%8AAssistant:%C4%A0Merci%C4%A0be aucoup.
ssch leif
User:%C4%A0Wie%C4%A0schreibe%C4%A0ich%C4%A0Wet tbewer
ver wal
trinke%C4%A0Te e.%C4%A0
?%C4%A0%C4%8AAssistant:%C4%A0Denke%C4%A0 an%C4%A0
Men ge.
.%C4%A0 Kurzer%C4%A0
t e%C4%A0ich%C4%A0
.%C4%A0 Erst%C4%A0-
Pflanzen%C4%A0 nehmen%C4%A0
zer legst%C4%A0in%C4%A0Teile.%C4%A0Dann%C4%A0
sch m
.%C4%A0%C4%8AAssistant:%C4%A0 Pr%C3%83%C2%BCfung%C4%A0naht,%C4%A0
en.%C4%A0Dann%C4%A0lief erst%C4%A0du%C4%A0
gro ess
Klasse%C4%A0 per%C4%A0JS%C4%A0
6%C4%A0%C3%83%C2%B7%C4%A03%C4%A0=%C4%A02 .%C4%A0Dann%C4%A0
Priorit %C3%83%C2%A4
User:%C4%A0Wie%C4%A0schreibe%C4%A0ich%C4%A0 Szen
klar %C4%A0
Steh%C4%A0bit te%C4%A0auf
liest%C4%A0die%C4%A0Aufgabe .%C4%A0Dann%C4%A0
Zwe ck
on?%C4%A0%C4%8AAssistant:%C4%A0Ein%C4%A0franz%C3%83%C2%B6si scher%C4%A0Herrscher
User:%C4%A0Fasse%C4%A0zusammen:%C4%A0Wir%C4%A0plan en%C4%A0eine%C4%A0Reise.%C4%A0Das%C4%A0Budget%C4%A0ist%C4%A0klein.%C4%A0%C4%8AAssistant:%C4%A0
P l
wohne%C4%A0 in%C4%A0Berlin
Stund e%C4%A0%C4%8AAssistant:%C4%A0
User:%C4%A0 Re
ier t?%C4%A0%C4%8AAssistant:%C4%A0
Risik o%C4%A0
tausch st%C4%A0du%C4%A0
K lang
mag%C4%A0 Lesen
(function( ){%C4%A0console.log('
arl %C4%A0der%C4%A0
onlin e.%C4%A0Die%C4%A0Kamera%C4%A0bleibt%C4%A0
Def aul
trag en.
User:%C4%A0%C3%83%C4%BEbersetze%C4%A0ins%C4%A0Englische:%C4%A0Ich%C4%A0habe%C4%A0Zeit .%C4%A0%C4%8AAssistant:%C4%A0I%C4%A0have%C4%A0
Sport .%C4%A0Danach%C4%A0trink
User:%C4%A0Wie%C4%A0schreibe%C4%A0ich%C4%A0 Dial
and .
ung?%C4%A0%C4%8AAssistant:%C4%A0Du%C4%A0 w%C3%83%C2%A4hlst%C4%A0
an ge
u%C4%A0habites%C4%A0o %C3%83%C2%B9.
kontrolli er
Er%C4%A0s ingt%C4%A0gut
User:%C4%A0 Bau
User:%C4%A0Was%C4%A0ist%C4%A0ein%C4%A0Algorith mus?%C4%A0%C4%8AAssistant:%C4%A0
Handel %C4%A0und%C4%A0
Komp lex
?%C4%A0%C4%8AAssistant:%C4%A0Ergebnis%C4%A0 ist%C4%A0
User:%C4%A0%C3%83%C4%BEbersetze%C4%A0ins%C4%A0Englische:%C4%A0 Sie%C4%A0f%C3%83%C2%A4hr
Wiss ens
Star t%C4%A0in%C4%A0den%C4%A0
ig ur
Zustand s
op f
Ziel %C4%A0und%C4%A0
Wer t.%C4%A0Dann%C4%A0
eine%C4%A0Zeit ung
User:%C4%A0%C3%83%C4%BEbersetze%C4%A0ins%C4%A0Englische:%C4%A0Ich%C4%A0 mag%C4%A0Musik.%C4%A0%C4%8AAssistant:%C4%A0I%C4%A0like%C4%A0music
hat%C4%A0 wenig%C4%A0
Repub lik
User:%C4%A0Fasse%C4%A0zusammen:%C4%A0Wir%C4%A0pflanzen%C4%A0Blumen.%C4%A0Der%C4%A0Bal kon%C4%A0wird%C4%A0bun
User:%C4%A0%C3%83%C4%BEbersetze%C4%A0ins%C4%A0Englische:%C4%A0Ich%C4%A0bin%C4%A0bereit .%C4%A0%C4%8AAssistant:%C4%A0I%C4%A0am%C4%A0ready.
Reihen folg
- An
ai s.
!%C4%A0Wie%C4%A0kann%C4%A0ich%C4%A0 helfen?
sch%C3%83%C2%BCtzt%C4%A0d u
ere%C4%A0Zahl%C4%A0 kommt%C4%A0nach%C4%A0vorn.
sind%C4%A0 h
%C3%83%C2%A4nder n.
ativ it
s org
O bst
der%C4%A0 lernen%C4%A0
verteilst%C4%A0du%C4%A0 Aufgaben.
sp%C3%83%C2%A4ter.%C4%A0%C4%8AAssistant:%C4%A0E%C4%A0Mail%C4%A0gesch rie
User:%C4%A0Was%C4%A0ist%C4%A0ein%C4%A0Parlam ent?%C4%A0%C4%8AAssistant:%C4%A0Gew%C3%83%C2%A4hlte%C4%A0
en%C4%A0g ern
Szen en.%C4%A0
');%C4%A0} ,%C4%A0
t%C4%A0mit%C4%A0dem%C4%A0 Bus.%C4%A0%C4%8AAssistant:%C4%A0
Beg r
.%C4%A0 Re
t%C4%A0 bleibt%C4%A0
t.%C4%A0Dann%C4%A0 planst%C4%A0du%C4%A0
studiere%C4%A0Informatik.%C4%A0%C4%8AAssistant:%C4%A0I%C4%A0study%C4%A0 co
E tapp
ow n.
.%C4%A0Die%C4%A0Preise%C4%A0sind%C4%A0gut.%C4%A0%C4%8AAssistant:%C4%A0Obst markt%C4%A0mit%C4%A0guten%C4%A0
ons%C4%A0au%C4%A0fo ot.
User:%C4%A0%C3%83%C4%BEbersetze%C4%A0ins%C4%A0Franz%C3%83%C2%B6sische:%C4%A0Wo%C4%A0ist%C4%A0der%C4%A0Bahnhof.%C4%A0%C4%8AAssistant:%C4%A0O%C3%83%C2%B9%C4%A0est%C4%A0la%C4%A0g are.
Es%C4%A0tut%C4%A0mir%C4%A0leid .%C4%A0%C4%8AAssistant:%C4%A0I%C4%A0am%C4%A0sorry.
User:%C4%A0Was%C4%A0ist%C4%A0die%C4%A0NA TO
kochen%C4%A0heute.%C4%A0%C4%8AAssistant:%C4%A0Nous%C4%A0 cui
steig end?%C4%A0%C4%8AAssistant:%C4%A0Du%C4%A0vergleichst%C4%A0
Z em
,%C4%A0wir%C4%A0bleiben%C4%A0dahei m.
Hall o%C4%A0Welt
Plat ten%C4%A0
war um.%C4%A0Dann%C4%A0
ohne%C4%A0Klische e?%C4%A0%C4%8AAssistant:%C4%A0
3 %C4%A0%C3%83%C4%B9%C4%A03,%C4%A0Ergebnis?%C4%A0%C4%8AAssistant:%C4%A0
her mom
wechsel?%C4%A0%C4%8AAssistant:%C4%A0 Klar%C4%A0
en%C4%A0 klar
User:%C4%A0Wie%C4%A0schreibe%C4%A0ich%C4%A0eine%C4%A0 Ver
.%C4%A0Dann%C4%A0 arbeitest%C4%A0du%C4%A0
t%C4%A0B lu
A m
ess er.
si tz
Ka tz
tionalitaet%C4%A0bedeutet,%C4%A0d ass
ein ung%C4%A0
mond%C4%A0 bedeutet%C4%A0dass%C4%A0die%C4%A0Mond
16 .
Dial og?%C4%A0%C4%8AAssistant:%C4%A0
User:%C4%A0%C3%83%C4%BEbersetze%C4%A0ins%C4%A0Franz%C3%83%C2%B6sische:%C4%A0Heute%C4%A0ist%C4%A0Montag.%C4%A0%C4%8AAssistant:%C4%A0Aujourd%C4%A0hui%C4%A0c%C4%A0est%C4%A0l und
konsequ ent.
.%C4%A0S pr
schnell er?%C4%A0%C4%8AAssistant:%C4%A0
User:%C4%A0Fasse%C4%A0zusammen:%C4%A0 Auf%C4%A0dem%C4%A0Markt%C4%A0gibt%C4%A0es%C4%A0
User:%C4%A0Was%C4%A0ist%C4%A0ein%C4%A0 Stadtsta
User:%C4%A01 8
User:%C4%A0%C3%83%C4%BEbersetze%C4%A0ins%C4%A0Franz%C3%83%C2%B6sische:%C4%A0Ich%C4%A0hab e%C4%A0Zeit
User:%C4%A0Fasse%C4%A0zusammen:%C4%A0Ich%C4%A0 trinke%C4%A0Tee.%C4%A0
Mit te.
Variab len.%C4%A0Dann%C4%A0
,%C4%A0wenn%C4%A0 es%C4%A0
/ >.
User:%C4%A0%C3%83%C4%BEbersetze%C4%A0ins%C4%A0Englische:%C4%A0Viel%C4%A0Spa%C3%83%C5%81.%C4%A0%C4%8AAssistant:%C4%A0Ha ve%C4%A0fun
User:%C4%A0%C3%83%C4%BEbersetze%C4%A0ins%C4%A0Englische:%C4%A0Gute%C4%A0Nacht.%C4%A0%C4%8AAssistant:%C4%A0 Good%C4%A0nig
F ach
t able
Et wa%C4%A0
Ausflug.%C4%A0%C4%8AAssistant:%C4%A0Rucksack %C4%A0
e ber
Itali en.
ist%C4%A0 Null.
Kost en.
flexi on%C4%A0von%C4%A0
ih r%C4%A0
F et
%C3%83%C5%81 e?%C4%A0%C4%8AAssistant:%C4%A0
User:%C4%A0Fasse%C4%A0zusammen:%C4%A0Die%C4%A0Stra %C3%83%C5%81e%C4%A0ist%C4%A0
zi mal
infor matique.
Nil ?%C4%A0%C4%8AAssistant:%C4%A0In%C4%A0
f rom%C4%A0Germany.
speich er
zu%C4%A0 Fu%C3%83%C5%81
Preis%C4%A0 ist%C4%A0
User:%C4%A0Ver hindere%C4%A0
8%C4%A0+%C4%A0 2
User:%C4%A0%C3%83%C4%BEbersetze%C4%A0ins%C4%A0Franz%C3%83%C2%B6sische:%C4%A0Ich%C4%A0brauche%C4%A0Hilfe.%C4%A0%C4%8AAssistant:%C4%A0J%C4%A0ai%C4%A0besoin %C4%A0d%C4%A0aide.
User:%C4%A0Was%C4%A0ist%C4%A0ein%C4%A0 Planet
User:%C4%A0Fasse%C4%A0zusammen:%C4%A0Die%C4%A0Katze%C4%A0 schl%C3%83%C2%A4ft
User:%C4%A0Was%C4%A0ist%C4%A0eine%C4%A0 Demokratie
.%C4%A0Sonne%C4%A0und%C4%A0W ind%C4%A0
alitaet s
User:%C4%A0 I
%C3%83%C2%B6r ter.
Mathe .%C4%A0Die%C4%A0
elle%C4%A0 Bilder
Eine%C4%A0klare%C4%A0 Schrittfolge.%C4%A0Sie%C4%A0l%C3%83%C2%B6st%C4%A0
Techni k
Engli s
sind%C4%A0h ell.%C4%A0%C4%8AAssistant:%C4%A0H
kon flik
fr%C3%83%C2%BCh .
User:%C4%A0Wie%C4%A0planst%C4%A0du%C4%A0 Lernziel
.%C4%A0Ich%C4%A0 wiederhole%C4%A0
w%C3%83%C2%B6rter.%C4%A0Dann%C4%A0 markierst%C4%A0du%C4%A0
me%C4%A0la%C4%A0musi que.
Juli us%C4%A0C
User:%C4%A0%C3%83%C4%BEbersetze%C4%A0ins%C4%A0Franz%C3%83%C2%B6sische:%C4%A0Gute%C4%A0Nacht.%C4%A0%C4%8AAssistant:%C4%A0Bonne%C4%A0 nui
ier te%C4%A0
In %C4%A0der%C4%A0Mitte%C4%A0der%C4%A0
T hermom
voll .%C4%A0Wir%C4%A0
%C4%A0+%C4%A05 ,%C4%A0wie%C4%A0viel?%C4%A0%C4%8AAssistant:%C4%A015
.%C4%A0S tr
6,%C4%A0Ergebnis?%C4%A0%C4%8AAssistant:%C4%A0 20
User:%C4%A0Wie%C4%A0lernst%C4%A0du%C4%A0 aus%C4%A0
User:%C4%A0Wie%C4%A0schreibe%C4%A0ich%C4%A0eine%C4%A0 Zusammenfass
User:%C4%A0%C3%83%C4%BEbersetze%C4%A0ins%C4%A0Franz%C3%83%C2%B6sische:%C4%A0Kein%C4%A0Problem .%C4%A0%C4%8AAssistant:%C4%A0Pas
User:%C4%A0%C3%83%C4%BEbersetze%C4%A0ins%C4%A0Englische:%C4%A0Gute%C4%A0Nacht.%C4%A0%C4%8AAssistant:%C4%A0Good%C4%A0nig ht.
%C3%83%C2%B6d ie?%C4%A0%C4%8AAssistant:%C4%A0
unterweg s
B a
ge s.
fal sch.
User:%C4%A0%C3%83%C4%BEbersetze%C4%A0ins%C4%A0Franz%C3%83%C2%B6sische:%C4%A0Gute%C4%A0Nacht.%C4%A0%C4%8AAssistant:%C4%A0Bonne%C4%A0nui t.
s.%C4%A0Dann%C4%A0 passt%C4%A0du%C4%A0
User:%C4%A0%C3%83%C4%BEbersetze%C4%A0ins%C4%A0Franz%C3%83%C2%B6sische:%C4%A0Wie%C4%A0sp%C3%83%C2%A4t%C4%A0ist%C4%A0es.%C4%A0%C4%8AAssistant:%C4%A0 Quelle%C4%A0he
ist%C4%A0inter essant
fest .%C4%A0Dann%C4%A0
User:%C4%A0%C3%83%C4%BEbersetze%C4%A0ins%C4%A0Franz%C3%83%C2%B6sische:%C4%A0Wir%C4%A0 haben%C4%A0Zeit
User:%C4%A0Wie%C4%A0melde st%C4%A0du%C4%A0dich%C4%A0
y misier
plant %C4%A0
User:%C4%A0%C3%83%C4%BEbersetze%C4%A0ins%C4%A0Englische:%C4%A0Ich%C4%A0mag%C4%A0Musik.%C4%A0%C4%8AAssistant:%C4%A0I%C4%A0like%C4%A0music .
in%C4%A0JS.%C4%A0%C4%8AAssistant:%C4%A0se t
Rucksack.%C4%A0Morgen%C4%A0ist%C4%A0 Ausflug.%C4%A0%C4%8AAssistant:%C4%A0Rucksack%C4%A0
fe ste%C4%A0
K ur
Stif te.%C4%A0
Prozent .%C4%A0Neuer%C4%A0
User:%C4%A0%C3%83%C4%BEbersetze%C4%A0ins%C4%A0Englische:%C4%A0Wir%C4%A0 haben%C4%A0Zeit
Re st
Ex po
Be st%C3%83%C2%A4
kleine%C4%A0 Schritte.
?%C4%A0%C4%8AAssistant:%C4%A0Preise%C4%A0steigen.%C4%A0Geld%C4%A0 verliert%C4%A0Wert.
User:%C4%A02 2%C4%A0+%C4%A0
User:%C4%A0Fasse%C4%A0zusammen:%C4%A0Wir%C4%A0machen%C4%A0 Sport.%C4%A0Danach%C4%A0trink
Klass en
Danke%C4%A0f%C3%83%C2%BCr%C4%A0d eine%C4%A0Zeit
Szen e.
st%C4%A0d rei%C4%A0
st es%C4%A0
e?%C4%A0%C4%8AAssistant:%C4%A0Du%C4%A0 ordne
W ie%C4%A0viel%C4%A0
tur n%C4%A0
Laptop ,%C4%A0
a .%C4%A0Sie%C4%A0
Dup lik
Kin der%C4%A0lernen%C4%A0
User:%C4%A0G ilt%C4%A0
User:%C4%A0%C3%83%C4%BEbersetze%C4%A0ins%C4%A0Englische:%C4%A0Ich%C4%A0komme%C4%A0aus%C4%A0Deutschland.%C4%A0%C4%8AAssistant:%C4%A0I%C4%A0am%C4%A0 from%C4%A0Germany.
t%C4%A0 ein%C4%A0
?%C4%A0%C4%8AAssistant:%C4%A0Du%C4%A0 %C3%83%C2%B6ffne
Prozent.%C4%A0Neuer%C4%A0 Preis
ss en%C4%A0
mark ier
?%C4%A0%C4%8AAssistant:%C4%A0Eine%C4%A0 Regel%C4%A0
Fok us%C4%A0
b l
User:%C4%A0Wie%C4%A0pr%C3%83%C2%BCf st%C4%A0du,%C4%A0ob
Bis%C4%A0 morgen.%C4%A0%C4%8AAssistant:%C4%A0
gute%C4%A0 Einleit
plo ts?%C4%A0%C4%8AAssistant:%C4%A0
a f
Zwei -Fakt
Sal zwass
age gen.
Wichtig keit.%C4%A0Dann%C4%A0
Ergebnis:%C4%A0 5.
lin e
Vol k%C4%A0w%C3%83%C2%A4hlt.%C4%A0
lade%C4%A0das%C4%A0Handy .%C4%A0%C4%8AAssistant:%C4%A0Leerer%C4%A0Akku,%C4%A0Handy%C4%A0
Sch aup
kom bin
B litz
User:%C4%A0 Good%C4%A0
User:%C4%A0Fasse%C4%A0zusammen:%C4%A0Auf%C4%A0dem%C4%A0Markt%C4%A0gibt%C4%A0es%C4%A0 Obst
.%C4%A0%C4%8AAssistant:%C4%A0I%C4%A0am%C4%A0lo oking%C4%A0
.%C4%A0Die%C4%A0Preise%C4%A0sind%C4%A0gut.%C4%A0%C4%8AAssistant:%C4%A0Obstmarkt%C4%A0mit%C4%A0guten%C4%A0 Preisen.
gr%C3%83%C2%B6%C3%83%C5%81 te%C4%A0
User:%C4%A0Wie%C4%A0schreibe%C4%A0ich%C4%A0 H%C3%83%C2%B6r
re ale%C4%A0
on ymisier
.%C4%A0M ach
Perspek tive?%C4%A0%C4%8AAssistant:%C4%A0
'%C4%A0 />.
bil den%C4%A0
klick st%C4%A0auf%C4%A0
Komp atibi
Gegen wart
h ohe%C4%A0
%C4%A0defin ierst%C4%A0du%C4%A0
tionalitaet%C4%A0bedeutet,%C4%A0dass %C4%A0das%C4%A0
Plu s?%C4%A0%C4%8AAssistant:%C4%A0
User:%C4%A0Wie%C4%A0 vergleichst%C4%A0du%C4%A0
User:%C4%A0Wie%C4%A0schreibe%C4%A0ich%C4%A0 treffende%C4%A0
.%C4%A0Die%C4%A0Farben%C4%A0 sind%C4%A0hell.%C4%A0%C4%8AAssistant:%C4%A0H
la%C4%A0 bib
ie?%C4%A0%C4%8AAssistant:%C4%A0Die%C4%A0Lehr e%C4%A0von%C4%A0
Dok ument
ungen?%C4%A0%C4%8AAssistant:%C4%A0Du%C4%A0 machst%C4%A0
User:%C4%A0Fasse%C4%A0zusammen:%C4%A0Wir%C4%A0besuch en%C4%A0Oma
User:%C4%A0%C3%83%C4%BEbersetze%C4%A0ins%C4%A0Englische:%C4%A0 Bit
User:%C4%A0%C3%83%C4%BEbersetze%C4%A0ins%C4%A0Franz%C3%83%C2%B6sische:%C4%A0Wir%C4%A0 kochen%C4%A0heute.%C4%A0%C4%8AAssistant:%C4%A0Nous%C4%A0cui
nach %C4%A0dem%C4%A0
stark es%C4%A0
User:%C4%A0Was%C4%A0ist%C4%A0ein%C4%A0Algorithmus?%C4%A0%C4%8AAssistant:%C4%A0 Eine%C4%A0klare%C4%A0Schrittfolge.%C4%A0Sie%C4%A0l%C3%83%C2%B6st%C4%A0
Geld.%C4%A0 Einnahmen%C4%A0und%C4%A0Ausgab
beh and
.%C4%A0Ad diere%C4%A0die%C4%A0
F eld
.%C4%A0Die%C4%A0 Ticket
Feld herr
will%C4%A0 raus
Neutralit %C3%83%C2%A4t?%C4%A0%C4%8AAssistant:%C4%A0
Wie%C4%A0viel%C4%A0 kostet%C4%A0das
Tropf en%C4%A0
Konflikt .%C4%A0
wahr%C4%A0 oder%C4%A0fal
it arre.%C4%A0
%C3%83%C2%BCber springst%C4%A0du%C4%A0
H%C3%83%C2%B6 r%C4%A0gut%C4%A0zu.%C4%A0%C4%8AAssistant:%C4%A0
%C4%A0den%C4%A0 Koerper.
Team%C4%A0gew inn
kurze%C4%A0 Fragen.
h 1
,%C4%A0Ergebnis?%C4%A0%C4%8AAssistant:%C4%A0 20.%C4%A0
%C4%A0ein%C4%A0 bissch
User:%C4%A0%C3%83%C4%BEbersetze%C4%A0ins%C4%A0Englische:%C4%A0Wo%C4%A0ist%C4%A0die%C4%A0 Bibliothek.%C4%A0%C4%8AAssistant:%C4%A0Where%C4%A0is%C4%A0the%C4%A0library.
be d
F l%C3%83%C2%BCss
W %C3%83%C2%B6rter%C4%A0sammeln.
einen%C4%A0 Tim
M %C3%83%C2%BCll%C4%A0raus.%C4%A0Es%C4%A0
F%C3%83%C2%BC ge%C4%A0
User:%C4%A0Wie%C4%A0gehst%C4%A0du%C4%A0mit%C4%A0 neuen%C4%A0
kt,%C4%A0 Pr%C3%83%C2%A4dikat,%C4%A0
H ilf
f igur
Wichti ges%C4%A0
12 .%C4%A0
an .%C4%A0%C4%8AAssistant:%C4%A0O
f okuss
se -
Aender ungen.
%C4%A0d reh
.%C4%A0%C4%8AAssistant:%C4%A0Thank%C4%A0 you%C4%A0
wei se%C4%A0
.%C4%A0%C4%8AAssistant:%C4%A0Il%C4%A0li t%C4%A0un%C4%A0
entsteht%C4%A0 bei%C4%A0
%C3%83%C2%A4nder st%C4%A0du%C4%A0
Paus en.
u ter
st%C4%A0d ir%C4%A0das%C4%A0
Di en
No%C4%A0 problem.
Wasser tr%C3%83%C2%B6pf
h %C3%83%C2%A4tte%C4%A0gern%C4%A0Wasser
Berg%C4%A0mit%C4%A0 Magma
b us.
Zeitd ruck%C4%A0
User:%C4%A0Fasse%C4%A0zusammen:%C4%A0Ich%C4%A0trinke%C4%A0Tee.%C4%A0 Er%C4%A0
%C4%A0%C4%8AAssistant:%C4%A0 3
%C4%A0+%C4%A01 4
User:%C4%A0Wer%C4%A0war%C4%A0 Julius%C4%A0C
User:%C4%A0Fasse%C4%A0zusammen:%C4%A0Ich%C4%A0 backe%C4%A0Bro
User:%C4%A0Wie%C4%A0lie st%C4%A0du%C4%A0
livr e.
Der%C4%A0 Bus%C4%A0kommt%C4%A0
en%C4%A0 es.
.%C4%A0Die%C4%A0Antwort%C4%A0kommt%C4%A0 sp%C3%83%C2%A4ter.%C4%A0%C4%8AAssistant:%C4%A0E%C4%A0Mail%C4%A0geschrie
%C3%83%C2%B6deralismus?%C4%A0%C4%8AAssistant:%C4%A0 Macht%C4%A0
Be such%C4%A0bei%C4%A0Oma%C4%A0mit%C4%A0
ar en%C4%A0
Eur o%C4%A0
User:%C4%A0Wo%C4%A0liegt%C4%A0der%C4%A0 Nil?%C4%A0%C4%8AAssistant:%C4%A0In%C4%A0
fr%C3%83%C2%BCh %C4%A0
re p
8.%C4%A0S timmt.
6%C4%A0 plus%C4%A0
10%C4%A0 10%C4%A0
.%C4%A0Die%C4%A0Ticket s%C4%A0sind%C4%A0
yI d('
entsteht%C4%A0 aus%C4%A0
t.%C4%A0 Bund%C4%A0und%C4%A0L%C3%83%C2%A4nder%C4%A0
spannend.%C4%A0%C4%8AAssistant:%C4%A0 Spann
frei e%C4%A0
Sch ema%C4%A0
kurz er%C4%A0
%C4%A0-%C4%A0 3%C4%A0=%C4%A0
Komp on
S and%C4%A0
W erk
='st y
User:%C4%A0Wie%C4%A0 r%C3%83%C2%A4um
?%C4%A0%C4%8AAssistant:%C4%A0Du%C4%A0deck st%C4%A0Normal
.%C4%A0%C4%8AAssistant:%C4%A0Where%C4%A0do%C4%A0you%C4%A0li ve.
User:%C4%A0Was%C4%A0ist%C4%A0F %C3%83%C2%B6deralismus?%C4%A0%C4%8AAssistant:%C4%A0Macht%C4%A0
?%C4%A0%C4%8AAssistant:%C4%A0Du%C4%A0 startest%C4%A0
tig keit%C4%A0
E mpfehl
Energ ie
?%C4%A0%C4%8AAssistant:%C4%A0 Beweg
User:%C4%A0Fasse%C4%A0zusammen:%C4%A0Der%C4%A0Lehrer%C4%A0erkl%C3%83%C2%A4rt%C4%A0 langsam.%C4%A0Alle%C4%A0versteh
f l%C3%83%C2%A4
User:%C4%A0%C3%83%C4%BEbersetze%C4%A0ins%C4%A0Franz%C3%83%C2%B6sische:%C4%A0Heute%C4%A0ist%C4%A0Montag.%C4%A0%C4%8AAssistant:%C4%A0Aujourd%C4%A0hui%C4%A0c%C4%A0est%C4%A0lund i
t.%C4%A0Ich%C4%A0setze%C4%A0Kopfh%C3%83%C2%B6r er%C4%A0auf.%C4%A0%C4%8AAssistant:%C4%A0L%C3%83%C2%A4rm%C4%A0mit%C4%A0Kopfh%C3%83%C2%B6rern%C4%A0gel%C3%83%C2%B6st.
S he%C4%A0
ann %C4%A0definierst%C4%A0du%C4%A0
Auf trie
Konsist enz
Ein trag%C4%A0
User:%C4%A0Wer%C4%A0war%C4%A0K arl%C4%A0der%C4%A0
Re flexion%C4%A0von%C4%A0
Geheim nis%C4%A0
studiere%C4%A0Informatik.%C4%A0%C4%8AAssistant:%C4%A0I%C4%A0study%C4%A0co mputer%C4%A0science.
en%C4%A0sich .%C4%A0
?%C4%A0%C4%8AAssistant:%C4%A0Ein%C4%A0 Ergebnis%C4%A0
o tizen?%C4%A0%C4%8AAssistant:%C4%A0
User:%C4%A0Fasse%C4%A0zusammen:%C4%A0Die%C4%A0Pr%C3%83%C2%BCfung%C4%A0ist%C4%A0bal d
min imal
vera endert%C4%A0
starke%C4%A0 Verb
mitt lere%C4%A0
F anta
ob en.
D ruck%C4%A0
Tr ig
%C4%A0-%C4%A0 9,%C4%A0wie%C4%A0viel?%C4%A0%C4%8AAssistant:%C4%A0
P ort
A kt
e%C4%A0 Notizen.%C4%A0Sie%C4%A0helfen%C4%A0
w ichtige%C4%A0
ar te?%C4%A0%C4%8AAssistant:%C4%A0
ge trennt%C4%A0
User:%C4%A0Was%C4%A0ist%C4%A0 G
User:%C4%A0%C3%83%C4%BEbersetze%C4%A0ins%C4%A0Englische:%C4%A0Ich%C4%A0habe%C4%A0Zeit.%C4%A0%C4%8AAssistant:%C4%A0I%C4%A0have%C4%A0 time.
User:%C4%A0%C3%83%C4%BEbersetze%C4%A0ins%C4%A0Englische:%C4%A0Wir%C4%A0haben%C4%A0Zeit .%C4%A0%C4%8AAssistant:%C4%A0We%C4%A0have%C4%A0time.
er fasst%C4%A0
User:%C4%A0%C3%83%C4%BEbersetze%C4%A0ins%C4%A0Englische:%C4%A0Wir%C4%A0spielen%C4%A0Fu%C3%83%C5%81ball .%C4%A0%C4%8AAssistant:%C4%A0We%C4%A0play%C4%A0socc
User:%C4%A0%C3%83%C4%BEbersetze%C4%A0ins%C4%A0Franz%C3%83%C2%B6sische:%C4%A0Das%C4%A0 ist%C4%A0einfach
zwei%C4%A0Aus drueck
User:%C4%A0%C3%83%C4%BEbersetze%C4%A0ins%C4%A0Englische:%C4%A0Ich%C4%A0 trinke%C4%A0Wasser.%C4%A0%C4%8AAssistant:%C4%A0I%C4%A0drink%C4%A0
Le se
User:%C4%A0%C3%83%C4%BEbersetze%C4%A0ins%C4%A0Franz%C3%83%C2%B6sische:%C4%A0Kein%C4%A0Problem.%C4%A0%C4%8AAssistant:%C4%A0Pas %C4%A0de%C4%A0probl%C3%83%C2%A8me.
Vielen%C4%A0 D
ier en.
%C3%83%C4%A6 ste%C4%A0
t%C3%83%C2%A4g lich
Plausi bi
Physik .%C4%A0Morgen%C4%A0ist%C4%A0Test.%C4%A0%C4%8AAssistant:%C4%A0Phy
put?%C4%A0%C4%8AAssistant:%C4%A0Das%C4%A0 ist%C4%A0die%C4%A0
is kussion
User:%C4%A0%C3%83%C4%BEbersetze%C4%A0ins%C4%A0Englische:%C4%A0Wie%C4%A0sp%C3%83%C2%A4t%C4%A0ist%C4%A0es.%C4%A0%C4%8AAssistant:%C4%A0W hat%C4%A0time%C4%A0is%C4%A0it.
li g
Unterr icht.
In%C4%A0der%C4%A0Mitte%C4%A0der%C4%A0 Erde.%C4%A0
User:%C4%A0Wie%C4%A0schreibe%C4%A0ich%C4%A0 f%C3%83%C2%BCr%C4%A0
User:%C4%A0Warum%C4%A0 w
We ge?%C4%A0%C4%8AAssistant:%C4%A0Du%C4%A0
User:%C4%A0Wie%C4%A0schreibe%C4%A0ich%C4%A0F an
te st.
Erneu er
,%C4%A0 ist%C4%A0das%C4%A0
Akku%C4%A0ist%C4%A0leer .%C4%A0Ich%C4%A0
User:%C4%A0%C3%83%C4%BEbersetze%C4%A0ins%C4%A0Franz%C3%83%C2%B6sische:%C4%A0Wo%C4%A0wohnst%C4%A0du .%C4%A0%C4%8AAssistant:%C4%A0T
mpot enz
?%C4%A0%C4%8AAssistant:%C4%A0Du%C4%A0 erstellst%C4%A0
An leit
entscheidest%C4%A0du%C4%A0 ja%C4%A0oder%C4%A0nein.
p %C3%83%C2%BCnktlich
Spe zifik
imum?%C4%A0%C4%8AAssistant:%C4%A0Du%C4%A0merk st%C4%A0dir%C4%A0das%C4%A0
User:%C4%A0%C3%83%C4%BEbersetze%C4%A0ins%C4%A0Englische:%C4%A0Wo%C4%A0ist%C4%A0der%C4%A0Bahnhof .%C4%A0%C4%8AAssistant:%C4%A0Where%C4%A0is%C4%A0the%C4%A0tra
User:%C4%A0%C3%83%C4%BEbersetze%C4%A0ins%C4%A0Englische:%C4%A0Das%C4%A0ist%C4%A0einfach .%C4%A0%C4%8AAssistant:%C4%A0That%C4%A0is%C4%A0easy.
eri al
n %C4%A0die%C4%A0
User:%C4%A0Fasse%C4%A0zusammen:%C4%A0Ich%C4%A0trinke%C4%A0Tee.%C4%A0Er%C4%A0 w%C3%83%C2%A4rmt%C4%A0gut.%C4%A0%C4%8AAssistant:%C4%A0W
.%C4%A0Sp ann
Thema .%C4%A0Dann%C4%A0
hat%C4%A0 viel%C4%A0
User:%C4%A0Fasse%C4%A0zusammen:%C4%A0Die%C4%A0Pr%C3%83%C2%BCfung%C4%A0ist%C4%A0bald .%C4%A0Ich%C4%A0wiederhole%C4%A0
Ressourc en.
.%C4%A0Mach t%C4%A0
%C4%A0d es%C4%A0
User:%C4%A0%C3%83%C4%BEbersetze%C4%A0ins%C4%A0Franz%C3%83%C2%B6sische:%C4%A0Ich%C4%A0trinke%C4%A0Wasser .%C4%A0%C4%8AAssistant:%C4%A0Je%C4%A0bois%C4%A0de%C4%A0l%C4%A0eau.
eck t%C4%A0
ge putzt,%C4%A0alles%C4%A0sauber.
o ?%C4%A0%C4%8AAssistant:%C4%A0
Salz %C4%A0s
Dikt ator
e d.
beim%C4%A0 Lern
plan en.
geteil t.%C4%A0Bund%C4%A0und%C4%A0L%C3%83%C2%A4nder%C4%A0
.%C4%A0Viele%C4%A0 Menschen%C4%A0
Par am
User:%C4%A0Fasse%C4%A0zusammen:%C4%A0Der%C4%A0 Akku%C4%A0ist%C4%A0leer.%C4%A0Ich%C4%A0
fo er
bie test%C4%A0du%C4%A0
.%C4%A0Sie%C4%A0 sch%C3%83%C2%BCtzen%C4%A0Menschen.
mond%C4%A0bedeutet%C4%A0dass%C4%A0die%C4%A0Mond scheibe%C4%A0
en.%C4%A0D ann%C4%A0definierst%C4%A0du%C4%A0
Physik.%C4%A0Morgen%C4%A0ist%C4%A0Test.%C4%A0%C4%8AAssistant:%C4%A0Phy siklernen%C4%A0vor%C4%A0dem%C4%A0Test.
getElementB yId('
t %C3%A2%C4%A2%C4%BB
Abl auf%C4%A0
?%C4%A0%C4%8AAssistant:%C4%A0Ein%C4%A0Fluss %C4%A0in%C4%A0
%C3%83%C4%BEberschri f
User:%C4%A0Wer%C4%A0war%C4%A0Napole on?%C4%A0%C4%8AAssistant:%C4%A0Ein%C4%A0franz%C3%83%C2%B6sischer%C4%A0Herrscher
%C4%A0+%C4%A0b ;
sind %C4%A0die%C4%A0
eine%C4%A0 Liste.%C4%A0Dann%C4%A0
Kalte%C4%A0Krieg?%C4%A0%C4%8AAssistant:%C4%A0 Spannung%C4%A0
Volk%C4%A0w%C3%83%C2%A4hlt.%C4%A0 Rechte%C4%A0
cris%C4%A0 un%C4%A0
ent ?%C4%A0%C4%8AAssistant:%C4%A0Eine%C4%A0
lichkeit en.
a .%C4%A0Dann%C4%A0
Daten schutz
?%C4%A0%C4%8AAssistant:%C4%A0Du%C4%A0listest%C4%A0 Aufgaben.%C4%A0Dann%C4%A0
Grav it
User:%C4%A0%C3%83%C4%BEbersetze%C4%A0ins%C4%A0Franz%C3%83%C2%B6sische:%C4%A0 Bis%C4%A0sp%C3%83%C2%A4ter.%C4%A0%C4%8AAssistant:%C4%A0%C3%83%C4%A2%C4%A0plus%C4%A0tard.
User:%C4%A0Fasse%C4%A0zusammen:%C4%A0Wir%C4%A0h%C3%83%C2%B6ren%C4%A0lei se%C4%A0Musik.%C4%A0Wir%C4%A0lesen%C4%A0dazu.%C4%A0%C4%8AAssistant:%C4%A0Leise%C4%A0Musik%C4%A0beim%C4%A0Lesen.
1%C4%A0 /%C4%A0
Regeln%C4%A0 sch%C3%83%C2%BCtzen%C4%A0Rechte.
Sp%C3%83%C2%A4 ter%C4%A0
User:%C4%A0Wie%C4%A0merkst%C4%A0du%C4%A0d ir%C4%A0
.%C4%A0Neu n%C4%A0
Dow n
User:%C4%A0Wo%C4%A0liegt%C4%A0der%C4%A0%C3%83%C4%A6quator?%C4%A0%C4%8AAssistant:%C4%A0 In%C4%A0der%C4%A0Mitte%C4%A0der%C4%A0Erde.%C4%A0
User:%C4%A0Wie%C4%A0klingen%C4%A0 S%C3%83%C2%A4tze%C4%A0
steig er
ehr lich.
wiederhol t%C4%A0
L%C3%83%C2%B6s ungen.
sicht bar.
User:%C4%A0%C3%83%C4%BEbersetze%C4%A0ins%C4%A0Englische:%C4%A0Wir%C4%A0spielen%C4%A0Fu%C3%83%C5%81ball.%C4%A0%C4%8AAssistant:%C4%A0We%C4%A0play%C4%A0socc er.
?%C4%A0%C4%8AAssistant:%C4%A0Das%C4%A0 Volk%C4%A0w%C3%83%C2%A4hlt.%C4%A0Rechte%C4%A0
Z%C3%83%C2%A4h ne
?%C4%A0%C4%8AAssistant:%C4%A0 Zwei%C4%A0
User:%C4%A0Was%C4%A0ist%C4%A0ein%C4%A0 Bundesland
angsame%C4%A0Erkl%C3%83%C2%A4r ung,%C4%A0
User:%C4%A0Was%C4%A0ist%C4%A0ein%C4%A0Kontin ent?%C4%A0%C4%8AAssistant:%C4%A0Eine%C4%A0
sa m%C4%A0
19 3
haben%C4%A0 Unterricht
User:%C4%A0Wie%C4%A0schreibe%C4%A0ich%C4%A0eine%C4%A0Szen e%C4%A0
User:%C4%A0 Schreibe%C4%A0
ohne%C4%A0 Gew
ultipli ziere%C4%A0mit%C4%A0dem%C4%A0
User:%C4%A0Fasse%C4%A0zusammen:%C4%A0Die%C4%A0Katze%C4%A0schl%C3%83%C2%A4ft .%C4%A0Der%C4%A0H
box ');
User:%C4%A0Fasse%C4%A0zusammen:%C4%A0Die%C4%A0Sonne%C4%A0 scheint.%C4%A0Wir%C4%A0
minus%C4%A0 7.
H%C3%83%C2%A4l fte.
Tag %C4%A0und%C4%A0
Haupt teil
hilf t.
ein%C4%A0 Ergebni
steigend?%C4%A0%C4%8AAssistant:%C4%A0Du%C4%A0vergleichst%C4%A0 Paare.%C4%A0
Log s%C4%A0
e?%C4%A0%C4%8AAssistant:%C4%A0Du%C4%A0 setzt%C4%A0
einfach en%C4%A0
User:%C4%A0%C3%83%C4%BEbersetze%C4%A0ins%C4%A0Franz%C3%83%C2%B6sische:%C4%A0Wir%C4%A0 spielen%C4%A0Fu%C3%83%C5%81ball.%C4%A0%C4%8AAssistant:%C4%A0Nous%C4%A0jou
Da mpf%C4%A0
unn%C3%83%C2%B6 tige%C4%A0
Feedback %C4%A0
erst%C4%A0du%C4%A0einen%C4%A0 Prozess
User:%C4%A0%C3%83%C4%BEbersetze%C4%A0ins%C4%A0Englische:%C4%A0Wo%C4%A0ist%C4%A0der%C4%A0Bahnhof.%C4%A0%C4%8AAssistant:%C4%A0Where%C4%A0is%C4%A0the%C4%A0tra in%C4%A0station.
.%C4%A0Dann%C4%A0 h%C3%83%C2%A4ltst%C4%A0du%C4%A0Zeiten%C4%A0ein.
Englis h.
; i
gehen%C4%A0sp azier
6%C4%A0+%C4%A0 2%C4%A0=%C4%A08.
User:%C4%A0Was%C4%A0ist%C4%A0ein%C4%A0 Budget
Sie%C4%A0tanz en%C4%A0gern
mache%C4%A0Hausaufgab en
Handl ung%C4%A0
User:%C4%A0%C3%83%C4%BEbersetze%C4%A0ins%C4%A0Englische:%C4%A0 Heute%C4%A0ist%C4%A0Montag.%C4%A0%C4%8AAssistant:%C4%A0Today%C4%A0is%C4%A0Monday.
freund lich
an.%C4%A0%C4%8AAssistant:%C4%A0O n
Sym bo
.%C4%A0%C4%8AAssistant:%C4%A0 No%C4%A0problem.
User:%C4%A0Wie%C4%A0gehst%C4%A0du%C4%A0bei%C4%A0 Mehr
lang .
User:%C4%A0%C3%83%C4%BEbersetze%C4%A0ins%C4%A0Franz%C3%83%C2%B6sische:%C4%A0Wir%C4%A0spielen%C4%A0Fu%C3%83%C5%81ball.%C4%A0%C4%8AAssistant:%C4%A0Nous%C4%A0jou ons%C4%A0au%C4%A0foot.
,%C4%A0w eil
Re qu
User:%C4%A0Fasse%C4%A0zusammen:%C4%A0Ich%C4%A0schreib e%C4%A0Notizen.%C4%A0Sie%C4%A0helfen%C4%A0
hoch .
st %C3%83%C2%BCtz
.%C4%A0S %C3%83%C2%A4tze%C4%A0
) %C4%A0=%C4%A0
in%C4%A0 JS%C4%A0
Use%C4%A0C ase%C4%A0
-Ket te?%C4%A0%C4%8AAssistant:%C4%A0Du%C4%A0
.%C4%A0%C4%8AAssistant:%C4%A0%C3%83%C4%A9a%C4%A0co%C3%83%C2%BB te%C4%A0combien.
online.%C4%A0Die%C4%A0Kamera%C4%A0bleibt%C4%A0 an.%C4%A0%C4%8AAssistant:%C4%A0On
L eit
Te e?%C4%A0%C4%8AAssistant:%C4%A0
User:%C4%A0Wie%C4%A0 kontrollierst%C4%A0du%C4%A0
User:%C4%A0%C3%83%C4%BEbersetze%C4%A0ins%C4%A0Englische:%C4%A0Ich%C4%A0trinke%C4%A0Wasser.%C4%A0%C4%8AAssistant:%C4%A0I%C4%A0drink%C4%A0 water.
e v
User:%C4%A0%C3%83%C4%BEbersetze%C4%A0ins%C4%A0Englische:%C4%A0Kein%C4%A0Problem .%C4%A0%C4%8AAssistant:%C4%A0No%C4%A0problem.
te?%C4%A0%C4%8AAssistant:%C4%A0Du%C4%A0 pr%C3%83%C2%BCfst%C4%A0
User:%C4%A0Was%C4%A0ist%C4%A0das%C4%A0neutrale%C4%A0Element%C4%A0 bei%C4%A0
Vielen%C4%A0D ank
User:%C4%A0%C3%83%C4%BEbersetze%C4%A0ins%C4%A0Englische:%C4%A0 Es%C4%A0tut%C4%A0mir%C4%A0leid.%C4%A0%C4%8AAssistant:%C4%A0I%C4%A0am%C4%A0sorry.
noch%C4%A0schnell.%C4%A0%C4%8AAssistant:%C4%A0Alter%C4%A0 Laptop,%C4%A0
.%C4%A0D at
%C3%83%C2%A4n ge.
.%C4%A0S umme%C4%A0ist%C4%A0
identi f
User:%C4%A0%C3%83%C4%BEbersetze%C4%A0ins%C4%A0Franz%C3%83%C2%B6sische:%C4%A0Entschuldigung.%C4%A0%C4%8AAssistant:%C4%A0Pard on.
.%C4%A0Dann%C4%A0 gibst%C4%A0du%C4%A0
jetz t?%C4%A0%C4%8AAssistant:%C4%A0
%C3%83%C4%BEberg%C3%83%C2%A4n ge%C4%A0
ang st?%C4%A0%C4%8AAssistant:%C4%A0
Energie%C4%A0 kann%C4%A0in%C4%A0
m -
klar ?%C4%A0%C4%8AAssistant:%C4%A0
User:%C4%A0%C3%83%C4%BEbersetze%C4%A0ins%C4%A0Englische:%C4%A0Viel%C4%A0Spa%C3%83%C5%81.%C4%A0%C4%8AAssistant:%C4%A0Have%C4%A0fun .
User:%C4%A0Was%C4%A0ist%C4%A0Inflation ?%C4%A0%C4%8AAssistant:%C4%A0Preise%C4%A0steigen.%C4%A0Geld%C4%A0verliert%C4%A0Wert.
im%C4%A0 Fokus.
multipli zier
Schn ittstelle%C4%A0
off %C4%A0
Tat en.%C4%A0
User:%C4%A0Fasse%C4%A0zusammen:%C4%A0Ich%C4%A0schreibe%C4%A0eine%C4%A0E%C4%A0Mail .%C4%A0Die%C4%A0Antwort%C4%A0kommt%C4%A0sp%C3%83%C2%A4ter.%C4%A0%C4%8AAssistant:%C4%A0E%C4%A0Mail%C4%A0geschrie
w%C3%83%C2%B6r ter.
Wasser?%C4%A0%C4%8AAssistant:%C4%A0 Wasser%C4%A0
speich ern%C4%A0
User:%C4%A0Wie%C4%A0planst%C4%A0du%C4%A0Lernziel e%C4%A0pro%C4%A0
ver arbeitet%C4%A0
Fr age.
online.%C4%A0Die%C4%A0Kamera%C4%A0bleibt%C4%A0an.%C4%A0%C4%8AAssistant:%C4%A0On line%C4%A0
prob ierst%C4%A0
Roll back
User:%C4%A0Fasse%C4%A0zusammen:%C4%A0Das%C4%A0Zimmer%C4%A0ist%C4%A0lau t.%C4%A0Ich%C4%A0setze%C4%A0Kopfh%C3%83%C2%B6rer%C4%A0auf.%C4%A0%C4%8AAssistant:%C4%A0L%C3%83%C2%A4rm%C4%A0mit%C4%A0Kopfh%C3%83%C2%B6rern%C4%A0gel%C3%83%C2%B6st.
.%C4%A0Die%C4%A0 Seite%C4%A0l%C3%83%C2%A4dt%C4%A0nicht
pack st%C4%A0
gegeb enen%C4%A0
User:%C4%A0%C3%83%C4%BEbersetze%C4%A0ins%C4%A0Franz%C3%83%C2%B6sische:%C4%A0Wo%C4%A0wohnst%C4%A0du.%C4%A0%C4%8AAssistant:%C4%A0T u%C4%A0habites%C4%A0o%C3%83%C2%B9.
User:%C4%A0Wer%C4%A0war%C4%A0Gandhi?%C4%A0%C4%8AAssistant:%C4%A0Ein%C4%A0Anf%C3%83%C2%BChrer%C4%A0aus%C4%A0In di
bar,%C4%A0wenn%C4%A0 sie%C4%A0
M%C3%83%C2%BCll%C4%A0raus.%C4%A0Es%C4%A0 riecht%C4%A0besser.%C4%A0%C4%8AAssistant:%C4%A0M%C3%83%C2%BCll%C4%A0raus
t%C4%A0 Fahrra
on n
aktuali sierst%C4%A0du%C4%A0
t%C4%A0Fahrra d.%C4%A0%C4%8AAssistant:%C4%A0
Antwor ten.
.%C4%A0Die%C4%A0Farben%C4%A0sind%C4%A0hell.%C4%A0%C4%8AAssistant:%C4%A0H elles%C4%A0Bild%C4%A0
?%C4%A0%C4%8AAssistant:%C4%A0Ein%C4%A0Bild%C4%A0 von%C4%A0
Tran sp
User:%C4%A0Fasse%C4%A0zusammen:%C4%A0Ich%C4%A0trinke%C4%A0Tee.%C4%A0Er%C4%A0w%C3%83%C2%A4rmt%C4%A0gut.%C4%A0%C4%8AAssistant:%C4%A0W %C3%83%C2%A4rmender%C4%A0Tee.
An zahl
nicht%C4%A0 ver
ok %C4%A0
?%C4%A0%C4%8AAssistant:%C4%A0Du%C4%A0 wiederholst%C4%A0
ein%C4%A0 Frage
mal%C4%A0 zwei.
Schne em
User:%C4%A0Wer%C4%A0war%C4%A0Karl%C4%A0der%C4%A0 Gro%C3%83%C5%81e?%C4%A0%C4%8AAssistant:%C4%A0Ein%C4%A0fr%C3%83%C2%A4nk
Bibliothe k%C4%A0
M%C3%83%C2%BCll%C4%A0raus.%C4%A0Es%C4%A0riecht%C4%A0besser.%C4%A0%C4%8AAssistant:%C4%A0M%C3%83%C2%BCll%C4%A0raus ,%C4%A0
z%C3%83%C2%A4hl en.
en te
Pap ier%C4%A0
El le%C4%A0
,%C4%A0wie%C4%A0viel?%C4%A0%C4%8AAssistant:%C4%A04 2
wichtig ?%C4%A0%C4%8AAssistant:%C4%A0Sie%C4%A0
User:%C4%A0%C3%83%C4%BEbersetze%C4%A0ins%C4%A0Franz%C3%83%C2%B6sische:%C4%A0Ich%C4%A0hei%C3%83%C5%81e%C4%A0Alex.%C4%A0%C4%8AAssistant:%C4%A0Je%C4%A0 m%C4%A0appelle%C4%A0Alex.
v ier%C4%A0ist%C4%A0
L atenz
stark .%C4%A0Wir%C4%A0bleiben%C4%A0zu%C4%A0Hause.%C4%A0%C4%8AAssistant:%C4%A0Stark
ung?%C4%A0%C4%8AAssistant:%C4%A0 Grundregeln%C4%A0
Krieg .%C4%A0
Co de
Komp ass
User:%C4%A0%C3%83%C4%BEbersetze%C4%A0ins%C4%A0Franz%C3%83%C2%B6sische:%C4%A0Wir%C4%A0haben%C4%A0Zeit .%C4%A0%C4%8AAssistant:%C4%A0Nous%C4%A0avons%C4%A0du%C4%A0temps.
User:%C4%A0Fasse%C4%A0zusammen:%C4%A0Ich%C4%A0schreibe%C4%A0eine%C4%A0E%C4%A0Mail.%C4%A0Die%C4%A0Antwort%C4%A0kommt%C4%A0sp%C3%83%C2%A4ter.%C4%A0%C4%8AAssistant:%C4%A0E%C4%A0Mail%C4%A0geschrie ben,%C4%A0Antwort%C4%A0sp%C3%83%C2%A4ter.
verschied ene%C4%A0
De zimal
%C4%A0%C3%83%C4%B9%C4%A04 %C4%A0=%C4%A0
klar en%C4%A0
Ide mpotenz
%C4%A0d arfst%C4%A0du%C4%A0tauschen.
3 %C4%A0+%C4%A0
toi%C4%A0 bien.
User:%C4%A0%C3%83%C4%BEbersetze%C4%A0ins%C4%A0Franz%C3%83%C2%B6sische:%C4%A0Heute%C4%A0ist%C4%A0Montag.%C4%A0%C4%8AAssistant:%C4%A0Aujourd%C4%A0hui%C4%A0c%C4%A0est%C4%A0lundi .
User:%C4%A010 %C4%A0-%C4%A0
User:%C4%A0Wie%C4%A0setze%C4%A0 ich%C4%A0
?%C4%A0%C4%8AAssistant:%C4%A0 Verb
rechne st%C4%A0
c e%C4%A0
de m.
en dest%C4%A0du%C4%A0
User:%C4%A0Wer%C4%A0war%C4%A0 M
%C4%A0-%C4%A05 ,%C4%A0Ergebnis?%C4%A0%C4%8AAssistant:%C4%A0
Restor e%C4%A0
le uch
Nutz en.%C4%A0Dann%C4%A0
User:%C4%A0%C3%83%C4%BEbersetze%C4%A0ins%C4%A0Franz%C3%83%C2%B6sische:%C4%A0Kannst%C4%A0du%C4%A0helfen.%C4%A0%C4%8AAssistant:%C4%A0 Tu%C4%A0peux%C4%A0aider.
User:%C4%A0Wie%C4%A0schreibe%C4%A0ich%C4%A0 gute%C4%A0
User:%C4%A02 7%C4%A0%C3%83%C2%B7%C4%A0
In n
F%C3%83%C2%A4l le
User:%C4%A0%C3%83%C4%BEbersetze%C4%A0ins%C4%A0Franz%C3%83%C2%B6sische:%C4%A0 %C3%83%C4%B8ffne%C4%A0das%C4%A0Fenster.%C4%A0%C4%8AAssistant:%C4%A0O
reflektiert%C4%A0 Sonnenlich
w%C3%83%C2%A4hlen.%C4%A0 Un
User:%C4%A0Was%C4%A0ist%C4%A0eine%C4%A0Demokratie ?%C4%A0%C4%8AAssistant:%C4%A0Das%C4%A0Volk%C4%A0w%C3%83%C2%A4hlt.%C4%A0Rechte%C4%A0
User:%C4%A0%C3%83%C4%BEbersetze%C4%A0ins%C4%A0Englische:%C4%A0Ich%C4%A0 studiere%C4%A0Informatik.%C4%A0%C4%8AAssistant:%C4%A0I%C4%A0study%C4%A0computer%C4%A0science.
User:%C4%A0Fasse%C4%A0zusammen:%C4%A0Ich%C4%A0male%C4%A0ein%C4%A0Bild .%C4%A0Die%C4%A0Farben%C4%A0sind%C4%A0hell.%C4%A0%C4%8AAssistant:%C4%A0Helles%C4%A0Bild%C4%A0
wird%C4%A0 ge
ensystem?%C4%A0%C4%8AAssistant:%C4%A0Eine%C4%A0 Sonne%C4%A0
?%C4%A0%C4%8AAssistant:%C4%A0Du%C4%A0schreib st%C4%A0das%C4%A0
untersch eid
stellst%C4%A0Frag en.%C4%A0Dann%C4%A0
User:%C4%A0Fasse%C4%A0zusammen:%C4%A0Ich%C4%A0%C3%83%C2%BCbe%C4%A0G itarre.%C4%A0
%C4%A0+%C4%A01 1
ir ekt
?%C4%A0%C4%8AAssistant:%C4%A0Ein%C4%A0Bund%C4%A0 von%C4%A0
aus end
User:%C4%A0%C3%83%C4%BEbersetze%C4%A0ins%C4%A0Englische:%C4%A0Wir%C4%A0kochen%C4%A0 heute
Die%C4%A0 %C3%83%C4%BEbung%C4%A0ist%C4%A0leich
Schrit te,%C4%A0
P au
o ul
po litisch.
fas st%C4%A0du%C4%A0zusammen.
schwer.%C4%A0%C4%8AAssistant:%C4%A0 Mathelernen%C4%A0mit%C4%A0
$ {
User:%C4%A0Fasse%C4%A0zusammen:%C4%A0Der%C4%A0Akku%C4%A0ist%C4%A0leer.%C4%A0Ich%C4%A0 lade%C4%A0das%C4%A0Handy.%C4%A0%C4%8AAssistant:%C4%A0Leerer%C4%A0Akku,%C4%A0Handy%C4%A0
enziele?%C4%A0%C4%8AAssistant:%C4%A0 Was%C4%A0
Zust%C3%83%C2%A4n de
.%C4%A0%C4%8AAssistant:%C4%A0Frisches%C4%A0Brot%C4%A0mit%C4%A0gutem%C4%A0Duf t.
St%C3%83%C2%A4r ke%C4%A0
.%C4%A0%C4%8AAssistant:%C4%A0W %C3%83%C2%A4sche%C4%A0gewaschen%C4%A0und%C4%A0gefaltet.
h%C3%83%C2%B6re%C4%A0d ich
ier .
User:%C4%A0Wie%C4%A0schreibe%C4%A0ich%C4%A0 Schaup
schwer.%C4%A0%C4%8AAssistant:%C4%A0Mathelernen%C4%A0mit%C4%A0 schwer
.%C4%A0V ier%C4%A0mal%C4%A0
sprech en.
User:%C4%A0Fasse%C4%A0zusammen:%C4%A0Ich%C4%A0lerne%C4%A0 Mathe.%C4%A0Die%C4%A0
Akzep tanzkriteri
Anleit ung?%C4%A0%C4%8AAssistant:%C4%A0Du%C4%A0
w%C3%83%C2%A4hl st%C4%A0du%C4%A0die%C4%A0
realist ische%C4%A0
T iere%C4%A0
ko gnitive%C4%A0La
.%C4%A0%C4%8AAssistant:%C4%A0J%C4%A0 apprends%C4%A0
bo ok.
lang en%C4%A0
?%C4%A0%C4%8AAssistant:%C4%A0D rei%C4%A0
User:%C4%A0%C3%83%C4%BEbersetze%C4%A0ins%C4%A0Franz%C3%83%C2%B6sische:%C4%A0Ich%C4%A0bin%C4%A0bereit.%C4%A0%C4%8AAssistant:%C4%A0Je%C4%A0suis%C4%A0 pr%C3%83%C2%AAt.
User:%C4%A0Wie%C4%A0 sind%C4%A0
st uetz
User:%C4%A0Wo%C4%A0liegt%C4%A0der%C4%A0Nil?%C4%A0%C4%8AAssistant:%C4%A0In%C4%A0 Afrika.%C4%A0Er%C4%A0
19 4
User:%C4%A0Ein%C4%A0 Preis%C4%A0ist%C4%A0
User:%C4%A0%C3%83%C4%BEbersetze%C4%A0ins%C4%A0Englische:%C4%A0Eine%C4%A0Fahrkarte%C4%A0bitte.%C4%A0%C4%8AAssistant:%C4%A0 A%C4%A0ticket%C4%A0please.
Pro duz
Wasser%C4%A0 ist%C4%A0
User:%C4%A0Fasse%C4%A0zusammen:%C4%A0Auf%C4%A0dem%C4%A0Markt%C4%A0gibt%C4%A0es%C4%A0Obst .%C4%A0Die%C4%A0Preise%C4%A0sind%C4%A0gut.%C4%A0%C4%8AAssistant:%C4%A0Obstmarkt%C4%A0mit%C4%A0guten%C4%A0Preisen.
reg net%C4%A0
User:%C4%A0Wie%C4%A0schreibe%C4%A0ich%C4%A0Ne ben
User:%C4%A0Was%C4%A0ist%C4%A0ein%C4%A0 Vulkan
Staaten.%C4%A0 F%C3%83%C2%BCr%C4%A0
wichtig %C4%A0
%C4%A0%C4%8AAssistant:%C4%A04 2
Fr ank
User:%C4%A0%C3%83%C4%BEbersetze%C4%A0ins%C4%A0Franz%C3%83%C2%B6sische:%C4%A0Wir%C4%A0kochen%C4%A0heute.%C4%A0%C4%8AAssistant:%C4%A0Nous%C4%A0cui sinons%C4%A0au
User:%C4%A0Wie%C4%A0entsteht%C4%A0 ein%C4%A0
Pflanz en.
User:%C4%A0Was%C4%A0ist%C4%A0der%C4%A0 Kalte%C4%A0Krieg?%C4%A0%C4%8AAssistant:%C4%A0Spannung%C4%A0
User:%C4%A0Bau e%C4%A0eine%C4%A0
